{
  "version": "1.0",
  "truncation": null,
  "padding": null,
  "added_tokens": [
    {
      "id": 0,
      "content": "<s>",
      "single_word": false,
      "lstrip": false,
      "rstrip": false,
      "normalized": false,
      "special": true
    },
    {
      "id": 1,
      "content": "</s>",
      "single_word": false,
      "lstrip": false,
      "rstrip": false,
      "normalized": false,
      "special": true
    },
    {
      "id": 2,
      "content": "<unk>",
      "single_word": false,
      "lstrip": false,
      "rstrip": false,
      "normalized": false,
      "special": true
    },
    {
      "id": 3,
      "content": "<pad>",
      "single_word": false,
      "lstrip": false,
      "rstrip": false,
      "normalized": false,
      "special": true
    }
  ],
  "normalizer": null,
  "pre_tokenizer": {
    "type": "Whitespace"
  },
  "post_processor": null,
  "decoder": null,
  "model": {
    "type": "BPE",
    "dropout": null,
    "unk_token": null,
    "continuing_subword_prefix": null,
    "end_of_word_suffix": null,
    "fuse_unk": false,
    "byte_fallback": false,
    "ignore_merges": false,
    "vocab": {
      "<s>": 0,
      "</s>": 1,
      "<unk>": 2,
      "<pad>": 3,
      "!": 4,
      "\"": 5,
      "#": 6,
      "$": 7,
      "%": 8,
      "&": 9,
      "'": 10,
      "(": 11,
      ")": 12,
      "*": 13,
      "+": 14,
      ",": 15,
      "-": 16,
      ".": 17,
      "/": 18,
      "0": 19,
      "1": 20,
      "2": 21,
      "3": 22,
      "4": 23,
      "5": 24,
      "6": 25,
      "7": 26,
      "8": 27,
      "9": 28,
      ":": 29,
      ";": 30,
      "<": 31,
      "=": 32,
      ">": 33,
      "?": 34,
      "@": 35,
      "A": 36,
      "B": 37,
      "C": 38,
      "D": 39,
      "E": 40,
      "F": 41,
      "G": 42,
      "H": 43,
      "I": 44,
      "J": 45,
      "K": 46,
      "L": 47,
      "M": 48,
      "N": 49,
      "O": 50,
      "P": 51,
      "Q": 52,
      "R": 53,
      "S": 54,
      "T": 55,
      "U": 56,
      "V": 57,
      "W": 58,
      "X": 59,
      "Y": 60,
      "Z": 61,
      "[": 62,
      "\\": 63,
      "]": 64,
      "^": 65,
      "_": 66,
      "a": 67,
      "b": 68,
      "c": 69,
      "d": 70,
      "e": 71,
      "f": 72,
      "g": 73,
      "h": 74,
      "i": 75,
      "j": 76,
      "k": 77,
      "l": 78,
      "m": 79,
      "n": 80,
      "o": 81,
      "p": 82,
      "q": 83,
      "r": 84,
      "s": 85,
      "t": 86,
      "u": 87,
      "v": 88,
      "w": 89,
      "x": 90,
      "y": 91,
      "z": 92,
      "|": 93,
      "}": 94,
      "~": 95,
      "’": 96,
      "“": 97,
      "”": 98,
      "•": 99,
      "th": 100,
      "in": 101,
      "an": 102,
      "er": 103,
      "the": 104,
      "on": 105,
      "re": 106,
      "at": 107,
      "en": 108,
      "or": 109,
      "es": 110,
      "al": 111,
      "is": 112,
      "ed": 113,
      "of": 114,
      "and": 115,
      "ou": 116,
      "to": 117,
      "ar": 118,
      "ing": 119,
      "it": 120,
      "as": 121,
      "ic": 122,
      "ion": 123,
      "le": 124,
      "st": 125,
      "ro": 126,
      "ent": 127,
      "ac": 128,
      "se": 129,
      "il": 130,
      "he": 131,
      "ve": 132,
      "om": 133,
      "be": 134,
      "ch": 135,
      "ly": 136,
      "de": 137,
      "for": 138,
      "ol": 139,
      "ation": 140,
      "ct": 141,
      "im": 142,
      "ow": 143,
      "am": 144,
      "are": 145,
      "su": 146,
      "ad": 147,
      "ig": 148,
      "that": 149,
      "ver": 150,
      "wh": 151,
      "ter": 152,
      "ce": 153,
      "ir": 154,
      "con": 155,
      "ab": 156,
      "pro": 157,
      "ay": 158,
      "id": 159,
      "ur": 160,
      "ot": 161,
      "un": 162,
      "ith": 163,
      "The": 164,
      "ge": 165,
      "us": 166,
      "ut": 167,
      "ul": 168,
      "pe": 169,
      "our": 170,
      "with": 171,
      "mo": 172,
      "com": 173,
      "tr": 174,
      "lo": 175,
      "ther": 176,
      "res": 177,
      "if": 178,
      "ex": 179,
      "ts": 180,
      "ment": 181,
      "ap": 182,
      "ne": 183,
      "ers": 184,
      "ate": 185,
      "te": 186,
      "we": 187,
      "pl": 188,
      "ain": 189,
      "all": 190,
      "ies": 191,
      "ess": 192,
      "ill": 193,
      "ke": 194,
      "od": 195,
      "op": 196,
      "ha": 197,
      "ity": 198,
      "oun": 199,
      "ld": 200,
      "so": 201,
      "by": 202,
      "est": 203,
      "ive": 204,
      "ere": 205,
      "igh": 206,
      "rom": 207,
      "iv": 208,
      "qu": 209,
      "can": 210,
      "em": 211,
      "ag": 212,
      "was": 213,
      "per": 214,
      "act": 215,
      "um": 216,
      "out": 217,
      "from": 218,
      "et": 219,
      "Th": 220,
      "sh": 221,
      "ist": 222,
      "po": 223,
      "ll": 224,
      "ant": 225,
      "In": 226,
      "ci": 227,
      "not": 228,
      "art": 229,
      "you": 230,
      "fe": 231,
      "wor": 232,
      "one": 233,
      "cl": 234,
      "ud": 235,
      "ical": 236,
      "have": 237,
      "gr": 238,
      "this": 239,
      "du": 240,
      "li": 241,
      "pr": 242,
      "me": 243,
      "co": 244,
      "ort": 245,
      "ure": 246,
      "ich": 247,
      "ma": 248,
      "der": 249,
      "ould": 250,
      "gh": 251,
      "00": 252,
      "ions": 253,
      "ib": 254,
      "age": 255,
      "str": 256,
      "man": 257,
      "ine": 258,
      "do": 259,
      "ated": 260,
      "ear": 261,
      "use": 262,
      "ome": 263,
      "ans": 264,
      "their": 265,
      "end": 266,
      "ach": 267,
      "ard": 268,
      "dis": 269,
      "ight": 270,
      "ough": 271,
      "other": 272,
      "which": 273,
      "ind": 274,
      "ide": 275,
      "ally": 276,
      "ip": 277,
      "your": 278,
      "ous": 279,
      "they": 280,
      "fo": 281,
      "ie": 282,
      "has": 283,
      "ound": 284,
      "iz": 285,
      "ence": 286,
      "able": 287,
      "cre": 288,
      "ia": 289,
      "will": 290,
      "more": 291,
      "19": 292,
      "up": 293,
      "port": 294,
      "form": 295,
      "pre": 296,
      "ong": 297,
      "ast": 298,
      "fer": 299,
      "ass": 300,
      "ish": 301,
      "ial": 302,
      "ca": 303,
      "go": 304,
      "el": 305,
      "its": 306,
      "king": 307,
      "ev": 308,
      "ction": 309,
      "ary": 310,
      "ater": 311,
      "tim": 312,
      "ple": 313,
      "av": 314,
      "cr": 315,
      "but": 316,
      "low": 317,
      "ks": 318,
      "ire": 319,
      "sy": 320,
      "ations": 321,
      "af": 322,
      "og": 323,
      "now": 324,
      "ild": 325,
      "ph": 326,
      "were": 327,
      "pres": 328,
      "cont": 329,
      "ust": 330,
      "also": 331,
      "ren": 332,
      "ents": 333,
      "ef": 334,
      "bo": 335,
      "br": 336,
      "ta": 337,
      "ber": 338,
      "ign": 339,
      "ame": 340,
      "comm": 341,
      "20": 342,
      "ace": 343,
      "Wh": 344,
      "part": 345,
      "cess": 346,
      "bl": 347,
      "pos": 348,
      "It": 349,
      "spe": 350,
      "who": 351,
      "This": 352,
      "no": 353,
      "ice": 354,
      "way": 355,
      "ition": 356,
      "ance": 357,
      "some": 358,
      "ase": 359,
      "gen": 360,
      "ack": 361,
      "very": 362,
      "about": 363,
      "cent": 364,
      "stud": 365,
      "ty": 366,
      "ite": 367,
      "ory": 368,
      "ep": 369,
      "them": 370,
      "his": 371,
      "ens": 372,
      "ang": 373,
      "sp": 374,
      "inter": 375,
      "ser": 376,
      "ces": 377,
      ").": 378,
      "any": 379,
      "Ch": 380,
      "col": 381,
      "over": 382,
      "than": 383,
      "ree": 384,
      "ors": 385,
      "An": 386,
      "dr": 387,
      "year": 388,
      "cor": 389,
      "may": 390,
      "aw": 391,
      "St": 392,
      "most": 393,
      "fect": 394,
      "ian": 395,
      "ile": 396,
      "own": 397,
      "int": 398,
      "reat": 399,
      "time": 400,
      "ates": 401,
      "ople": 402,
      "work": 403,
      "like": 404,
      "there": 405,
      "used": 406,
      "bet": 407,
      "when": 408,
      "been": 409,
      "dif": 410,
      "ult": 411,
      "olog": 412,
      "cur": 413,
      "into": 414,
      "fr": 415,
      "how": 416,
      "pt": 417,
      "~~": 418,
      "ob": 419,
      "comp": 420,
      "ings": 421,
      "arch": 422,
      "des": 423,
      "alth": 424,
      "wo": 425,
      "day": 426,
      "know": 427,
      "these": 428,
      "people": 429,
      "new": 430,
      "fl": 431,
      "ok": 432,
      "ful": 433,
      "hel": 434,
      "prov": 435,
      "had": 436,
      "mer": 437,
      "cho": 438,
      "vers": 439,
      "je": 440,
      "ual": 441,
      "rel": 442,
      "fir": 443,
      "stem": 444,
      "lop": 445,
      "ms": 446,
      "Un": 447,
      "lect": 448,
      "row": 449,
      "ific": 450,
      "ue": 451,
      "cause": 452,
      "fore": 453,
      "under": 454,
      "ities": 455,
      "sa": 456,
      "incl": 457,
      "land": 458,
      "thr": 459,
      "would": 460,
      "such": 461,
      "ments": 462,
      "min": 463,
      "ied": 464,
      "med": 465,
      "coun": 466,
      "only": 467,
      "mon": 468,
      "produ": 469,
      "ning": 470,
      "high": 471,
      "need": 472,
      "ating": 473,
      "reg": 474,
      "lear": 475,
      "velop": 476,
      "ck": 477,
      "cer": 478,
      "ative": 479,
      "old": 480,
      "ext": 481,
      "many": 482,
      "what": 483,
      "ail": 484,
      "ject": 485,
      "child": 486,
      "get": 487,
      "ys": 488,
      "cy": 489,
      "ational": 490,
      "ose": 491,
      "sur": 492,
      "help": 493,
      "sel": 494,
      "ular": 495,
      "ious": 496,
      "her": 497,
      "200": 498,
      "ak": 499,
      "cial": 500,
      "ten": 501,
      "ced": 502,
      "os": 503,
      "ting": 504,
      "ons": 505,
      "through": 506,
      "He": 507,
      "system": 508,
      "develop": 509,
      "ics": 510,
      "fic": 511,
      "red": 512,
      "first": 513,
      "18": 514,
      "10": 515,
      "As": 516,
      "rit": 517,
      "),": 518,
      "ath": 519,
      "vel": 520,
      "differ": 521,
      "les": 522,
      "ever": 523,
      "cal": 524,
      "well": 525,
      "We": 526,
      "water": 527,
      "tain": 528,
      "two": 529,
      "ise": 530,
      "Re": 531,
      "add": 532,
      "mar": 533,
      "par": 534,
      "au": 535,
      "ress": 536,
      "where": 537,
      "stand": 538,
      "stru": 539,
      "read": 540,
      "ble": 541,
      "ict": 542,
      "ible": 543,
      "less": 544,
      "bu": 545,
      "ra": 546,
      "ility": 547,
      "ubl": 548,
      "lif": 549,
      "uring": 550,
      "car": 551,
      "als": 552,
      "ased": 553,
      "cond": 554,
      "sup": 555,
      "ange": 556,
      "sul": 557,
      "serv": 558,
      "oc": 559,
      "should": 560,
      "my": 561,
      "att": 562,
      "inv": 563,
      "cons": 564,
      "come": 565,
      "lar": 566,
      "sub": 567,
      "health": 568,
      "ween": 569,
      "search": 570,
      "main": 571,
      "requ": 572,
      "air": 573,
      "ick": 574,
      "years": 575,
      "pers": 576,
      "long": 577,
      "ss": 578,
      "For": 579,
      "If": 580,
      "vir": 581,
      "ins": 582,
      "tern": 583,
      "then": 584,
      "gan": 585,
      "trans": 586,
      "between": 587,
      "di": 588,
      "ew": 589,
      "thing": 590,
      "ures": 591,
      "plan": 592,
      "pol": 593,
      "peri": 594,
      "could": 595,
      "ution": 596,
      "just": 597,
      "fin": 598,
      "try": 599,
      "ese": 600,
      "En": 601,
      "ds": 602,
      "make": 603,
      "eng": 604,
      "see": 605,
      "ily": 606,
      "ho": 607,
      "exam": 608,
      "chool": 609,
      "spec": 610,
      "num": 611,
      "iss": 612,
      "How": 613,
      "formation": 614,
      "gy": 615,
      "fact": 616,
      "import": 617,
      "ural": 618,
      "ident": 619,
      "Ar": 620,
      "201": 621,
      "after": 622,
      "ited": 623,
      "chn": 624,
      "fun": 625,
      "ted": 626,
      "De": 627,
      "tem": 628,
      "includ": 629,
      "hy": 630,
      "even": 631,
      "meric": 632,
      "Con": 633,
      "uch": 634,
      "gener": 635,
      "Americ": 636,
      "each": 637,
      "uc": 638,
      "Al": 639,
      "incre": 640,
      "sim": 641,
      "call": 642,
      "world": 643,
      "val": 644,
      "because": 645,
      "ters": 646,
      "found": 647,
      "different": 648,
      "effect": 649,
      "vis": 650,
      "ink": 651,
      "life": 652,
      "research": 653,
      "ology": 654,
      "set": 655,
      "che": 656,
      "led": 657,
      "pat": 658,
      "ists": 659,
      "hum": 660,
      "sure": 661,
      "ata": 662,
      "ness": 663,
      "ature": 664,
      "cus": 665,
      "app": 666,
      "fol": 667,
      "var": 668,
      "ives": 669,
      "vent": 670,
      "gram": 671,
      "ri": 672,
      "urn": 673,
      "sign": 674,
      "being": 675,
      "ower": 676,
      "ages": 677,
      "Com": 678,
      "sm": 679,
      "There": 680,
      "ically": 681,
      "publ": 682,
      "those": 683,
      "ety": 684,
      "ps": 685,
      "io": 686,
      "ism": 687,
      "They": 688,
      "bod": 689,
      "cour": 690,
      "self": 691,
      "ved": 692,
      "process": 693,
      "using": 694,
      "present": 695,
      "every": 696,
      "gu": 697,
      "blo": 698,
      "iew": 699,
      "back": 700,
      "ivers": 701,
      "soci": 702,
      "children": 703,
      "sk": 704,
      "sol": 705,
      "off": 706,
      "said": 707,
      "resul": 708,
      "Pro": 709,
      "cord": 710,
      "ris": 711,
      "fam": 712,
      "say": 713,
      "pect": 714,
      "commun": 715,
      "partic": 716,
      "ices": 717,
      "..": 718,
      "vi": 719,
      "ves": 720,
      "techn": 721,
      "level": 722,
      "press": 723,
      "important": 724,
      ".”": 725,
      "arm": 726,
      "though": 727,
      "ases": 728,
      "ener": 729,
      "much": 730,
      "mem": 731,
      "food": 732,
      "cell": 733,
      "gl": 734,
      "ry": 735,
      "cept": 736,
      "made": 737,
      "So": 738,
      "resp": 739,
      "ider": 740,
      "lead": 741,
      "bre": 742,
      "information": 743,
      "during": 744,
      "hist": 745,
      "follow": 746,
      "person": 747,
      "line": 748,
      "grow": 749,
      "ized": 750,
      "Mo": 751,
      "nor": 752,
      "she": 753,
      "ize": 754,
      "But": 755,
      "students": 756,
      "cap": 757,
      "prote": 758,
      "sci": 759,
      "same": 760,
      "school": 761,
      "does": 762,
      "take": 763,
      "char": 764,
      "ways": 765,
      "study": 766,
      "good": 767,
      "gg": 768,
      "light": 769,
      "power": 770,
      "proble": 771,
      "por": 772,
      "find": 773,
      "top": 774,
      "You": 775,
      "poss": 776,
      "play": 777,
      "data": 778,
      "What": 779,
      "mat": 780,
      "both": 781,
      "dep": 782,
      "ines": 783,
      "ric": 784,
      "ude": 785,
      "Be": 786,
      "tra": 787,
      "grou": 788,
      "state": 789,
      "comple": 790,
      "ward": 791,
      "Se": 792,
      "New": 793,
      "pop": 794,
      "inst": 795,
      "view": 796,
      "ix": 797,
      "treat": 798,
      "clo": 799,
      "place": 800,
      "while": 801,
      "don": 802,
      "before": 803,
      "ient": 804,
      "care": 805,
      "body": 806,
      "show": 807,
      "organ": 808,
      "down": 809,
      "small": 810,
      "ability": 811,
      "ner": 812,
      "ving": 813,
      "often": 814,
      ".,": 815,
      "viron": 816,
      "ality": 817,
      "let": 818,
      "lit": 819,
      "ug": 820,
      "ince": 821,
      "To": 822,
      "again": 823,
      "omen": 824,
      "la": 825,
      "him": 826,
      "ship": 827,
      "put": 828,
      "order": 829,
      "15": 830,
      "issu": 831,
      "ivid": 832,
      "activ": 833,
      "contro": 834,
      "trib": 835,
      "hand": 836,
      "When": 837,
      "plic": 838,
      "class": 839,
      "number": 840,
      "ants": 841,
      "And": 842,
      "||": 843,
      "12": 844,
      "gre": 845,
      "On": 846,
      "dise": 847,
      "struct": 848,
      "ars": 849,
      "known": 850,
      "ger": 851,
      "del": 852,
      "program": 853,
      "ished": 854,
      "net": 855,
      "mal": 856,
      "allow": 857,
      "human": 858,
      "design": 859,
      "ven": 860,
      "These": 861,
      "right": 862,
      "exp": 863,
      "appro": 864,
      "199": 865,
      "leg": 866,
      "ences": 867,
      "gover": 868,
      "ides": 869,
      "irect": 870,
      "vironment": 871,
      "tle": 872,
      "lim": 873,
      "ute": 874,
      "around": 875,
      "000": 876,
      "elect": 877,
      "ord": 878,
      "test": 879,
      "three": 880,
      "tal": 881,
      "sum": 882,
      "example": 883,
      "sever": 884,
      "must": 885,
      "iving": 886,
      "ub": 887,
      "iversity": 888,
      "ash": 889,
      "cover": 890,
      "called": 891,
      "aren": 892,
      "Is": 893,
      "cle": 894,
      "redu": 895,
      "17": 896,
      "bal": 897,
      "kes": 898,
      "ulation": 899,
      "turn": 900,
      "including": 901,
      "ital": 902,
      "ield": 903,
      "great": 904,
      "contin": 905,
      "teach": 906,
      "based": 907,
      "change": 908,
      "large": 909,
      "grap": 910,
      "Ex": 911,
      "mot": 912,
      "writ": 913,
      "did": 914,
      "eas": 915,
      "ually": 916,
      "sing": 917,
      "point": 918,
      "flu": 919,
      "govern": 920,
      "build": 921,
      "ury": 922,
      "ouse": 923,
      "consider": 924,
      "ton": 925,
      "equ": 926,
      "acter": 927,
      "educ": 928,
      "bi": 929,
      "16": 930,
      "ross": 931,
      "uro": 932,
      "ared": 933,
      "mp": 934,
      "support": 935,
      "men": 936,
      "ional": 937,
      "public": 938,
      "understand": 939,
      "ather": 940,
      "quest": 941,
      "product": 942,
      "pract": 943,
      "itions": 944,
      "Res": 945,
      "fac": 946,
      "chang": 947,
      "Pr": 948,
      "oper": 949,
      ",”": 950,
      "move": 951,
      "experi": 952,
      "start": 953,
      "dec": 954,
      "conom": 955,
      "pur": 956,
      "appe": 957,
      "still": 958,
      "too": 959,
      "~~~~": 960,
      "typ": 961,
      "ave": 962,
      "vol": 963,
      "imp": 964,
      "require": 965,
      "iven": 966,
      "aterial": 967,
      "curren": 968,
      "outh": 969,
      "30": 970,
      "American": 971,
      "ential": 972,
      "thod": 973,
      "ately": 974,
      "came": 975,
      "ividual": 976,
      "emp": 977,
      "Tr": 978,
      "term": 979,
      "prof": 980,
      "sit": 981,
      "want": 982,
      "However": 983,
      "pain": 984,
      ".\"": 985,
      "might": 986,
      "war": 987,
      "At": 988,
      "uses": 989,
      "miss": 990,
      "gn": 991,
      "adv": 992,
      "energy": 993,
      "ium": 994,
      "few": 995,
      "pass": 996,
      "ids": 997,
      "Ad": 998,
      "ond": 999,
      "depend": 1000,
      "face": 1001,
      "pot": 1002,
      "phys": 1003,
      "inal": 1004,
      "head": 1005,
      "loc": 1006,
      "home": 1007,
      "environment": 1008,
      "ization": 1009,
      "ron": 1010,
      "ources": 1011,
      "law": 1012,
      "bers": 1013,
      "without": 1014,
      "ben": 1015,
      "itive": 1016,
      "nat": 1017,
      "within": 1018,
      "development": 1019,
      "common": 1020,
      "iqu": 1021,
      "ights": 1022,
      "University": 1023,
      "learn": 1024,
      "ah": 1025,
      "direct": 1026,
      "til": 1027,
      "individual": 1028,
      "50": 1029,
      "action": 1030,
      "und": 1031,
      "Wor": 1032,
      "ived": 1033,
      "jo": 1034,
      "mus": 1035,
      "material": 1036,
      "cording": 1037,
      "ier": 1038,
      "ason": 1039,
      "mic": 1040,
      "mill": 1041,
      "cult": 1042,
      "stit": 1043,
      "anal": 1044,
      "14": 1045,
      "ark": 1046,
      "disease": 1047,
      "dist": 1048,
      "beli": 1049,
      "social": 1050,
      "angu": 1051,
      "project": 1052,
      "possible": 1053,
      "women": 1054,
      "sto": 1055,
      "No": 1056,
      "thor": 1057,
      "ade": 1058,
      "another": 1059,
      "area": 1060,
      "Le": 1061,
      "ran": 1062,
      "report": 1063,
      "bas": 1064,
      "Bo": 1065,
      "nam": 1066,
      "met": 1067,
      "contain": 1068,
      "blood": 1069,
      "arr": 1070,
      "last": 1071,
      "indu": 1072,
      "ask": 1073,
      "ples": 1074,
      "real": 1075,
      "look": 1076,
      "gin": 1077,
      "anim": 1078,
      "ele": 1079,
      "book": 1080,
      "iness": 1081,
      "here": 1082,
      "econom": 1083,
      "meas": 1084,
      "plant": 1085,
      "ense": 1086,
      "jor": 1087,
      "non": 1088,
      "risk": 1089,
      "mil": 1090,
      "ye": 1091,
      "include": 1092,
      "control": 1093,
      "ake": 1094,
      "best": 1095,
      "dom": 1096,
      "ore": 1097,
      "government": 1098,
      "early": 1099,
      "name": 1100,
      "keep": 1101,
      "ref": 1102,
      "proper": 1103,
      "suc": 1104,
      "vari": 1105,
      "bor": 1106,
      "Jo": 1107,
      "Ind": 1108,
      "ination": 1109,
      "13": 1110,
      "Col": 1111,
      "comes": 1112,
      "Nor": 1113,
      "become": 1114,
      "ues": 1115,
      "tion": 1116,
      "method": 1117,
      "second": 1118,
      "better": 1119,
      "post": 1120,
      "usu": 1121,
      "Pl": 1122,
      "avail": 1123,
      "Can": 1124,
      "free": 1125,
      "group": 1126,
      "ource": 1127,
      "cing": 1128,
      "ban": 1129,
      "All": 1130,
      "ww": 1131,
      "against": 1132,
      "ken": 1133,
      "history": 1134,
      "ground": 1135,
      "ency": 1136,
      "amp": 1137,
      "artic": 1138,
      "feel": 1139,
      "ket": 1140,
      "itional": 1141,
      "field": 1142,
      "national": 1143,
      "family": 1144,
      "certain": 1145,
      "Co": 1146,
      "ats": 1147,
      "ator": 1148,
      "bus": 1149,
      "ests": 1150,
      "enter": 1151,
      "United": 1152,
      "means": 1153,
      "mit": 1154,
      "provide": 1155,
      "major": 1156,
      "rad": 1157,
      "ify": 1158,
      "ended": 1159,
      "open": 1160,
      "itical": 1161,
      "11": 1162,
      "ones": 1163,
      "ste": 1164,
      "particular": 1165,
      "cu": 1166,
      "Dr": 1167,
      "ians": 1168,
      "species": 1169,
      "current": 1170,
      "cut": 1171,
      "hold": 1172,
      "type": 1173,
      "mean": 1174,
      "ills": 1175,
      "Or": 1176,
      "orig": 1177,
      "ients": 1178,
      "ified": 1179,
      "site": 1180,
      "learning": 1181,
      "mun": 1182,
      "near": 1183,
      "Ph": 1184,
      "US": 1185,
      "One": 1186,
      "aim": 1187,
      "period": 1188,
      "several": 1189,
      "run": 1190,
      "God": 1191,
      "dam": 1192,
      "flow": 1193,
      "happ": 1194,
      "invol": 1195,
      "descr": 1196,
      "fort": 1197,
      "langu": 1198,
      "plac": 1199,
      "cost": 1200,
      "lab": 1201,
      "Ac": 1202,
      "ological": 1203,
      "list": 1204,
      "bro": 1205,
      "percent": 1206,
      "wee": 1207,
      "cted": 1208,
      "benef": 1209,
      "bir": 1210,
      "az": 1211,
      "interest": 1212,
      "ards": 1213,
      "plain": 1214,
      "remain": 1215,
      "ina": 1216,
      "case": 1217,
      "whe": 1218,
      "scient": 1219,
      "think": 1220,
      "ply": 1221,
      "four": 1222,
      "NA": 1223,
      "Some": 1224,
      "ories": 1225,
      "occur": 1226,
      "things": 1227,
      "tell": 1228,
      "conne": 1229,
      "others": 1230,
      "tre": 1231,
      "--": 1232,
      "Ro": 1233,
      "idence": 1234,
      "trad": 1235,
      "treatment": 1236,
      "since": 1237,
      "available": 1238,
      "side": 1239,
      "making": 1240,
      "access": 1241,
      "cul": 1242,
      "among": 1243,
      "fil": 1244,
      "Sh": 1245,
      "ft": 1246,
      "signific": 1247,
      "far": 1248,
      "rop": 1249,
      "With": 1250,
      "affect": 1251,
      "ths": 1252,
      "rist": 1253,
      "ided": 1254,
      "areas": 1255,
      "dev": 1256,
      "graph": 1257,
      "times": 1258,
      "local": 1259,
      "paren": 1260,
      "ilar": 1261,
      "Af": 1262,
      "natural": 1263,
      "model": 1264,
      "tw": 1265,
      "house": 1266,
      "States": 1267,
      "key": 1268,
      "following": 1269,
      "aper": 1270,
      "ustr": 1271,
      "prevent": 1272,
      "country": 1273,
      "says": 1274,
      "ably": 1275,
      "ann": 1276,
      "Mar": 1277,
      "tru": 1278,
      ",\"": 1279,
      "abl": 1280,
      "Euro": 1281,
      "room": 1282,
      "tic": 1283,
      "function": 1284,
      "ale": 1285,
      "lin": 1286,
      "urther": 1287,
      "systems": 1288,
      "acy": 1289,
      "atic": 1290,
      "ches": 1291,
      "success": 1292,
      "tom": 1293,
      "posed": 1294,
      "cogn": 1295,
      "National": 1296,
      "train": 1297,
      "imes": 1298,
      "25": 1299,
      "prove": 1300,
      "Med": 1301,
      "cells": 1302,
      "ax": 1303,
      "nal": 1304,
      "rece": 1305,
      "tail": 1306,
      "ime": 1307,
      "exper": 1308,
      "object": 1309,
      "cially": 1310,
      "likely": 1311,
      "ls": 1312,
      "havi": 1313,
      "associ": 1314,
      "position": 1315,
      "By": 1316,
      "ior": 1317,
      "works": 1318,
      "little": 1319,
      "problems": 1320,
      "ready": 1321,
      "given": 1322,
      "amoun": 1323,
      "sis": 1324,
      "acc": 1325,
      "later": 1326,
      "brain": 1327,
      "ots": 1328,
      "course": 1329,
      "Europe": 1330,
      "pan": 1331,
      "due": 1332,
      "result": 1333,
      "cir": 1334,
      "words": 1335,
      "ox": 1336,
      "clear": 1337,
      "levels": 1338,
      "sequ": 1339,
      "glo": 1340,
      "ctor": 1341,
      "Sci": 1342,
      "Pe": 1343,
      "specific": 1344,
      "wide": 1345,
      "until": 1346,
      "Gr": 1347,
      "comb": 1348,
      "youn": 1349,
      "century": 1350,
      "industr": 1351,
      "problem": 1352,
      "198": 1353,
      "ances": 1354,
      "aster": 1355,
      "imate": 1356,
      "centr": 1357,
      "ove": 1358,
      "II": 1359,
      "days": 1360,
      "hard": 1361,
      "mis": 1362,
      "rest": 1363,
      "usually": 1364,
      "pet": 1365,
      "tries": 1366,
      "son": 1367,
      "author": 1368,
      "ledge": 1369,
      "Christ": 1370,
      "short": 1371,
      "significant": 1372,
      "gether": 1373,
      "oks": 1374,
      "tract": 1375,
      "defin": 1376,
      "ither": 1377,
      "sugg": 1378,
      "seem": 1379,
      "cuss": 1380,
      "ends": 1381,
      "exist": 1382,
      "hal": 1383,
      "mult": 1384,
      "ision": 1385,
      "hn": 1386,
      "related": 1387,
      "Ger": 1388,
      "40": 1389,
      "education": 1390,
      "aged": 1391,
      "That": 1392,
      "mind": 1393,
      "refer": 1394,
      "agement": 1395,
      "oid": 1396,
      "ought": 1397,
      "invest": 1398,
      "toms": 1399,
      "__": 1400,
      "along": 1401,
      "rele": 1402,
      "something": 1403,
      "aps": 1404,
      "lands": 1405,
      "Ear": 1406,
      "uture": 1407,
      "word": 1408,
      "necess": 1409,
      "ht": 1410,
      "sc": 1411,
      "heart": 1412,
      "tar": 1413,
      "suf": 1414,
      "always": 1415,
      "den": 1416,
      "atch": 1417,
      "space": 1418,
      "community": 1419,
      "language": 1420,
      "working": 1421,
      "behavi": 1422,
      "give": 1423,
      "recent": 1424,
      "cancer": 1425,
      "ont": 1426,
      "step": 1427,
      "Sy": 1428,
      "symp": 1429,
      "create": 1430,
      "lower": 1431,
      "bit": 1432,
      "temper": 1433,
      "increase": 1434,
      "death": 1435,
      "aring": 1436,
      "diffic": 1437,
      "vious": 1438,
      "effective": 1439,
      "together": 1440,
      "similar": 1441,
      "Go": 1442,
      "hol": 1443,
      "fish": 1444,
      "bur": 1445,
      "technology": 1446,
      "results": 1447,
      "Ne": 1448,
      "Of": 1449,
      "ler": 1450,
      "today": 1451,
      "eth": 1452,
      "mission": 1453,
      "kind": 1454,
      "establ": 1455,
      "plants": 1456,
      "million": 1457,
      "wr": 1458,
      "why": 1459,
      "population": 1460,
      "ned": 1461,
      "hor": 1462,
      "ours": 1463,
      "iver": 1464,
      "experience": 1465,
      "har": 1466,
      "character": 1467,
      "needs": 1468,
      "special": 1469,
      "Do": 1470,
      "fall": 1471,
      "conditions": 1472,
      "ication": 1473,
      "strong": 1474,
      "bon": 1475,
      "ently": 1476,
      "changes": 1477,
      "quality": 1478,
      "Po": 1479,
      "approach": 1480,
      "complete": 1481,
      "Afr": 1482,
      "sw": 1483,
      "ctions": 1484,
      "While": 1485,
      "ush": 1486,
      "ators": 1487,
      "web": 1488,
      "ped": 1489,
      "above": 1490,
      "Brit": 1491,
      "away": 1492,
      "hab": 1493,
      "mag": 1494,
      "espe": 1495,
      "ised": 1496,
      "loy": 1497,
      "next": 1498,
      "John": 1499,
      "eral": 1500,
      "begin": 1501,
      "asing": 1502,
      "especially": 1503,
      "profess": 1504,
      "respons": 1505,
      "going": 1506,
      "Afric": 1507,
      "various": 1508,
      "future": 1509,
      "reach": 1510,
      "higher": 1511,
      "tribut": 1512,
      "oney": 1513,
      "applic": 1514,
      "however": 1515,
      "relation": 1516,
      "sens": 1517,
      "iate": 1518,
      "aut": 1519,
      "active": 1520,
      "ik": 1521,
      "After": 1522,
      "ling": 1523,
      "ensive": 1524,
      "issue": 1525,
      "sal": 1526,
      "ental": 1527,
      "nut": 1528,
      "least": 1529,
      "earch": 1530,
      "never": 1531,
      "pression": 1532,
      "business": 1533,
      "across": 1534,
      "selves": 1535,
      "left": 1536,
      "past": 1537,
      "formed": 1538,
      "countries": 1539,
      "60": 1540,
      "tool": 1541,
      "atures": 1542,
      "big": 1543,
      "aves": 1544,
      "Me": 1545,
      "lack": 1546,
      "Car": 1547,
      "types": 1548,
      "production": 1549,
      "text": 1550,
      "gar": 1551,
      "ured": 1552,
      "ene": 1553,
      "improve": 1554,
      "young": 1555,
      "count": 1556,
      "issues": 1557,
      "ateg": 1558,
      "having": 1559,
      "prim": 1560,
      "ilities": 1561,
      "uter": 1562,
      "atory": 1563,
      "enough": 1564,
      "bar": 1565,
      "general": 1566,
      "moder": 1567,
      "lot": 1568,
      "science": 1569,
      "offic": 1570,
      "role": 1571,
      "expect": 1572,
      "rodu": 1573,
      "22": 1574,
      "ired": 1575,
      "fully": 1576,
      "ane": 1577,
      "stre": 1578,
      "effects": 1579,
      "represent": 1580,
      "concer": 1581,
      "chan": 1582,
      "Cl": 1583,
      "team": 1584,
      "ique": 1585,
      "city": 1586,
      "World": 1587,
      "grad": 1588,
      "War": 1589,
      "Coun": 1590,
      "discuss": 1591,
      "ially": 1592,
      "Stud": 1593,
      "patients": 1594,
      "ster": 1595,
      "Dis": 1596,
      "100": 1597,
      "cases": 1598,
      "Ge": 1599,
      "Engl": 1600,
      "full": 1601,
      "activity": 1602,
      "subject": 1603,
      "gress": 1604,
      "knowledge": 1605,
      "Te": 1606,
      "eds": 1607,
      "uel": 1608,
      "ae": 1609,
      "loss": 1610,
      "studies": 1611,
      "oto": 1612,
      "rate": 1613,
      "ands": 1614,
      "IS": 1615,
      "24": 1616,
      "English": 1617,
      "thern": 1618,
      "ening": 1619,
      "ention": 1620,
      "omet": 1621,
      "live": 1622,
      "dig": 1623,
      "whether": 1624,
      "minis": 1625,
      "ysis": 1626,
      "range": 1627,
      "reason": 1628,
      "Health": 1629,
      "aging": 1630,
      "mor": 1631,
      "became": 1632,
      "pose": 1633,
      "197": 1634,
      "amin": 1635,
      "org": 1636,
      "ires": 1637,
      "physical": 1638,
      "termin": 1639,
      "force": 1640,
      "influ": 1641,
      "mid": 1642,
      "offer": 1643,
      "ley": 1644,
      "Not": 1645,
      "seen": 1646,
      "Man": 1647,
      "Cal": 1648,
      "makes": 1649,
      "wind": 1650,
      "question": 1651,
      "sun": 1652,
      "ined": 1653,
      "further": 1654,
      "ames": 1655,
      "impact": 1656,
      "pay": 1657,
      "CO": 1658,
      "She": 1659,
      "21": 1660,
      "value": 1661,
      "symptoms": 1662,
      "def": 1663,
      "May": 1664,
      "building": 1665,
      "fri": 1666,
      "chem": 1667,
      "...": 1668,
      "itor": 1669,
      "labor": 1670,
      "story": 1671,
      "oman": 1672,
      "sent": 1673,
      "//": 1674,
      "amount": 1675,
      "polic": 1676,
      "explain": 1677,
      "colle": 1678,
      "article": 1679,
      "uary": 1680,
      "groups": 1681,
      "stat": 1682,
      "acts": 1683,
      "cop": 1684,
      "Research": 1685,
      "tow": 1686,
      "focus": 1687,
      "developed": 1688,
      "uation": 1689,
      "inking": 1690,
      "indic": 1691,
      "lay": 1692,
      "taken": 1693,
      "ilt": 1694,
      "products": 1695,
      "Br": 1696,
      "chall": 1697,
      "acks": 1698,
      "ending": 1699,
      "mark": 1700,
      "growth": 1701,
      "close": 1702,
      "ables": 1703,
      "difficult": 1704,
      "coming": 1705,
      "protect": 1706,
      "lines": 1707,
      "plement": 1708,
      "weight": 1709,
      "fig": 1710,
      "white": 1711,
      "ER": 1712,
      "activities": 1713,
      "inte": 1714,
      "paper": 1715,
      "rather": 1716,
      "particip": 1717,
      "five": 1718,
      "draw": 1719,
      "erc": 1720,
      "really": 1721,
      "toward": 1722,
      "neg": 1723,
      "urch": 1724,
      "below": 1725,
      "done": 1726,
      "iting": 1727,
      "htt": 1728,
      "init": 1729,
      "recogn": 1730,
      "resources": 1731,
      "Fe": 1732,
      "source": 1733,
      "forms": 1734,
      "23": 1735,
      "size": 1736,
      "either": 1737,
      "oil": 1738,
      "already": 1739,
      "mass": 1740,
      "frequ": 1741,
      "://": 1742,
      "Inter": 1743,
      "oking": 1744,
      "ibility": 1745,
      "ago": 1746,
      "addition": 1747,
      "event": 1748,
      "claim": 1749,
      "sof": 1750,
      "hip": 1751,
      "SA": 1752,
      "mber": 1753,
      "potential": 1754,
      "ank": 1755,
      "actions": 1756,
      "ification": 1757,
      "ched": 1758,
      "struction": 1759,
      "load": 1760,
      "achie": 1761,
      "North": 1762,
      "inci": 1763,
      "climate": 1764,
      "ints": 1765,
      "ometimes": 1766,
      "surface": 1767,
      "single": 1768,
      "South": 1769,
      "mach": 1770,
      "collect": 1771,
      "member": 1772,
      "Fr": 1773,
      "evol": 1774,
      "crip": 1775,
      "according": 1776,
      "xim": 1777,
      "once": 1778,
      "diag": 1779,
      "soil": 1780,
      "members": 1781,
      "vo": 1782,
      "ficient": 1783,
      "healthy": 1784,
      "ison": 1785,
      "relig": 1786,
      "covered": 1787,
      "upon": 1788,
      "leep": 1789,
      "dem": 1790,
      "ival": 1791,
      "economic": 1792,
      "ns": 1793,
      "skills": 1794,
      "ays": 1795,
      "aver": 1796,
      "half": 1797,
      "drug": 1798,
      "outs": 1799,
      "prob": 1800,
      "thir": 1801,
      "gas": 1802,
      "histor": 1803,
      "answ": 1804,
      "pread": 1805,
      "introdu": 1806,
      "bot": 1807,
      "Many": 1808,
      "syn": 1809,
      "whole": 1810,
      "medical": 1811,
      "address": 1812,
      "reduce": 1813,
      "wood": 1814,
      "Per": 1815,
      "America": 1816,
      "created": 1817,
      "meet": 1818,
      "aking": 1819,
      "associated": 1820,
      "road": 1821,
      "atter": 1822,
      "parts": 1823,
      "pressure": 1824,
      "path": 1825,
      "Hist": 1826,
      "fail": 1827,
      "week": 1828,
      "living": 1829,
      "evidence": 1830,
      "observ": 1831,
      "continu": 1832,
      "photo": 1833,
      "gest": 1834,
      "ork": 1835,
      "nature": 1836,
      "portun": 1837,
      "questions": 1838,
      "engine": 1839,
      "dict": 1840,
      "ivil": 1841,
      "detail": 1842,
      "istic": 1843,
      "His": 1844,
      "return": 1845,
      "considered": 1846,
      "sed": 1847,
      "scal": 1848,
      "fat": 1849,
      "political": 1850,
      "condu": 1851,
      "necessary": 1852,
      "recomm": 1853,
      "Act": 1854,
      "suggest": 1855,
      "enn": 1856,
      "anger": 1857,
      "sound": 1858,
      "states": 1859,
      "Ser": 1860,
      "gain": 1861,
      "skin": 1862,
      "famil": 1863,
      "researchers": 1864,
      "mb": 1865,
      "themselves": 1866,
      "utions": 1867,
      "sych": 1868,
      "animals": 1869,
      "igr": 1870,
      "round": 1871,
      "ering": 1872,
      "cannot": 1873,
      "Gu": 1874,
      "ened": 1875,
      "practice": 1876,
      "black": 1877,
      "stress": 1878,
      "Pres": 1879,
      "ports": 1880,
      "published": 1881,
      "normal": 1882,
      "thought": 1883,
      "simple": 1884,
      "understanding": 1885,
      "ged": 1886,
      "increased": 1887,
      "ges": 1888,
      "needed": 1889,
      "IN": 1890,
      "flo": 1891,
      "actually": 1892,
      "une": 1893,
      "green": 1894,
      "Des": 1895,
      "required": 1896,
      "feed": 1897,
      "priv": 1898,
      "fed": 1899,
      "gs": 1900,
      "spr": 1901,
      "modern": 1902,
      "produce": 1903,
      "Ap": 1904,
      "opportun": 1905,
      "Ab": 1906,
      "describ": 1907,
      "explo": 1908,
      "illed": 1909,
      "ising": 1910,
      "idea": 1911,
      "pie": 1912,
      "appear": 1913,
      "micro": 1914,
      "squ": 1915,
      "complex": 1916,
      "ES": 1917,
      "rect": 1918,
      "global": 1919,
      "relationship": 1920,
      "ournal": 1921,
      "rights": 1922,
      "student": 1923,
      "ey": 1924,
      "quick": 1925,
      "ief": 1926,
      "Earth": 1927,
      "ru": 1928,
      "iding": 1929,
      "York": 1930,
      "almost": 1931,
      "entire": 1932,
      "condition": 1933,
      "spir": 1934,
      "money": 1935,
      "taking": 1936,
      "fire": 1937,
      "Most": 1938,
      "bed": 1939,
      "color": 1940,
      "won": 1941,
      "lives": 1942,
      "materials": 1943,
      "chemical": 1944,
      "took": 1945,
      "eve": 1946,
      "docu": 1947,
      "hib": 1948,
      "parents": 1949,
      "ses": 1950,
      "More": 1951,
      "itself": 1952,
      "personal": 1953,
      "maintain": 1954,
      "dy": 1955,
      "State": 1956,
      "company": 1957,
      "lying": 1958,
      "sex": 1959,
      "analysis": 1960,
      "services": 1961,
      "provides": 1962,
      "management": 1963,
      "diet": 1964,
      "six": 1965,
      "safe": 1966,
      "writing": 1967,
      "assess": 1968,
      "built": 1969,
      "factors": 1970,
      "Eng": 1971,
      "link": 1972,
      "Par": 1973,
      "sam": 1974,
      ".)": 1975,
      "exerc": 1976,
      "curity": 1977,
      "Although": 1978,
      "ID": 1979,
      "stant": 1980,
      "28": 1981,
      "stain": 1982,
      "liter": 1983,
      "Austr": 1984,
      "itary": 1985,
      "Here": 1986,
      "regard": 1987,
      "ney": 1988,
      "dro": 1989,
      "Sp": 1990,
      "AN": 1991,
      "computer": 1992,
      "compan": 1993,
      "Im": 1994,
      "months": 1995,
      "reme": 1996,
      "Pol": 1997,
      "occ": 1998,
      "dle": 1999,
      "reading": 2000,
      "record": 2001,
      "regular": 2002,
      "ping": 2003,
      "27": 2004,
      "measure": 2005,
      "emer": 2006,
      "medic": 2007,
      "yet": 2008,
      "wal": 2009,
      "began": 2010,
      "popular": 2011,
      "Qu": 2012,
      "Canad": 2013,
      "infect": 2014,
      "print": 2015,
      "www": 2016,
      "):": 2017,
      "26": 2018,
      "separ": 2019,
      "region": 2020,
      "content": 2021,
      "log": 2022,
      "British": 2023,
      "afety": 2024,
      "sha": 2025,
      "rul": 2026,
      "AR": 2027,
      "\".": 2028,
      "page": 2029,
      "aud": 2030,
      "online": 2031,
      "respon": 2032,
      "job": 2033,
      "partment": 2034,
      "Jew": 2035,
      "ivity": 2036,
      "cular": 2037,
      "service": 2038,
      "night": 2039,
      "cit": 2040,
      "respect": 2041,
      "stor": 2042,
      "vide": 2043,
      "farm": 2044,
      "ret": 2045,
      "ike": 2046,
      "clean": 2047,
      "pattern": 2048,
      "ption": 2049,
      "inc": 2050,
      "apy": 2051,
      "utes": 2052,
      "bul": 2053,
      "chol": 2054,
      "increasing": 2055,
      "rich": 2056,
      "sense": 2057,
      "apan": 2058,
      "ded": 2059,
      "conf": 2060,
      "sleep": 2061,
      "AT": 2062,
      "Cent": 2063,
      "throughout": 2064,
      "sl": 2065,
      "hours": 2066,
      "Lo": 2067,
      "princi": 2068,
      "mental": 2069,
      "izing": 2070,
      "ze": 2071,
      "ery": 2072,
      "80": 2073,
      "School": 2074,
      "usion": 2075,
      "abs": 2076,
      "training": 2077,
      "Your": 2078,
      "heav": 2079,
      "carbon": 2080,
      "mother": 2081,
      "lling": 2082,
      "Instit": 2083,
      "heat": 2084,
      "Ed": 2085,
      "vit": 2086,
      "structure": 2087,
      "Other": 2088,
      "From": 2089,
      "break": 2090,
      "market": 2091,
      "Cor": 2092,
      "diagno": 2093,
      "ming": 2094,
      "According": 2095,
      "shows": 2096,
      "ronic": 2097,
      "society": 2098,
      "thus": 2099,
      "decl": 2100,
      "Japan": 2101,
      "Cont": 2102,
      "total": 2103,
      "reed": 2104,
      "rap": 2105,
      "viol": 2106,
      "estern": 2107,
      "individuals": 2108,
      "consum": 2109,
      "meaning": 2110,
      "previous": 2111,
      "cies": 2112,
      "behavior": 2113,
      "Mon": 2114,
      "iation": 2115,
      "forest": 2116,
      "matter": 2117,
      "temperature": 2118,
      "schools": 2119,
      "longer": 2120,
      "Ste": 2121,
      "share": 2122,
      "verse": 2123,
      "immun": 2124,
      "true": 2125,
      "terms": 2126,
      "avoid": 2127,
      "deli": 2128,
      "spect": 2129,
      "surv": 2130,
      "reli": 2131,
      "designed": 2132,
      "fru": 2133,
      "threat": 2134,
      "caused": 2135,
      "environmental": 2136,
      "industry": 2137,
      "bacter": 2138,
      "uss": 2139,
      "ife": 2140,
      "etc": 2141,
      "aware": 2142,
      "smo": 2143,
      "Will": 2144,
      "Her": 2145,
      "bill": 2146,
      "Min": 2147,
      "29": 2148,
      "provided": 2149,
      "dest": 2150,
      "easy": 2151,
      "books": 2152,
      "positive": 2153,
      "hood": 2154,
      "lex": 2155,
      "aft": 2156,
      "My": 2157,
      "bring": 2158,
      "rain": 2159,
      "scre": 2160,
      "lor": 2161,
      "determin": 2162,
      "ood": 2163,
      "employ": 2164,
      "resist": 2165,
      "late": 2166,
      "fection": 2167,
      "experim": 2168,
      "opt": 2169,
      "yle": 2170,
      "Har": 2171,
      "standard": 2172,
      "anced": 2173,
      "accept": 2174,
      "Our": 2175,
      "earth": 2176,
      "fem": 2177,
      "King": 2178,
      "ford": 2179,
      "music": 2180,
      "ublic": 2181,
      "iter": 2182,
      "written": 2183,
      "rown": 2184,
      "dete": 2185,
      "Pre": 2186,
      "shown": 2187,
      "aid": 2188,
      "Am": 2189,
      "ades": 2190,
      "causes": 2191,
      "image": 2192,
      "ulations": 2193,
      "benefits": 2194,
      "sometimes": 2195,
      "vision": 2196,
      "reng": 2197,
      "average": 2198,
      "date": 2199,
      "tax": 2200,
      "attle": 2201,
      "love": 2202,
      "camp": 2203,
      "poor": 2204,
      "inj": 2205,
      "ties": 2206,
      "hom": 2207,
      "stop": 2208,
      "Fir": 2209,
      "ips": 2210,
      "forman": 2211,
      "aily": 2212,
      "nation": 2213,
      "ners": 2214,
      "methods": 2215,
      "spread": 2216,
      "Science": 2217,
      "etic": 2218,
      "placed": 2219,
      "eat": 2220,
      "ults": 2221,
      "India": 2222,
      "includes": 2223,
      "cil": 2224,
      "variety": 2225,
      "aff": 2226,
      "culture": 2227,
      "original": 2228,
      "check": 2229,
      "relative": 2230,
      "196": 2231,
      "itch": 2232,
      "review": 2233,
      "respond": 2234,
      "deep": 2235,
      "194": 2236,
      "believe": 2237,
      "origin": 2238,
      "aving": 2239,
      "habit": 2240,
      "Ho": 2241,
      "reported": 2242,
      "programs": 2243,
      "inary": 2244,
      "produced": 2245,
      "mechan": 2246,
      "ites": 2247,
      "ai": 2248,
      "promot": 2249,
      "sea": 2250,
      "sou": 2251,
      "ging": 2252,
      "greater": 2253,
      "doing": 2254,
      "lled": 2255,
      "vey": 2256,
      "Now": 2257,
      "simply": 2258,
      "response": 2259,
      "ino": 2260,
      "movement": 2261,
      "nia": 2262,
      "ams": 2263,
      "remo": 2264,
      "German": 2265,
      "istics": 2266,
      "wall": 2267,
      "argu": 2268,
      "demon": 2269,
      "migr": 2270,
      "ension": 2271,
      "contact": 2272,
      "proved": 2273,
      "electric": 2274,
      "consist": 2275,
      "ried": 2276,
      "Jan": 2277,
      "duc": 2278,
      "born": 2279,
      "iple": 2280,
      "foot": 2281,
      "ufact": 2282,
      "Austral": 2283,
      "Gener": 2284,
      "scientists": 2285,
      "inste": 2286,
      "involved": 2287,
      "rench": 2288,
      "AC": 2289,
      "progress": 2290,
      "suffer": 2291,
      "helps": 2292,
      "cient": 2293,
      "growing": 2294,
      "particularly": 2295,
      "First": 2296,
      "AS": 2297,
      "cot": 2298,
      "events": 2299,
      "tur": 2300,
      "appropr": 2301,
      "card": 2302,
      "concept": 2303,
      "super": 2304,
      "plied": 2305,
      "astic": 2306,
      "ring": 2307,
      "emot": 2308,
      "correct": 2309,
      "ung": 2310,
      "pict": 2311,
      "patient": 2312,
      "ert": 2313,
      "http": 2314,
      "wa": 2315,
      "identify": 2316,
      "integr": 2317,
      "deal": 2318,
      "streng": 2319,
      "ana": 2320,
      "35": 2321,
      "cture": 2322,
      "iabet": 2323,
      "Aug": 2324,
      "damage": 2325,
      "China": 2326,
      "encour": 2327,
      "Spe": 2328,
      "got": 2329,
      "mix": 2330,
      "sustain": 2331,
      "foods": 2332,
      "bs": 2333,
      "IC": 2334,
      "outside": 2335,
      "sources": 2336,
      "front": 2337,
      "section": 2338,
      "Sep": 2339,
      "70": 2340,
      "2010": 2341,
      "teen": 2342,
      "formance": 2343,
      "ises": 2344,
      "media": 2345,
      "joy": 2346,
      "answer": 2347,
      "account": 2348,
      "cat": 2349,
      "compon": 2350,
      "itation": 2351,
      "Ju": 2352,
      "90": 2353,
      "itis": 2354,
      "essential": 2355,
      "fa": 2356,
      "pul": 2357,
      "uge": 2358,
      "held": 2359,
      "RE": 2360,
      "basic": 2361,
      "looking": 2362,
      "atives": 2363,
      "hind": 2364,
      "ensure": 2365,
      "vacc": 2366,
      "feet": 2367,
      "rup": 2368,
      "developing": 2369,
      "gard": 2370,
      "enced": 2371,
      "pret": 2372,
      "implement": 2373,
      "board": 2374,
      "apt": 2375,
      "serious": 2376,
      "attention": 2377,
      "went": 2378,
      "ball": 2379,
      "sil": 2380,
      "generally": 2381,
      "star": 2382,
      "extreme": 2383,
      "animal": 2384,
      "series": 2385,
      "attem": 2386,
      "wild": 2387,
      "idge": 2388,
      "visit": 2389,
      "During": 2390,
      "2012": 2391,
      "sites": 2392,
      "Child": 2393,
      "points": 2394,
      "getting": 2395,
      "dou": 2396,
      "takes": 2397,
      "policy": 2398,
      "Intern": 2399,
      "orders": 2400,
      "select": 2401,
      "ministr": 2402,
      "colon": 2403,
      "assist": 2404,
      "probably": 2405,
      "demonstr": 2406,
      "div": 2407,
      "llow": 2408,
      "third": 2409,
      "numbers": 2410,
      "fast": 2411,
      "ials": 2412,
      "cross": 2413,
      "cks": 2414,
      "European": 2415,
      "Educ": 2416,
      "bab": 2417,
      "contr": 2418,
      "Char": 2419,
      "independ": 2420,
      "teachers": 2421,
      "ideas": 2422,
      "Read": 2423,
      "challeng": 2424,
      "reas": 2425,
      "fuel": 2426,
      "continue": 2427,
      "mess": 2428,
      "estim": 2429,
      "Mic": 2430,
      "Oc": 2431,
      "ral": 2432,
      "guide": 2433,
      "security": 2434,
      "express": 2435,
      "sph": 2436,
      "tit": 2437,
      "arily": 2438,
      "included": 2439,
      "2011": 2440,
      "aries": 2441,
      "doesn": 2442,
      "eye": 2443,
      "travel": 2444,
      "psych": 2445,
      "safety": 2446,
      "manufact": 2447,
      "slow": 2448,
      "IV": 2449,
      "scale": 2450,
      "infl": 2451,
      "Fran": 2452,
      "vert": 2453,
      "town": 2454,
      "traditional": 2455,
      "dry": 2456,
      "commit": 2457,
      "Lear": 2458,
      "wise": 2459,
      "TH": 2460,
      "roy": 2461,
      "central": 2462,
      "era": 2463,
      "established": 2464,
      "allows": 2465,
      "termine": 2466,
      "host": 2467,
      "Che": 2468,
      "hot": 2469,
      "therefore": 2470,
      "eval": 2471,
      "someone": 2472,
      "veget": 2473,
      "sen": 2474,
      "fav": 2475,
      "month": 2476,
      "pen": 2477,
      "tribution": 2478,
      "kids": 2479,
      "French": 2480,
      "easily": 2481,
      "err": 2482,
      "evolution": 2483,
      "legal": 2484,
      "version": 2485,
      "tree": 2486,
      "Indian": 2487,
      "AD": 2488,
      "concl": 2489,
      "Jes": 2490,
      "Even": 2491,
      "na": 2492,
      "graphy": 2493,
      "bad": 2494,
      "international": 2495,
      "ON": 2496,
      "Apr": 2497,
      "poll": 2498,
      "Center": 2499,
      "ibe": 2500,
      "Ma": 2501,
      "attack": 2502,
      "March": 2503,
      "sect": 2504,
      "quite": 2505,
      "ountain": 2506,
      "performance": 2507,
      "prep": 2508,
      "Why": 2509,
      "added": 2510,
      "instead": 2511,
      "thous": 2512,
      "protein": 2513,
      "Since": 2514,
      "sus": 2515,
      "advant": 2516,
      "finan": 2517,
      "investig": 2518,
      "ference": 2519,
      "decre": 2520,
      "sho": 2521,
      "deb": 2522,
      "daily": 2523,
      "Mus": 2524,
      "leaders": 2525,
      "cred": 2526,
      "primary": 2527,
      "jud": 2528,
      "civil": 2529,
      "haps": 2530,
      "pal": 2531,
      "theory": 2532,
      "thy": 2533,
      "agree": 2534,
      "tware": 2535,
      "started": 2536,
      "History": 2537,
      "waste": 2538,
      "although": 2539,
      "instit": 2540,
      "warm": 2541,
      "West": 2542,
      "immed": 2543,
      "ham": 2544,
      "June": 2545,
      "ifor": 2546,
      "imin": 2547,
      "difference": 2548,
      "tools": 2549,
      "scientific": 2550,
      "tend": 2551,
      "Gre": 2552,
      "soon": 2553,
      "communities": 2554,
      "diseases": 2555,
      "ets": 2556,
      "isions": 2557,
      "ST": 2558,
      "determine": 2559,
      "sco": 2560,
      "document": 2561,
      "concentr": 2562,
      "leading": 2563,
      "vation": 2564,
      "cles": 2565,
      "military": 2566,
      "inside": 2567,
      "Bar": 2568,
      "limited": 2569,
      "sem": 2570,
      "equip": 2571,
      "Califor": 2572,
      "oph": 2573,
      "believ": 2574,
      "covery": 2575,
      "vention": 2576,
      "minim": 2577,
      "2013": 2578,
      "ding": 2579,
      "reflect": 2580,
      "supply": 2581,
      "achieve": 2582,
      "larger": 2583,
      "clin": 2584,
      "Hum": 2585,
      "OR": 2586,
      "unique": 2587,
      "ote": 2588,
      "corpor": 2589,
      "rough": 2590,
      "infection": 2591,
      "Comp": 2592,
      "companies": 2593,
      "compared": 2594,
      "altern": 2595,
      "located": 2596,
      "tered": 2597,
      "2009": 2598,
      "solar": 2599,
      "center": 2600,
      "acid": 2601,
      "directly": 2602,
      "father": 2603,
      "quickly": 2604,
      "negative": 2605,
      "iabetes": 2606,
      "bey": 2607,
      "ceed": 2608,
      "news": 2609,
      "High": 2610,
      "accur": 2611,
      "sat": 2612,
      "iet": 2613,
      "humans": 2614,
      "Department": 2615,
      "fici": 2616,
      "uck": 2617,
      "cry": 2618,
      "pts": 2619,
      "gets": 2620,
      "friend": 2621,
      "critical": 2622,
      "west": 2623,
      "Gree": 2624,
      "gree": 2625,
      "trees": 2626,
      "ively": 2627,
      "que": 2628,
      "iam": 2629,
      "tox": 2630,
      "California": 2631,
      "ff": 2632,
      "Institute": 2633,
      "win": 2634,
      "network": 2635,
      "proced": 2636,
      "multiple": 2637,
      "highly": 2638,
      "severe": 2639,
      "Russ": 2640,
      "ington": 2641,
      "hic": 2642,
      "augh": 2643,
      "speed": 2644,
      "ows": 2645,
      "See": 2646,
      "birth": 2647,
      "useum": 2648,
      "International": 2649,
      "doctor": 2650,
      "ulture": 2651,
      "Because": 2652,
      "akes": 2653,
      "undred": 2654,
      "fit": 2655,
      "tric": 2656,
      "fair": 2657,
      "cast": 2658,
      "ibr": 2659,
      "August": 2660,
      "leng": 2661,
      "broad": 2662,
      "appropriate": 2663,
      "ishing": 2664,
      "33": 2665,
      "Dav": 2666,
      "code": 2667,
      "2008": 2668,
      "construction": 2669,
      "families": 2670,
      "additional": 2671,
      "serve": 2672,
      "base": 2673,
      "purpose": 2674,
      "sold": 2675,
      "IT": 2676,
      "behind": 2677,
      "video": 2678,
      "bel": 2679,
      "pair": 2680,
      "wel": 2681,
      "lam": 2682,
      "Gen": 2683,
      "fight": 2684,
      "Part": 2685,
      "exercise": 2686,
      "expected": 2687,
      "ugh": 2688,
      "UN": 2689,
      "aspect": 2690,
      "places": 2691,
      "analy": 2692,
      "seems": 2693,
      "prior": 2694,
      "target": 2695,
      "tes": 2696,
      "ama": 2697,
      "April": 2698,
      "Then": 2699,
      "oud": 2700,
      "African": 2701,
      "useful": 2702,
      "Sm": 2703,
      "tests": 2704,
      "ancy": 2705,
      "write": 2706,
      "stay": 2707,
      "AL": 2708,
      "auto": 2709,
      "beginning": 2710,
      "mom": 2711,
      "Bi": 2712,
      "teaching": 2713,
      "July": 2714,
      "capt": 2715,
      "gency": 2716,
      "pite": 2717,
      "ume": 2718,
      "whose": 2719,
      "note": 2720,
      "Mc": 2721,
      "Jesus": 2722,
      "onom": 2723,
      "Also": 2724,
      "45": 2725,
      "iques": 2726,
      "towards": 2727,
      "thinking": 2728,
      "EN": 2729,
      "obtain": 2730,
      "36": 2731,
      "quant": 2732,
      "Africa": 2733,
      "except": 2734,
      "ift": 2735,
      "strict": 2736,
      "uries": 2737,
      "anti": 2738,
      "rates": 2739,
      "cean": 2740,
      "table": 2741,
      "hous": 2742,
      "mob": 2743,
      "reve": 2744,
      "elements": 2745,
      "ump": 2746,
      "lost": 2747,
      "mention": 2748,
      "location": 2749,
      "nuc": 2750,
      "Christian": 2751,
      "danger": 2752,
      "iers": 2753,
      "Let": 2754,
      "workers": 2755,
      "ounds": 2756,
      "dark": 2757,
      "Americans": 2758,
      "values": 2759,
      "People": 2760,
      "software": 2761,
      "ilos": 2762,
      "transport": 2763,
      "capac": 2764,
      "Fin": 2765,
      "talk": 2766,
      "isms": 2767,
      "forts": 2768,
      "game": 2769,
      "Rep": 2770,
      "features": 2771,
      "ancient": 2772,
      "Fig": 2773,
      "ius": 2774,
      "images": 2775,
      "contains": 2776,
      "perform": 2777,
      "inde": 2778,
      "situation": 2779,
      "capital": 2780,
      "Wash": 2781,
      "contribut": 2782,
      "ously": 2783,
      "PA": 2784,
      "cou": 2785,
      "item": 2786,
      "minutes": 2787,
      "ains": 2788,
      "stitution": 2789,
      "hundred": 2790,
      "Day": 2791,
      "box": 2792,
      "ops": 2793,
      "protection": 2794,
      "Over": 2795,
      "cultural": 2796,
      "private": 2797,
      "else": 2798,
      "predict": 2799,
      "exact": 2800,
      "agric": 2801,
      "display": 2802,
      "shall": 2803,
      "lic": 2804,
      "described": 2805,
      "largest": 2806,
      "aul": 2807,
      "resh": 2808,
      "nel": 2809,
      "mbol": 2810,
      "north": 2811,
      "BC": 2812,
      "carry": 2813,
      "brought": 2814,
      "Chin": 2815,
      "virus": 2816,
      "religious": 2817,
      "cade": 2818,
      "Gover": 2819,
      "2007": 2820,
      "rac": 2821,
      "hon": 2822,
      "craft": 2823,
      "Don": 2824,
      "demand": 2825,
      "speak": 2826,
      "ico": 2827,
      "hun": 2828,
      "season": 2829,
      "requires": 2830,
      "Reg": 2831,
      "abilities": 2832,
      "195": 2833,
      "strateg": 2834,
      "mocr": 2835,
      "President": 2836,
      "Trans": 2837,
      "commer": 2838,
      "saw": 2839,
      "____": 2840,
      "received": 2841,
      "mole": 2842,
      "phen": 2843,
      "trade": 2844,
      "lier": 2845,
      "solution": 2846,
      "River": 2847,
      "tas": 2848,
      "told": 2849,
      "enjoy": 2850,
      "”.": 2851,
      "Ob": 2852,
      "decision": 2853,
      "bert": 2854,
      "dog": 2855,
      "application": 2856,
      "ologies": 2857,
      "adults": 2858,
      "eating": 2859,
      "memory": 2860,
      "influence": 2861,
      "typically": 2862,
      "leaves": 2863,
      "financial": 2864,
      "south": 2865,
      "Ty": 2866,
      "inct": 2867,
      "nearly": 2868,
      "Sw": 2869,
      "cool": 2870,
      "hands": 2871,
      "hydro": 2872,
      "lat": 2873,
      "goal": 2874,
      "Canada": 2875,
      "cohol": 2876,
      "izes": 2877,
      "hope": 2878,
      "vic": 2879,
      "cam": 2880,
      "stage": 2881,
      "ficiency": 2882,
      "command": 2883,
      "block": 2884,
      "els": 2885,
      "band": 2886,
      "uk": 2887,
      "inf": 2888,
      "ales": 2889,
      "projects": 2890,
      "sess": 2891,
      "becomes": 2892,
      "ament": 2893,
      "ulate": 2894,
      "tember": 2895,
      "Just": 2896,
      "compet": 2897,
      "ito": 2898,
      "ED": 2899,
      "communication": 2900,
      "weeks": 2901,
      "bacteria": 2902,
      "Ber": 2903,
      "website": 2904,
      "via": 2905,
      "beaut": 2906,
      "devices": 2907,
      "estic": 2908,
      "tober": 2909,
      "izations": 2910,
      "dead": 2911,
      "Great": 2912,
      "Sun": 2913,
      "communic": 2914,
      "importance": 2915,
      "Isra": 2916,
      "sugar": 2917,
      "emiss": 2918,
      "September": 2919,
      "watch": 2920,
      "user": 2921,
      "vest": 2922,
      "expo": 2923,
      "costs": 2924,
      "cum": 2925,
      "property": 2926,
      "Add": 2927,
      "October": 2928,
      "install": 2929,
      "citiz": 2930,
      "nes": 2931,
      "former": 2932,
      "Associ": 2933,
      "egg": 2934,
      "processes": 2935,
      "Techn": 2936,
      "oral": 2937,
      "Black": 2938,
      "weak": 2939,
      "kill": 2940,
      "January": 2941,
      "perfect": 2942,
      "Education": 2943,
      "harm": 2944,
      "Use": 2945,
      "rare": 2946,
      "summer": 2947,
      "iat": 2948,
      "nit": 2949,
      "General": 2950,
      "Serv": 2951,
      "teacher": 2952,
      "Red": 2953,
      "Sim": 2954,
      "asked": 2955,
      "generation": 2956,
      "kets": 2957,
      "imag": 2958,
      "Each": 2959,
      "sett": 2960,
      "Another": 2961,
      "creating": 2962,
      "ero": 2963,
      "testing": 2964,
      "died": 2965,
      "surround": 2966,
      "Chinese": 2967,
      "Sup": 2968,
      "antic": 2969,
      "38": 2970,
      "tempor": 2971,
      "winter": 2972,
      "entially": 2973,
      "Cong": 2974,
      "Ke": 2975,
      "Sur": 2976,
      "vehic": 2977,
      "remains": 2978,
      "rot": 2979,
      "rapid": 2980,
      "San": 2981,
      "amm": 2982,
      "Lon": 2983,
      "himself": 2984,
      "forces": 2985,
      "efforts": 2986,
      "connect": 2987,
      "lection": 2988,
      "acqu": 2989,
      "sn": 2990,
      "gives": 2991,
      "England": 2992,
      "miles": 2993,
      "birds": 2994,
      "ultural": 2995,
      "therapy": 2996,
      "mouth": 2997,
      "idents": 2998,
      "attempt": 2999,
      "37": 3000,
      "basis": 3001,
      "cru": 3002,
      "Commun": 3003,
      "conserv": 3004,
      "responsible": 3005,
      "laws": 3006,
      "nothing": 3007,
      "tee": 3008,
      "eyes": 3009,
      "older": 3010,
      "symbol": 3011,
      "calcul": 3012,
      "hair": 3013,
      "techniques": 3014,
      "remember": 3015,
      "fib": 3016,
      "Once": 3017,
      "woman": 3018,
      "anything": 3019,
      "Water": 3020,
      "everything": 3021,
      "counter": 3022,
      "Washington": 3023,
      "Press": 3024,
      "stone": 3025,
      "City": 3026,
      "affected": 3027,
      "Develop": 3028,
      "digital": 3029,
      "named": 3030,
      "31": 3031,
      "aly": 3032,
      "ience": 3033,
      "final": 3034,
      "fix": 3035,
      "spirit": 3036,
      "za": 3037,
      "confl": 3038,
      "Dece": 3039,
      "portion": 3040,
      "giving": 3041,
      "AM": 3042,
      "monitor": 3043,
      "2000": 3044,
      "CD": 3045,
      "treated": 3046,
      "repe": 3047,
      "construct": 3048,
      "alone": 3049,
      "Journal": 3050,
      "applications": 3051,
      "Park": 3052,
      "stream": 3053,
      "DNA": 3054,
      "fill": 3055,
      "middle": 3056,
      "cele": 3057,
      "genetic": 3058,
      "domin": 3059,
      "Cur": 3060,
      "rise": 3061,
      "successful": 3062,
      "benefit": 3063,
      "consu": 3064,
      "followed": 3065,
      "device": 3066,
      "December": 3067,
      "Soci": 3068,
      "degree": 3069,
      "firm": 3070,
      "2006": 3071,
      "immune": 3072,
      "34": 3073,
      "London": 3074,
      "drop": 3075,
      "goes": 3076,
      "Church": 3077,
      "efficient": 3078,
      "Vir": 3079,
      "Cour": 3080,
      "pack": 3081,
      "diabetes": 3082,
      "ergy": 3083,
      "poly": 3084,
      "mes": 3085,
      "ech": 3086,
      "occup": 3087,
      "rote": 3088,
      "System": 3089,
      "teeth": 3090,
      "examples": 3091,
      "federal": 3092,
      "cape": 3093,
      "operation": 3094,
      "planet": 3095,
      "scr": 3096,
      "quar": 3097,
      "file": 3098,
      "reasons": 3099,
      "visual": 3100,
      "Val": 3101,
      "gir": 3102,
      "insul": 3103,
      "Arch": 3104,
      "Are": 3105,
      "pp": 3106,
      "Prof": 3107,
      "practices": 3108,
      "celebr": 3109,
      "phone": 3110,
      "stim": 3111,
      "inno": 3112,
      "numer": 3113,
      "Bl": 3114,
      "currently": 3115,
      "recently": 3116,
      "aling": 3117,
      "professional": 3118,
      "iar": 3119,
      "unch": 3120,
      "qual": 3121,
      "Law": 3122,
      "receive": 3123,
      "die": 3124,
      "enh": 3125,
      "preser": 3126,
      "objects": 3127,
      "changed": 3128,
      "39": 3129,
      "spo": 3130,
      "trie": 3131,
      "organization": 3132,
      "consequ": 3133,
      "Mex": 3134,
      "graphic": 3135,
      "resol": 3136,
      "polit": 3137,
      "urban": 3138,
      "beyond": 3139,
      "iction": 3140,
      "door": 3141,
      "standing": 3142,
      "piece": 3143,
      "ining": 3144,
      "Sol": 3145,
      "stead": 3146,
      "ony": 3147,
      "users": 3148,
      "choose": 3149,
      "weather": 3150,
      "swe": 3151,
      "conce": 3152,
      "nic": 3153,
      "frame": 3154,
      "cold": 3155,
      "forward": 3156,
      "cript": 3157,
      "tellig": 3158,
      "allowed": 3159,
      "buy": 3160,
      "Tod": 3161,
      "Web": 3162,
      "sec": 3163,
      "encies": 3164,
      "Mr": 3165,
      "mut": 3166,
      "uate": 3167,
      "classroom": 3168,
      "Roman": 3169,
      "suit": 3170,
      "ester": 3171,
      "length": 3172,
      "burn": 3173,
      "AP": 3174,
      "economy": 3175,
      "Su": 3176,
      "exposure": 3177,
      "income": 3178,
      "fruit": 3179,
      "Pat": 3180,
      "mosph": 3181,
      "yourself": 3182,
      "ils": 3183,
      "discovered": 3184,
      "cro": 3185,
      "wrote": 3186,
      "apter": 3187,
      "preci": 3188,
      "charge": 3189,
      "pregn": 3190,
      "smaller": 3191,
      "coast": 3192,
      "East": 3193,
      "Nove": 3194,
      "rat": 3195,
      "equipment": 3196,
      "Bu": 3197,
      "opportunity": 3198,
      "worth": 3199,
      "identified": 3200,
      "models": 3201,
      "providing": 3202,
      "Under": 3203,
      "iately": 3204,
      "shape": 3205,
      "ull": 3206,
      "tribute": 3207,
      "standards": 3208,
      "mas": 3209,
      "rules": 3210,
      "sets": 3211,
      "collection": 3212,
      "rome": 3213,
      "everyone": 3214,
      "hosp": 3215,
      "November": 3216,
      "instru": 3217,
      "van": 3218,
      "exe": 3219,
      "spring": 3220,
      "church": 3221,
      "steps": 3222,
      "categ": 3223,
      "iest": 3224,
      "completely": 3225,
      "occurs": 3226,
      "ulated": 3227,
      "reedom": 3228,
      "cycle": 3229,
      "ught": 3230,
      "bound": 3231,
      "continued": 3232,
      "establish": 3233,
      "recommend": 3234,
      "75": 3235,
      "32": 3236,
      "shap": 3237,
      "trying": 3238,
      "2015": 3239,
      "purch": 3240,
      "atom": 3241,
      "olic": 3242,
      "La": 3243,
      "Every": 3244,
      "interesting": 3245,
      "mod": 3246,
      "commonly": 3247,
      "seven": 3248,
      "gene": 3249,
      "gold": 3250,
      "style": 3251,
      "measures": 3252,
      ");": 3253,
      "balance": 3254,
      "poses": 3255,
      "leave": 3256,
      "gal": 3257,
      "conduct": 3258,
      "constant": 3259,
      "Str": 3260,
      "County": 3261,
      "2005": 3262,
      "isn": 3263,
      "cords": 3264,
      "comfort": 3265,
      "electr": 3266,
      "effort": 3267,
      "administr": 3268,
      "copy": 3269,
      "billion": 3270,
      "drugs": 3271,
      "Thus": 3272,
      "preh": 3273,
      "earlier": 3274,
      "IP": 3275,
      "map": 3276,
      "190": 3277,
      "names": 3278,
      "overall": 3279,
      "500": 3280,
      "alcohol": 3281,
      "enge": 3282,
      "factor": 3283,
      "differences": 3284,
      "ios": 3285,
      "tu": 3286,
      "Ca": 3287,
      "defined": 3288,
      "option": 3289,
      "phas": 3290,
      "perhaps": 3291,
      "rule": 3292,
      "cas": 3293,
      "bran": 3294,
      "beg": 3295,
      "zy": 3296,
      "hear": 3297,
      "glass": 3298,
      "ker": 3299,
      "neigh": 3300,
      "~~~~~~~~": 3301,
      "reduced": 3302,
      "moving": 3303,
      "cycl": 3304,
      "ost": 3305,
      "Sch": 3306,
      "cret": 3307,
      "aks": 3308,
      "applied": 3309,
      "plor": 3310,
      "isl": 3311,
      "subst": 3312,
      "transl": 3313,
      "plies": 3314,
      "onto": 3315,
      "historical": 3316,
      "Program": 3317,
      "extra": 3318,
      "blue": 3319,
      "Pal": 3320,
      "existing": 3321,
      "majority": 3322,
      "Rev": 3323,
      "reser": 3324,
      "powerful": 3325,
      "cod": 3326,
      "letter": 3327,
      "gave": 3328,
      "Their": 3329,
      "unit": 3330,
      "grade": 3331,
      "context": 3332,
      "appears": 3333,
      "belief": 3334,
      "cities": 3335,
      "Children": 3336,
      "ister": 3337,
      "tor": 3338,
      "xi": 3339,
      "iles": 3340,
      "Jewish": 3341,
      "acking": 3342,
      "2014": 3343,
      "equal": 3344,
      "ram": 3345,
      "dire": 3346,
      "MS": 3347,
      "Israel": 3348,
      "House": 3349,
      "edia": 3350,
      "ibly": 3351,
      "2016": 3352,
      "ensity": 3353,
      "choice": 3354,
      "bone": 3355,
      "friends": 3356,
      "Lab": 3357,
      "Febr": 3358,
      "prefer": 3359,
      "ored": 3360,
      "vill": 3361,
      "compar": 3362,
      "showed": 3363,
      "female": 3364,
      "vant": 3365,
      "yl": 3366,
      "root": 3367,
      "status": 3368,
      "themat": 3369,
      "Au": 3370,
      "Lu": 3371,
      "February": 3372,
      "connected": 3373,
      "orge": 3374,
      "ware": 3375,
      "assign": 3376,
      "Up": 3377,
      "ximately": 3378,
      "mitted": 3379,
      "philos": 3380,
      "destroy": 3381,
      "presence": 3382,
      "65": 3383,
      "erson": 3384,
      "mir": 3385,
      "capacity": 3386,
      "Govern": 3387,
      "Vol": 3388,
      "Phil": 3389,
      "river": 3390,
      "signs": 3391,
      "Lat": 3392,
      "tissue": 3393,
      "Today": 3394,
      "bes": 3395,
      "functions": 3396,
      "situ": 3397,
      "figure": 3398,
      "machine": 3399,
      "sac": 3400,
      "dat": 3401,
      "thesis": 3402,
      "umb": 3403,
      "presents": 3404,
      "pi": 3405,
      "limit": 3406,
      "Germany": 3407,
      "Environment": 3408,
      "acade": 3409,
      "distance": 3410,
      "kers": 3411,
      "didn": 3412,
      "native": 3413,
      "worked": 3414,
      "Mid": 3415,
      "tele": 3416,
      "virt": 3417,
      "gi": 3418,
      "trict": 3419,
      "patterns": 3420,
      "nutri": 3421,
      "William": 3422,
      "Australia": 3423,
      "aters": 3424,
      "absor": 3425,
      "Hy": 3426,
      "modif": 3427,
      "~~~": 3428,
      "illustr": 3429,
      "consci": 3430,
      "plastic": 3431,
      "moment": 3432,
      "oxy": 3433,
      "passed": 3434,
      "illness": 3435,
      "gypt": 3436,
      "properties": 3437,
      "fresh": 3438,
      "atmosph": 3439,
      "relatively": 3440,
      "tou": 3441,
      "stories": 3442,
      "Mal": 3443,
      "kin": 3444,
      "deliver": 3445,
      "Society": 3446,
      "cand": 3447,
      "price": 3448,
      "colog": 3449,
      "baby": 3450,
      "transfer": 3451,
      "increases": 3452,
      "ica": 3453,
      "\",": 3454,
      "ulty": 3455,
      "emissions": 3456,
      "neuro": 3457,
      "Tur": 3458,
      "crit": 3459,
      "custom": 3460,
      "aces": 3461,
      "lt": 3462,
      "Union": 3463,
      "trig": 3464,
      "iful": 3465,
      "orts": 3466,
      "hydr": 3467,
      "staff": 3468,
      "UK": 3469,
      "educational": 3470,
      "Medic": 3471,
      "Thom": 3472,
      "antib": 3473,
      "48": 3474,
      "OS": 3475,
      "Green": 3476,
      "running": 3477,
      "archite": 3478,
      "gery": 3479,
      "wanted": 3480,
      "maxim": 3481,
      "2017": 3482,
      "James": 3483,
      "Span": 3484,
      "wit": 3485,
      "nutr": 3486,
      "Students": 3487,
      "Miss": 3488,
      "favor": 3489,
      "accom": 3490,
      "creation": 3491,
      "Human": 3492,
      "David": 3493,
      "tro": 3494,
      "Congress": 3495,
      "direction": 3496,
      "ato": 3497,
      "plications": 3498,
      "Western": 3499,
      "Sal": 3500,
      "Rel": 3501,
      "Egypt": 3502,
      "surpr": 3503,
      "picture": 3504,
      "France": 3505,
      "commercial": 3506,
      "foreign": 3507,
      "components": 3508,
      "offers": 3509,
      "wrong": 3510,
      "expand": 3511,
      "revol": 3512,
      "Internet": 3513,
      "rout": 3514,
      "famous": 3515,
      "element": 3516,
      "aign": 3517,
      "regions": 3518,
      "male": 3519,
      "Japanese": 3520,
      "milk": 3521,
      "reports": 3522,
      "Mor": 3523,
      "muscle": 3524,
      "eight": 3525,
      "instance": 3526,
      "opportunities": 3527,
      "parent": 3528,
      "party": 3529,
      "2004": 3530,
      "office": 3531,
      "breath": 3532,
      "court": 3533,
      "EM": 3534,
      "topic": 3535,
      "vas": 3536,
      "Scot": 3537,
      "believed": 3538,
      "organic": 3539,
      "lu": 3540,
      "Food": 3541,
      "gent": 3542,
      "thousands": 3543,
      "prop": 3544,
      "strate": 3545,
      "details": 3546,
      "arian": 3547,
      "instruct": 3548,
      "clinical": 3549,
      "huge": 3550,
      "rock": 3551,
      "Mary": 3552,
      "consumption": 3553,
      "Air": 3554,
      "Sub": 3555,
      "Social": 3556,
      "EC": 3557,
      "vary": 3558,
      "soft": 3559,
      "Association": 3560,
      "resistance": 3561,
      "divid": 3562,
      "articles": 3563,
      "isol": 3564,
      "alle": 3565,
      "iny": 3566,
      "planning": 3567,
      "ternal": 3568,
      "changing": 3569,
      "”,": 3570,
      "Nat": 3571,
      "liqu": 3572,
      "Art": 3573,
      "findings": 3574,
      "infr": 3575,
      "alg": 3576,
      "challenges": 3577,
      "options": 3578,
      "rig": 3579,
      "owners": 3580,
      "strain": 3581,
      "Therefore": 3582,
      "Common": 3583,
      "dent": 3584,
      "trieved": 3585,
      "batter": 3586,
      "dol": 3587,
      "journal": 3588,
      "lived": 3589,
      "disorder": 3590,
      "Ben": 3591,
      "task": 3592,
      "ju": 3593,
      "insect": 3594,
      "Lord": 3595,
      "chance": 3596,
      "Cam": 3597,
      "stro": 3598,
      "hour": 3599,
      "attach": 3600,
      "observed": 3601,
      "wonder": 3602,
      "Public": 3603,
      "cin": 3604,
      "sufficient": 3605,
      "feature": 3606,
      "enty": 3607,
      "ultim": 3608,
      "survey": 3609,
      "kept": 3610,
      "forced": 3611,
      "util": 3612,
      "Two": 3613,
      "Cr": 3614,
      "mountain": 3615,
      "aled": 3616,
      "eding": 3617,
      "heavy": 3618,
      "notes": 3619,
      "libr": 3620,
      "fields": 3621,
      "Sam": 3622,
      "chronic": 3623,
      "ctors": 3624,
      "nur": 3625,
      "apply": 3626,
      "extremely": 3627,
      "trust": 3628,
      "itude": 3629,
      "bridge": 3630,
      "Fed": 3631,
      "ifically": 3632,
      "gender": 3633,
      "95": 3634,
      "collabor": 3635,
      "suggests": 3636,
      "structures": 3637,
      "wealth": 3638,
      "industrial": 3639,
      "strength": 3640,
      "carried": 3641,
      "ogle": 3642,
      "distribution": 3643,
      "ordin": 3644,
      "kid": 3645,
      "eventually": 3646,
      "square": 3647,
      "iot": 3648,
      "fear": 3649,
      "igen": 3650,
      "experiences": 3651,
      "separate": 3652,
      "strategies": 3653,
      "Lin": 3654,
      "Greek": 3655,
      "emphas": 3656,
      "technologies": 3657,
      "approximately": 3658,
      "prom": 3659,
      "thin": 3660,
      "Using": 3661,
      "exhib": 3662,
      "97": 3663,
      "excess": 3664,
      "Mac": 3665,
      "learned": 3666,
      "significantly": 3667,
      "accoun": 3668,
      "core": 3669,
      "bodies": 3670,
      "xiety": 3671,
      "setting": 3672,
      "George": 3673,
      "intellig": 3674,
      "CC": 3675,
      "goals": 3676,
      "walk": 3677,
      "highest": 3678,
      "Council": 3679,
      "layer": 3680,
      "garden": 3681,
      "presented": 3682,
      "introduced": 3683,
      "immediately": 3684,
      "las": 3685,
      "crim": 3686,
      "radio": 3687,
      "metal": 3688,
      "ries": 3689,
      "Bud": 3690,
      "proto": 3691,
      "Teach": 3692,
      "combination": 3693,
      "causing": 3694,
      "iment": 3695,
      "save": 3696,
      "estimated": 3697,
      "auth": 3698,
      "bow": 3699,
      "resource": 3700,
      "plans": 3701,
      "faith": 3702,
      "44": 3703,
      "sexual": 3704,
      "oles": 3705,
      "emplo": 3706,
      "iron": 3707,
      "easier": 3708,
      "happen": 3709,
      "release": 3710,
      "reality": 3711,
      "requirements": 3712,
      "opin": 3713,
      "breast": 3714,
      "mentioned": 3715,
      "pow": 3716,
      "arrow": 3717,
      "medicine": 3718,
      "decades": 3719,
      "screen": 3720,
      "compreh": 3721,
      "Bas": 3722,
      "El": 3723,
      "disci": 3724,
      "organizations": 3725,
      "violence": 3726,
      "Spanish": 3727,
      "items": 3728,
      "optim": 3729,
      "becoming": 3730,
      "freedom": 3731,
      "lls": 3732,
      "frequently": 3733,
      "Plan": 3734,
      "president": 3735,
      "RO": 3736,
      "Colle": 3737,
      "depression": 3738,
      "email": 3739,
      "western": 3740,
      "gather": 3741,
      "bio": 3742,
      "valu": 3743,
      "actual": 3744,
      "ille": 3745,
      "rol": 3746,
      "homes": 3747,
      "ule": 3748,
      "2003": 3749,
      "Sou": 3750,
      "moved": 3751,
      "Further": 3752,
      "rid": 3753,
      "PD": 3754,
      "slight": 3755,
      "ias": 3756,
      "Like": 3757,
      "grass": 3758,
      "initi": 3759,
      "conducted": 3760,
      "186": 3761,
      "About": 3762,
      "genes": 3763,
      "performed": 3764,
      "faces": 3765,
      "vul": 3766,
      "advantage": 3767,
      "Paul": 3768,
      "alternative": 3769,
      "appoint": 3770,
      "Found": 3771,
      "legisl": 3772,
      "ET": 3773,
      "speech": 3774,
      "perspect": 3775,
      "icated": 3776,
      "electricity": 3777,
      "Phys": 3778,
      "excl": 3779,
      "adult": 3780,
      "bottom": 3781,
      "mand": 3782,
      "ingu": 3783,
      "shop": 3784,
      "Bel": 3785,
      "reference": 3786,
      "independent": 3787,
      "expression": 3788,
      "plat": 3789,
      "turned": 3790,
      "isation": 3791,
      "seed": 3792,
      "store": 3793,
      "Organ": 3794,
      "novel": 3795,
      "coll": 3796,
      "film": 3797,
      "improv": 3798,
      "College": 3799,
      "vitamin": 3800,
      "descrip": 3801,
      "decisions": 3802,
      "spot": 3803,
      "geo": 3804,
      "race": 3805,
      "chain": 3806,
      "challenge": 3807,
      "fortun": 3808,
      "eco": 3809,
      "Av": 3810,
      "dim": 3811,
      "disorders": 3812,
      "Hel": 3813,
      "push": 3814,
      "tooth": 3815,
      "released": 3816,
      "nuclear": 3817,
      "apers": 3818,
      "games": 3819,
      "drive": 3820,
      "peace": 3821,
      "remove": 3822,
      "populations": 3823,
      "Hol": 3824,
      "PC": 3825,
      "aller": 3826,
      "records": 3827,
      "oxygen": 3828,
      "dre": 3829,
      "Republic": 3830,
      "tren": 3831,
      "connection": 3832,
      "restrict": 3833,
      "relevant": 3834,
      "Get": 3835,
      "dogs": 3836,
      "aspects": 3837,
      "DA": 3838,
      "ulum": 3839,
      "Government": 3840,
      "hypo": 3841,
      "killed": 3842,
      "track": 3843,
      "Retrieved": 3844,
      "White": 3845,
      "mist": 3846,
      "determined": 3847,
      "Both": 3848,
      "attract": 3849,
      "prec": 3850,
      "0s": 3851,
      "starting": 3852,
      "assessment": 3853,
      "tradition": 3854,
      "2001": 3855,
      "Project": 3856,
      "astr": 3857,
      "ston": 3858,
      "osis": 3859,
      "clearly": 3860,
      "ov": 3861,
      "ophy": 3862,
      "wash": 3863,
      "asion": 3864,
      "Google": 3865,
      "upper": 3866,
      "tum": 3867,
      "urally": 3868,
      "assu": 3869,
      "ape": 3870,
      "volume": 3871,
      "Cath": 3872,
      "household": 3873,
      "widely": 3874,
      "sav": 3875,
      "Profess": 3876,
      "recommended": 3877,
      "ships": 3878,
      "oxide": 3879,
      "ky": 3880,
      "55": 3881,
      "ror": 3882,
      "norm": 3883,
      "Bal": 3884,
      "Tex": 3885,
      "inner": 3886,
      "discussion": 3887,
      "stic": 3888,
      "minor": 3889,
      "master": 3890,
      "exc": 3891,
      "Rich": 3892,
      "coal": 3893,
      "god": 3894,
      "omb": 3895,
      "Its": 3896,
      "Museum": 3897,
      "internal": 3898,
      "buildings": 3899,
      "output": 3900,
      "views": 3901,
      "univers": 3902,
      "mostly": 3903,
      "Hen": 3904,
      "unders": 3905,
      "bird": 3906,
      "rent": 3907,
      "operations": 3908,
      "Second": 3909,
      "literature": 3910,
      "temperatures": 3911,
      "sand": 3912,
      "participants": 3913,
      "sample": 3914,
      "anks": 3915,
      "referred": 3916,
      "truth": 3917,
      "bud": 3918,
      "99": 3919,
      "rob": 3920,
      "ching": 3921,
      "flood": 3922,
      "numerous": 3923,
      "anyone": 3924,
      "prepar": 3925,
      "toxic": 3926,
      "experiment": 3927,
      "failure": 3928,
      "cers": 3929,
      "tour": 3930,
      "ida": 3931,
      "battle": 3932,
      "technique": 3933,
      "surgery": 3934,
      "policies": 3935,
      "grees": 3936,
      "vessel": 3937,
      "properly": 3938,
      "heard": 3939,
      "Pho": 3940,
      "Class": 3941,
      "wards": 3942,
      "territ": 3943,
      "ocean": 3944,
      "reducing": 3945,
      "affic": 3946,
      "campaign": 3947,
      "linked": 3948,
      "Post": 3949,
      "Figure": 3950,
      "iff": 3951,
      "partners": 3952,
      "Test": 3953,
      "Life": 3954,
      "liber": 3955,
      "Wal": 3956,
      "initial": 3957,
      "statement": 3958,
      "engineering": 3959,
      "pages": 3960,
      "pes": 3961,
      "encing": 3962,
      "edge": 3963,
      "radiation": 3964,
      "adjust": 3965,
      "ado": 3966,
      "resulting": 3967,
      "circum": 3968,
      "employe": 3969,
      "lease": 3970,
      "PS": 3971,
      "plate": 3972,
      "storage": 3973,
      "fee": 3974,
      "processing": 3975,
      "Dan": 3976,
      "exactly": 3977,
      "cup": 3978,
      "noted": 3979,
      "schol": 3980,
      "conflict": 3981,
      "Def": 3982,
      "characteristics": 3983,
      "2002": 3984,
      "jour": 3985,
      "finding": 3986,
      "seeds": 3987,
      "NO": 3988,
      "contrast": 3989,
      "meat": 3990,
      "ager": 3991,
      "phase": 3992,
      "Emp": 3993,
      "replace": 3994,
      "adequ": 3995,
      "adapt": 3996,
      "ilit": 3997,
      "allowing": 3998,
      "relationships": 3999,
      "Development": 4000,
      "dynam": 4001,
      "injury": 4002,
      "risks": 4003,
      "interpret": 4004,
      "religion": 4005,
      "physic": 4006,
      "classes": 4007,
      "feeling": 4008,
      "fundam": 4009,
      "island": 4010,
      "degrees": 4011,
      "EL": 4012,
      "message": 4013,
      "lock": 4014,
      "Mod": 4015,
      "meeting": 4016,
      "mort": 4017,
      "lip": 4018,
      "please": 4019,
      "anxiety": 4020,
      "ula": 4021,
      "distinct": 4022,
      "temporary": 4023,
      "removed": 4024,
      "Mem": 4025,
      "solutions": 4026,
      "consul": 4027,
      "credit": 4028,
      "fine": 4029,
      "east": 4030,
      "annual": 4031,
      "Em": 4032,
      "Scient": 4033,
      "whom": 4034,
      "explor": 4035,
      "involves": 4036,
      "Arab": 4037,
      "NASA": 4038,
      "Treat": 4039,
      "infections": 4040,
      "beautiful": 4041,
      "Ter": 4042,
      "nine": 4043,
      "keeping": 4044,
      "authors": 4045,
      "experienced": 4046,
      "liver": 4047,
      "stra": 4048,
      "background": 4049,
      "controlled": 4050,
      "college": 4051,
      "Fore": 4052,
      "frequency": 4053,
      "happens": 4054,
      "served": 4055,
      "usual": 4056,
      "Old": 4057,
      "units": 4058,
      "neur": 4059,
      "official": 4060,
      "promis": 4061,
      "prepared": 4062,
      "thick": 4063,
      "regarding": 4064,
      "Learning": 4065,
      "citizens": 4066,
      "math": 4067,
      "interested": 4068,
      "divers": 4069,
      "incorpor": 4070,
      "volun": 4071,
      "appeared": 4072,
      "udes": 4073,
      "47": 4074,
      "Cy": 4075,
      "188": 4076,
      "conscious": 4077,
      "emotional": 4078,
      "advanced": 4079,
      "formal": 4080,
      "Mag": 4081,
      "sla": 4082,
      "bell": 4083,
      "Islam": 4084,
      "Mexico": 4085,
      "excell": 4086,
      "ga": 4087,
      "sustainable": 4088,
      "depending": 4089,
      "Fol": 4090,
      "Island": 4091,
      "exposed": 4092,
      "possess": 4093,
      "helped": 4094,
      "foc": 4095,
      "Prote": 4096,
      "victim": 4097,
      "elimin": 4098,
      "tructure": 4099,
      "Pac": 4100,
      "pick": 4101,
      "input": 4102,
      "Elect": 4103,
      "Who": 4104,
      "46": 4105,
      "Bra": 4106,
      "uration": 4107,
      "sort": 4108,
      "Mart": 4109,
      "invent": 4110,
      "experts": 4111,
      "leads": 4112,
      "solid": 4113,
      "prison": 4114,
      "grant": 4115,
      "previously": 4116,
      "Any": 4117,
      "drome": 4118,
      "Make": 4119,
      "belong": 4120,
      "principles": 4121,
      "promote": 4122,
      "contract": 4123,
      "Thomas": 4124,
      "involve": 4125,
      "Court": 4126,
      "pun": 4127,
      "decided": 4128,
      "mathemat": 4129,
      "bank": 4130,
      "thes": 4131,
      "ell": 4132,
      "describe": 4133,
      "intended": 4134,
      "Asia": 4135,
      "opy": 4136,
      "pover": 4137,
      "ologist": 4138,
      "pieces": 4139,
      "Data": 4140,
      "Bur": 4141,
      "reaction": 4142,
      "orial": 4143,
      "detect": 4144,
      "conservation": 4145,
      "ara": 4146,
      "multi": 4147,
      "yellow": 4148,
      "Central": 4149,
      "thetic": 4150,
      "supported": 4151,
      "motor": 4152,
      "Jews": 4153,
      "km": 4154,
      "northern": 4155,
      "hur": 4156,
      "academic": 4157,
      "song": 4158,
      "matic": 4159,
      "jun": 4160,
      "iance": 4161,
      "southern": 4162,
      "Cap": 4163,
      "Book": 4164,
      "farmers": 4165,
      "riage": 4166,
      "Lou": 4167,
      "300": 4168,
      "hearing": 4169,
      "Where": 4170,
      "dangerous": 4171,
      "rang": 4172,
      "profession": 4173,
      "Glo": 4174,
      "chemicals": 4175,
      "joint": 4176,
      "saying": 4177,
      "News": 4178,
      "Women": 4179,
      "HIV": 4180,
      "discover": 4181,
      "2018": 4182,
      "waters": 4183,
      "ague": 4184,
      "wet": 4185,
      "nav": 4186,
      "iders": 4187,
      "signal": 4188,
      "awareness": 4189,
      "spent": 4190,
      "looked": 4191,
      "haz": 4192,
      "station": 4193,
      "obvious": 4194,
      "netic": 4195,
      "mel": 4196,
      "Medical": 4197,
      "essay": 4198,
      "scen": 4199,
      "facts": 4200,
      "explore": 4201,
      "Direct": 4202,
      "cere": 4203,
      "amounts": 4204,
      "umn": 4205,
      "Texas": 4206,
      "conver": 4207,
      "riculum": 4208,
      "zz": 4209,
      "uters": 4210,
      "eties": 4211,
      "expert": 4212,
      "democr": 4213,
      "LE": 4214,
      "sell": 4215,
      "ern": 4216,
      "SS": 4217,
      "hit": 4218,
      "rail": 4219,
      "angle": 4220,
      "closed": 4221,
      "AI": 4222,
      "mainly": 4223,
      "effectively": 4224,
      "iling": 4225,
      "grand": 4226,
      "meant": 4227,
      "py": 4228,
      "practical": 4229,
      "brother": 4230,
      "mm": 4231,
      "Net": 4232,
      "familiar": 4233,
      "strugg": 4234,
      "ya": 4235,
      "mobile": 4236,
      "expensive": 4237,
      "cription": 4238,
      "strategy": 4239,
      "lose": 4240,
      "ogen": 4241,
      "Wil": 4242,
      "datab": 4243,
      "Muslim": 4244,
      "tributed": 4245,
      "Energy": 4246,
      "Off": 4247,
      "concerns": 4248,
      "helping": 4249,
      "manage": 4250,
      "sky": 4251,
      "definition": 4252,
      "ads": 4253,
      "ctic": 4254,
      "diagnosis": 4255,
      "vaccine": 4256,
      "Sha": 4257,
      "looks": 4258,
      "hi": 4259,
      "va": 4260,
      "focused": 4261,
      "Service": 4262,
      "fly": 4263,
      "grav": 4264,
      "sin": 4265,
      "aughter": 4266,
      "pollution": 4267,
      "procedure": 4268,
      "izon": 4269,
      "Civil": 4270,
      "eggs": 4271,
      "Jer": 4272,
      "completed": 4273,
      "https": 4274,
      "oth": 4275,
      "wing": 4276,
      "concern": 4277,
      "Through": 4278,
      "atell": 4279,
      "iverse": 4280,
      "manner": 4281,
      "concepts": 4282,
      "wear": 4283,
      "perman": 4284,
      "efficiency": 4285,
      "Cons": 4286,
      "improved": 4287,
      "atmosphere": 4288,
      "hospital": 4289,
      "icial": 4290,
      "Ir": 4291,
      "agon": 4292,
      "reached": 4293,
      "traffic": 4294,
      "renew": 4295,
      "2020": 4296,
      "motiv": 4297,
      "CH": 4298,
      "shr": 4299,
      "fing": 4300,
      "flowers": 4301,
      "institutions": 4302,
      "Wind": 4303,
      "embr": 4304,
      "compe": 4305,
      "Mil": 4306,
      "abol": 4307,
      "ologists": 4308,
      "vegetables": 4309,
      "chief": 4310,
      "satis": 4311,
      "ny": 4312,
      "wife": 4313,
      "recorded": 4314,
      "Port": 4315,
      "arent": 4316,
      "ano": 4317,
      "adop": 4318,
      "existence": 4319,
      "ii": 4320,
      "Bay": 4321,
      "filled": 4322,
      "zone": 4323,
      "authority": 4324,
      "iced": 4325,
      "Latin": 4326,
      "proposed": 4327,
      "andom": 4328,
      "reduction": 4329,
      "execut": 4330,
      "pup": 4331,
      "finally": 4332,
      "drinking": 4333,
      "Out": 4334,
      "Que": 4335,
      "cert": 4336,
      "Virgin": 4337,
      "Ant": 4338,
      "Information": 4339,
      "notice": 4340,
      "pred": 4341,
      "Space": 4342,
      "purposes": 4343,
      "letters": 4344,
      "Libr": 4345,
      "2019": 4346,
      "ags": 4347,
      "settle": 4348,
      "Before": 4349,
      "comment": 4350,
      "Medicine": 4351,
      "encourage": 4352,
      "justice": 4353,
      "hyper": 4354,
      "technical": 4355,
      "clim": 4356,
      "asp": 4357,
      "begins": 4358,
      "continues": 4359,
      "arms": 4360,
      "Grou": 4361,
      "click": 4362,
      "morning": 4363,
      "Note": 4364,
      "TO": 4365,
      "THE": 4366,
      "shar": 4367,
      "yield": 4368,
      "Budd": 4369,
      "Know": 4370,
      "Fam": 4371,
      "hop": 4372,
      "Smith": 4373,
      "containing": 4374,
      "liquid": 4375,
      "gment": 4376,
      "Sen": 4377,
      "icy": 4378,
      "Year": 4379,
      "lesson": 4380,
      "iger": 4381,
      "links": 4382,
      "vital": 4383,
      "umin": 4384,
      "motion": 4385,
      "Histor": 4386,
      "accurate": 4387,
      "cris": 4388,
      "taught": 4389,
      "spend": 4390,
      "height": 4391,
      "Britain": 4392,
      "Such": 4393,
      "grown": 4394,
      "aches": 4395,
      "bright": 4396,
      "shared": 4397,
      "ander": 4398,
      "tested": 4399,
      "Technology": 4400,
      "career": 4401,
      "languages": 4402,
      "sector": 4403,
      "Mass": 4404,
      "gun": 4405,
      "Mos": 4406,
      "extensive": 4407,
      "osph": 4408,
      "circu": 4409,
      "primarily": 4410,
      "ideal": 4411,
      "rupt": 4412,
      "contribute": 4413,
      "1999": 4414,
      "49": 4415,
      "poverty": 4416,
      "dated": 4417,
      "UR": 4418,
      "Stand": 4419,
      "fif": 4420,
      "professor": 4421,
      "trou": 4422,
      "combined": 4423,
      "electrical": 4424,
      "houses": 4425,
      "Ken": 4426,
      "vulner": 4427,
      "offered": 4428,
      "straight": 4429,
      "Publ": 4430,
      "Those": 4431,
      "fro": 4432,
      "specifically": 4433,
      "remained": 4434,
      "flex": 4435,
      "san": 4436,
      "Charles": 4437,
      "iled": 4438,
      "oma": 4439,
      "phenomen": 4440,
      "army": 4441,
      "Pacific": 4442,
      "berg": 4443,
      "proteins": 4444,
      "pon": 4445,
      "felt": 4446,
      "pray": 4447,
      "paid": 4448,
      "operating": 4449,
      "brief": 4450,
      "Instead": 4451,
      "profit": 4452,
      "Fort": 4453,
      "Army": 4454,
      "biological": 4455,
      "Dise": 4456,
      "iring": 4457,
      "bing": 4458,
      "sched": 4459,
      "discipl": 4460,
      "subjects": 4461,
      "samples": 4462,
      "Sum": 4463,
      "Del": 4464,
      "protected": 4465,
      "crete": 4466,
      "raised": 4467,
      "explained": 4468,
      "mode": 4469,
      "indicate": 4470,
      "tery": 4471,
      "situations": 4472,
      "nations": 4473,
      "Ver": 4474,
      "posite": 4475,
      "Mer": 4476,
      "Ve": 4477,
      "jobs": 4478,
      "Kore": 4479,
      "attacks": 4480,
      "cis": 4481,
      "convers": 4482,
      "Ze": 4483,
      "double": 4484,
      "identity": 4485,
      "Robert": 4486,
      "centuries": 4487,
      "iveness": 4488,
      "itors": 4489,
      "voice": 4490,
      "roll": 4491,
      "trial": 4492,
      "playing": 4493,
      "ounced": 4494,
      "III": 4495,
      "leader": 4496,
      "Bir": 4497,
      "revolution": 4498,
      "roots": 4499,
      "fal": 4500,
      "foss": 4501,
      ".|": 4502,
      "muscles": 4503,
      "rogen": 4504,
      "kil": 4505,
      "send": 4506,
      "kinds": 4507,
      "certainly": 4508,
      "drink": 4509,
      "Good": 4510,
      "enem": 4511,
      "Well": 4512,
      "treatments": 4513,
      "speaking": 4514,
      "Mat": 4515,
      "Commission": 4516,
      "apping": 4517,
      "acters": 4518,
      "Stre": 4519,
      "largely": 4520,
      "producing": 4521,
      "divided": 4522,
      "Sea": 4523,
      "Studies": 4524,
      "tasks": 4525,
      "digest": 4526,
      "Ef": 4527,
      "vin": 4528,
      "spl": 4529,
      "rum": 4530,
      "hes": 4531,
      "consequences": 4532,
      "ception": 4533,
      "showing": 4534,
      "Pan": 4535,
      "Cle": 4536,
      "cide": 4537,
      "istan": 4538,
      "despite": 4539,
      "Exam": 4540,
      "greg": 4541,
      "zo": 4542,
      "astern": 4543,
      "occurred": 4544,
      "immigr": 4545,
      "Econom": 4546,
      "pressed": 4547,
      "collected": 4548,
      "42": 4549,
      "agricultural": 4550,
      "sides": 4551,
      "nutrients": 4552,
      "ody": 4553,
      "responsibility": 4554,
      "feeding": 4555,
      "emergency": 4556,
      "ek": 4557,
      "seek": 4558,
      "cognitive": 4559,
      "85": 4560,
      "gro": 4561,
      "aint": 4562,
      "title": 4563,
      "neut": 4564,
      "Met": 4565,
      "Power": 4566,
      "played": 4567,
      "cook": 4568,
      "extent": 4569,
      "nutrition": 4570,
      "helpful": 4571,
      "mere": 4572,
      "files": 4573,
      "vast": 4574,
      "advance": 4575,
      "typical": 4576,
      "wish": 4577,
      "index": 4578,
      "aph": 4579,
      "Micro": 4580,
      "lets": 4581,
      "external": 4582,
      "Bet": 4583,
      "Jose": 4584,
      "wid": 4585,
      "ammation": 4586,
      "uff": 4587,
      "Home": 4588,
      "aran": 4589,
      "wire": 4590,
      "salt": 4591,
      "Yet": 4592,
      "Russian": 4593,
      "Flor": 4594,
      "lie": 4595,
      "otherwise": 4596,
      "Catholic": 4597,
      "smart": 4598,
      "moral": 4599,
      "inher": 4600,
      "excellent": 4601,
      "convent": 4602,
      "ba": 4603,
      "floor": 4604,
      "sounds": 4605,
      "recognized": 4606,
      "yn": 4607,
      "youth": 4608,
      "rural": 4609,
      "abuse": 4610,
      "tun": 4611,
      "Vis": 4612,
      "Bre": 4613,
      "Despite": 4614,
      "dependent": 4615,
      "surance": 4616,
      "appearance": 4617,
      "Rem": 4618,
      "Artic": 4619,
      "persons": 4620,
      "capable": 4621,
      "sight": 4622,
      "Henry": 4623,
      "girls": 4624,
      "impacts": 4625,
      "Ox": 4626,
      "oted": 4627,
      "particles": 4628,
      "component": 4629,
      "explan": 4630,
      "uded": 4631,
      "Find": 4632,
      "faster": 4633,
      "mi": 4634,
      "Di": 4635,
      "measured": 4636,
      "crops": 4637,
      "perspective": 4638,
      "phr": 4639,
      "topics": 4640,
      "Cre": 4641,
      "alk": 4642,
      "domestic": 4643,
      "facilities": 4644,
      "crop": 4645,
      "scan": 4646,
      "solute": 4647,
      "snow": 4648,
      "CS": 4649,
      "lights": 4650,
      "doub": 4651,
      "1998": 4652,
      "Photo": 4653,
      "mph": 4654,
      "astructure": 4655,
      "detailed": 4656,
      "advice": 4657,
      "explains": 4658,
      "pil": 4659,
      "pin": 4660,
      "refers": 4661,
      "thoughts": 4662,
      "positions": 4663,
      "format": 4664,
      "infected": 4665,
      "marine": 4666,
      "maximum": 4667,
      "dollar": 4668,
      "affects": 4669,
      "iel": 4670,
      "employment": 4671,
      "dram": 4672,
      "fare": 4673,
      "odes": 4674,
      "surrounding": 4675,
      "CE": 4676,
      "Please": 4677,
      "characters": 4678,
      "Bible": 4679,
      "assum": 4680,
      "visible": 4681,
      "sion": 4682,
      "iday": 4683,
      "Only": 4684,
      "suggested": 4685,
      "monitoring": 4686,
      "horse": 4687,
      "fluid": 4688,
      "dut": 4689,
      "tension": 4690,
      "TI": 4691,
      "goods": 4692,
      "ifying": 4693,
      "walls": 4694,
      "substant": 4695,
      "stars": 4696,
      "da": 4697,
      "marks": 4698,
      "celer": 4699,
      "fle": 4700,
      "igation": 4701,
      "Tor": 4702,
      "sensitive": 4703,
      "listed": 4704,
      "studied": 4705,
      "enses": 4706,
      "igenous": 4707,
      "destru": 4708,
      "slightly": 4709,
      "ensus": 4710,
      "greatest": 4711,
      "brown": 4712,
      "Federal": 4713,
      "vehicle": 4714,
      "pig": 4715,
      "185": 4716,
      "returned": 4717,
      "Middle": 4718,
      "periods": 4719,
      "interests": 4720,
      "Lake": 4721,
      "voc": 4722,
      "police": 4723,
      "adding": 4724,
      "tons": 4725,
      "increasingly": 4726,
      "Have": 4727,
      "Tem": 4728,
      "claims": 4729,
      "pha": 4730,
      "burg": 4731,
      "request": 4732,
      "apparent": 4733,
      "Environmental": 4734,
      "Gl": 4735,
      "constit": 4736,
      "Carol": 4737,
      "organisms": 4738,
      "wave": 4739,
      "moist": 4740,
      "Engine": 4741,
      "astro": 4742,
      "stock": 4743,
      "fundamental": 4744,
      "regul": 4745,
      "valid": 4746,
      "happened": 4747,
      "fruits": 4748,
      "Foundation": 4749,
      "PM": 4750,
      "calls": 4751,
      "urs": 4752,
      "TS": 4753,
      "ka": 4754,
      "governments": 4755,
      "regis": 4756,
      "depends": 4757,
      "paint": 4758,
      "secure": 4759,
      "stated": 4760,
      "depth": 4761,
      "creative": 4762,
      "follows": 4763,
      "Last": 4764,
      "instruction": 4765,
      "Nature": 4766,
      "187": 4767,
      "potentially": 4768,
      "server": 4769,
      "spiritual": 4770,
      "CA": 4771,
      "Rights": 4772,
      "ache": 4773,
      "oting": 4774,
      "Jud": 4775,
      "43": 4776,
      "nest": 4777,
      "Long": 4778,
      "RI": 4779,
      "investment": 4780,
      "neighbor": 4781,
      "itage": 4782,
      "onic": 4783,
      "mistry": 4784,
      "habitat": 4785,
      "apart": 4786,
      "obtained": 4787,
      "generate": 4788,
      "98": 4789,
      "normally": 4790,
      "crow": 4791,
      "officials": 4792,
      "Sat": 4793,
      "rou": 4794,
      "consists": 4795,
      "secret": 4796,
      "hundreds": 4797,
      "].": 4798,
      "minimum": 4799,
      "dial": 4800,
      "fortunately": 4801,
      "flat": 4802,
      "concerned": 4803,
      "driving": 4804,
      "cars": 4805,
      "tips": 4806,
      "usive": 4807,
      "Atl": 4808,
      "medium": 4809,
      "atever": 4810,
      "Int": 4811,
      "adequate": 4812,
      "tried": 4813,
      "forming": 4814,
      "Review": 4815,
      "Bro": 4816,
      "Guide": 4817,
      "marked": 4818,
      "discovery": 4819,
      "random": 4820,
      "Russia": 4821,
      "harvest": 4822,
      "frag": 4823,
      ".;": 4824,
      "cope": 4825,
      "inches": 4826,
      "subsequ": 4827,
      "Library": 4828,
      "happy": 4829,
      "feelings": 4830,
      "prices": 4831,
      "bles": 4832,
      "ificial": 4833,
      "leaf": 4834,
      "Acade": 4835,
      "tood": 4836,
      "comput": 4837,
      "azing": 4838,
      "cel": 4839,
      "phy": 4840,
      "suffering": 4841,
      "selected": 4842,
      "stret": 4843,
      "MD": 4844,
      "approaches": 4845,
      "Professor": 4846,
      "doi": 4847,
      "pregnancy": 4848,
      "Agr": 4849,
      "OF": 4850,
      "pa": 4851,
      "Louis": 4852,
      "Ann": 4853,
      "iber": 4854,
      "Keep": 4855,
      "crucial": 4856,
      "represents": 4857,
      "logical": 4858,
      "solve": 4859,
      "bear": 4860,
      "inflammation": 4861,
      "park": 4862,
      "cium": 4863,
      "orm": 4864,
      "Free": 4865,
      "fold": 4866,
      "crisis": 4867,
      "Design": 4868,
      "discussed": 4869,
      "Fl": 4870,
      "Roy": 4871,
      "curriculum": 4872,
      "BN": 4873,
      "rier": 4874,
      "closely": 4875,
      "stable": 4876,
      "director": 4877,
      "Global": 4878,
      "extr": 4879,
      "colors": 4880,
      "ING": 4881,
      "productive": 4882,
      "narr": 4883,
      "procedures": 4884,
      "?”": 4885,
      "rapidly": 4886,
      "satell": 4887,
      "catch": 4888,
      "pel": 4889,
      "understood": 4890,
      "concentration": 4891,
      "ava": 4892,
      "agreement": 4893,
      "zing": 4894,
      "CP": 4895,
      "tical": 4896,
      "Main": 4897,
      "Inde": 4898,
      "HO": 4899,
      "41": 4900,
      "cm": 4901,
      "Finally": 4902,
      "crib": 4903,
      "orient": 4904,
      "Clim": 4905,
      "knew": 4906,
      "66": 4907,
      "distingu": 4908,
      "Rad": 4909,
      "regularly": 4910,
      "naturally": 4911,
      "documents": 4912,
      "toler": 4913,
      "funding": 4914,
      "accompl": 4915,
      "Time": 4916,
      "raise": 4917,
      "cof": 4918,
      "weap": 4919,
      "internet": 4920,
      "exts": 4921,
      "llect": 4922,
      "Men": 4923,
      "mur": 4924,
      "couple": 4925,
      "Ham": 4926,
      "leaving": 4927,
      "shel": 4928,
      "correspond": 4929,
      "secondary": 4930,
      "400": 4931,
      "ecolog": 4932,
      "Tra": 4933,
      "obl": 4934,
      "agriculture": 4935,
      "latest": 4936,
      "edition": 4937,
      "prepare": 4938,
      "150": 4939,
      "consistent": 4940,
      "ota": 4941,
      "Group": 4942,
      "Control": 4943,
      "Learn": 4944,
      "Writ": 4945,
      "diversity": 4946,
      "argument": 4947,
      "IL": 4948,
      "Take": 4949,
      "opened": 4950,
      "valuable": 4951,
      "Follow": 4952,
      "Study": 4953,
      "usal": 4954,
      "Div": 4955,
      "error": 4956,
      "generated": 4957,
      "medications": 4958,
      "Mill": 4959,
      "movements": 4960,
      "Psych": 4961,
      "outcomes": 4962,
      "jection": 4963,
      "doors": 4964,
      "flight": 4965,
      "moon": 4966,
      "ML": 4967,
      "pure": 4968,
      "library": 4969,
      "advis": 4970,
      "residents": 4971,
      "claimed": 4972,
      "AB": 4973,
      "sty": 4974,
      "introduction": 4975,
      "tenance": 4976,
      "Francis": 4977,
      "Land": 4978,
      "Care": 4979,
      "principle": 4980,
      "infrastructure": 4981,
      "lun": 4982,
      "decrease": 4983,
      "photograph": 4984,
      "Alex": 4985,
      "ville": 4986,
      "Company": 4987,
      "Natural": 4988,
      "lessons": 4989,
      "apped": 4990,
      "syndrome": 4991,
      "millions": 4992,
      "clar": 4993,
      "Canadian": 4994,
      "tage": 4995,
      "inations": 4996,
      "otic": 4997,
      "fertil": 4998,
      "ald": 4999,
      "zer": 5000,
      "deaths": 5001,
      "gone": 5002,
      "recognize": 5003,
      "possibly": 5004,
      "MP": 5005,
      "touch": 5006,
      "narrow": 5007,
      "sick": 5008,
      "insp": 5009,
      "1997": 5010,
      "’.": 5011,
      "uco": 5012,
      "prevention": 5013,
      "CR": 5014,
      "ari": 5015,
      "pleas": 5016,
      "shot": 5017,
      "blog": 5018,
      "substance": 5019,
      "ails": 5020,
      "esterol": 5021,
      "facilit": 5022,
      "Gold": 5023,
      "ules": 5024,
      "ault": 5025,
      "advoc": 5026,
      "electro": 5027,
      "unless": 5028,
      "computers": 5029,
      "corn": 5030,
      "Though": 5031,
      "forests": 5032,
      "cules": 5033,
      "sole": 5034,
      "derived": 5035,
      "recycl": 5036,
      "Constitution": 5037,
      "reci": 5038,
      "soldiers": 5039,
      "intelligence": 5040,
      "suitable": 5041,
      "talking": 5042,
      "iated": 5043,
      "amed": 5044,
      "MA": 5045,
      "warming": 5046,
      "Num": 5047,
      "pictures": 5048,
      "massive": 5049,
      "businesses": 5050,
      "parties": 5051,
      "sper": 5052,
      "Management": 5053,
      "vict": 5054,
      "plus": 5055,
      "courses": 5056,
      "precise": 5057,
      "Work": 5058,
      "icts": 5059,
      "willing": 5060,
      "exchange": 5061,
      "Table": 5062,
      "Virginia": 5063,
      "teenth": 5064,
      "bones": 5065,
      "aur": 5066,
      "Spr": 5067,
      "plas": 5068,
      "ols": 5069,
      "recovery": 5070,
      "dates": 5071,
      "ancing": 5072,
      "ingred": 5073,
      "hael": 5074,
      "seeing": 5075,
      "absolute": 5076,
      "mac": 5077,
      "Early": 5078,
      "circumst": 5079,
      "consult": 5080,
      "constitution": 5081,
      "originally": 5082,
      "dden": 5083,
      "chapter": 5084,
      "Fre": 5085,
      "innov": 5086,
      "Sever": 5087,
      "marriage": 5088,
      "....": 5089,
      "Pers": 5090,
      "USA": 5091,
      "sweet": 5092,
      "aj": 5093,
      "oty": 5094,
      "accepted": 5095,
      "organized": 5096,
      "regional": 5097,
      "Oh": 5098,
      "labe": 5099,
      "fur": 5100,
      "Ill": 5101,
      "shaped": 5102,
      "viet": 5103,
      "enhance": 5104,
      "traum": 5105,
      "entirely": 5106,
      "opinion": 5107,
      "ered": 5108,
      "mbly": 5109,
      "sures": 5110,
      "Er": 5111,
      "Peter": 5112,
      "possibility": 5113,
      "Report": 5114,
      "guard": 5115,
      "athy": 5116,
      "village": 5117,
      "enzy": 5118,
      "plicated": 5119,
      "describes": 5120,
      "mov": 5121,
      "lies": 5122,
      "impossible": 5123,
      "Labor": 5124,
      "esity": 5125,
      "aqu": 5126,
      "employees": 5127,
      "96": 5128,
      "ican": 5129,
      "figures": 5130,
      "pit": 5131,
      "drain": 5132,
      "stored": 5133,
      "leadership": 5134,
      "Florida": 5135,
      "render": 5136,
      "sembly": 5137,
      "administration": 5138,
      "stages": 5139,
      "ml": 5140,
      "intest": 5141,
      "district": 5142,
      "lifest": 5143,
      "border": 5144,
      "intr": 5145,
      "aste": 5146,
      "Office": 5147,
      "survival": 5148,
      "represented": 5149,
      "Soviet": 5150,
      "aircraft": 5151,
      "waves": 5152,
      "plane": 5153,
      "Stat": 5154,
      "laun": 5155,
      "react": 5156,
      "broken": 5157,
      "fab": 5158,
      "comprehensive": 5159,
      "Joseph": 5160,
      "sudden": 5161,
      "88": 5162,
      "vascular": 5163,
      "Mad": 5164,
      "loved": 5165,
      "theless": 5166,
      "database": 5167,
      "adopted": 5168,
      "tration": 5169,
      "behaviour": 5170,
      "Commit": 5171,
      "enable": 5172,
      "stick": 5173,
      "ethnic": 5174,
      "manufactur": 5175,
      "composition": 5176,
      "amb": 5177,
      "locations": 5178,
      "Sometimes": 5179,
      "protocol": 5180,
      "bled": 5181,
      "appreci": 5182,
      "Blo": 5183,
      "ture": 5184,
      "cultiv": 5185,
      "Langu": 5186,
      "1996": 5187,
      "proof": 5188,
      "window": 5189,
      "medication": 5190,
      "bin": 5191,
      "Hor": 5192,
      "sharing": 5193,
      "pretty": 5194,
      "anda": 5195,
      "Wik": 5196,
      "brid": 5197,
      "Conserv": 5198,
      "repeated": 5199,
      "gall": 5200,
      "bid": 5201,
      "ibilities": 5202,
      "Nav": 5203,
      "19th": 5204,
      "download": 5205,
      "AND": 5206,
      "hus": 5207,
      "stimul": 5208,
      "museum": 5209,
      "nd": 5210,
      "improving": 5211,
      "readers": 5212,
      "opening": 5213,
      "electronic": 5214,
      "liament": 5215,
      "cher": 5216,
      "ordinary": 5217,
      "ray": 5218,
      "depos": 5219,
      "founded": 5220,
      "Mark": 5221,
      "cket": 5222,
      "ameter": 5223,
      "duct": 5224,
      "plays": 5225,
      "Southern": 5226,
      "Dif": 5227,
      "roid": 5228,
      "wildlife": 5229,
      "IR": 5230,
      "ean": 5231,
      "Quest": 5232,
      "agues": 5233,
      "equival": 5234,
      "storm": 5235,
      "engage": 5236,
      "plication": 5237,
      "Mont": 5238,
      "experiments": 5239,
      "networks": 5240,
      "diverse": 5241,
      "cav": 5242,
      "agers": 5243,
      "agencies": 5244,
      "dental": 5245,
      "starts": 5246,
      "confir": 5247,
      "married": 5248,
      "abund": 5249,
      "Gal": 5250,
      "revealed": 5251,
      "latter": 5252,
      "poem": 5253,
      "selection": 5254,
      "remot": 5255,
      "oss": 5256,
      "Color": 5257,
      "supplement": 5258,
      "worldwide": 5259,
      "answers": 5260,
      "decline": 5261,
      "itionally": 5262,
      "Eli": 5263,
      "expressed": 5264,
      "imer": 5265,
      "worse": 5266,
      "indeed": 5267,
      "candid": 5268,
      "Australian": 5269,
      "manufacturing": 5270,
      "mail": 5271,
      "aer": 5272,
      "historic": 5273,
      "tock": 5274,
      "orith": 5275,
      "sequence": 5276,
      "repair": 5277,
      "Ital": 5278,
      "battery": 5279,
      "density": 5280,
      "unknown": 5281,
      "intellect": 5282,
      "fiber": 5283,
      "anc": 5284,
      "cking": 5285,
      "universe": 5286,
      "ropical": 5287,
      "resolution": 5288,
      "creates": 5289,
      "bour": 5290,
      "evalu": 5291,
      "roof": 5292,
      "Paris": 5293,
      "Among": 5294,
      "Nations": 5295,
      "180": 5296,
      "vehicles": 5297,
      "1995": 5298,
      "Climate": 5299,
      "produces": 5300,
      "HD": 5301,
      "Vi": 5302,
      "achieved": 5303,
      "ensions": 5304,
      "Rome": 5305,
      "tiny": 5306,
      "managed": 5307,
      "landscape": 5308,
      "remaining": 5309,
      "77": 5310,
      "Click": 5311,
      "survive": 5312,
      "eper": 5313,
      "switch": 5314,
      "mature": 5315,
      "Wild": 5316,
      "List": 5317,
      "dust": 5318,
      "fighting": 5319,
      "MO": 5320,
      "zen": 5321,
      "troops": 5322,
      "ISBN": 5323,
      "guidelines": 5324,
      "routine": 5325,
      "flav": 5326,
      "permanent": 5327,
      "relations": 5328,
      "twice": 5329,
      "volunte": 5330,
      "antibiot": 5331,
      "fixed": 5332,
      "scope": 5333,
      "functional": 5334,
      ".’": 5335,
      "Ev": 5336,
      "Creat": 5337,
      "daughter": 5338,
      "harmful": 5339,
      "rein": 5340,
      "Dig": 5341,
      "scar": 5342,
      "writer": 5343,
      "assistance": 5344,
      "raw": 5345,
      "extended": 5346,
      "failed": 5347,
      "Check": 5348,
      "ola": 5349,
      "mers": 5350,
      "healthcare": 5351,
      "iatric": 5352,
      "hole": 5353,
      "cholesterol": 5354,
      "DO": 5355,
      "conventional": 5356,
      "advantages": 5357,
      "Top": 5358,
      "wants": 5359,
      "sports": 5360,
      "doctors": 5361,
      "professionals": 5362,
      "sod": 5363,
      "afford": 5364,
      "retain": 5365,
      "Clin": 5366,
      "Sing": 5367,
      "vironments": 5368,
      "fas": 5369,
      "trigger": 5370,
      "tells": 5371,
      "ked": 5372,
      "nan": 5373,
      "aggress": 5374,
      "foundation": 5375,
      "accounts": 5376,
      "trip": 5377,
      "beneficial": 5378,
      "skill": 5379,
      "decade": 5380,
      "Mars": 5381,
      "intake": 5382,
      "remote": 5383,
      "transmission": 5384,
      "3D": 5385,
      "acceler": 5386,
      "thro": 5387,
      "ali": 5388,
      "successfully": 5389,
      "ission": 5390,
      "cutting": 5391,
      "otes": 5392,
      "perce": 5393,
      "slowly": 5394,
      "Cancer": 5395,
      "Cho": 5396,
      "56": 5397,
      "lots": 5398,
      "Bul": 5399,
      "injuries": 5400,
      "Whe": 5401,
      "Sign": 5402,
      "Access": 5403,
      "drawn": 5404,
      "Philip": 5405,
      "Chic": 5406,
      "comfortable": 5407,
      "colour": 5408,
      "dominant": 5409,
      "dose": 5410,
      "choices": 5411,
      "electron": 5412,
      "Does": 5413,
      "ifies": 5414,
      "Back": 5415,
      "extract": 5416,
      "Street": 5417,
      "paralle": 5418,
      "bling": 5419,
      "NS": 5420,
      "journey": 5421,
      "gum": 5422,
      "brush": 5423,
      "maintenance": 5424,
      "imal": 5425,
      "studying": 5426,
      "ashion": 5427,
      "ua": 5428,
      "Py": 5429,
      "Disease": 5430,
      "BS": 5431,
      "sue": 5432,
      "trained": 5433,
      "oration": 5434,
      "childhood": 5435,
      "audience": 5436,
      "biology": 5437,
      "entry": 5438,
      "circuit": 5439,
      "hydrogen": 5440,
      "intervention": 5441,
      "truly": 5442,
      "olf": 5443,
      "Ess": 5444,
      "Richard": 5445,
      "steel": 5446,
      "hero": 5447,
      "cards": 5448,
      "description": 5449,
      "1990": 5450,
      "fossil": 5451,
      "orses": 5452,
      "thousand": 5453,
      "signals": 5454,
      "pron": 5455,
      "necessarily": 5456,
      "1960": 5457,
      "framework": 5458,
      "TV": 5459,
      "ole": 5460,
      "Native": 5461,
      "struggle": 5462,
      "Democr": 5463,
      "opposite": 5464,
      "proportion": 5465,
      "doubt": 5466,
      "calcium": 5467,
      "Hun": 5468,
      "hang": 5469,
      "neck": 5470,
      "bind": 5471,
      "agency": 5472,
      "resto": 5473,
      "greatly": 5474,
      "circumstances": 5475,
      "molecules": 5476,
      "EP": 5477,
      "zero": 5478,
      "meal": 5479,
      "lers": 5480,
      "Frank": 5481,
      "icide": 5482,
      "mixed": 5483,
      "boost": 5484,
      "stomach": 5485,
      "laboratory": 5486,
      "Build": 5487,
      "Pract": 5488,
      "friendly": 5489,
      "implementation": 5490,
      "coffee": 5491,
      "brow": 5492,
      "Agric": 5493,
      "operate": 5494,
      "walking": 5495,
      "acids": 5496,
      "critic": 5497,
      "replaced": 5498,
      "Vict": 5499,
      "simpl": 5500,
      "confidence": 5501,
      "coordin": 5502,
      "Ref": 5503,
      "stroke": 5504,
      "mia": 5505,
      "newsp": 5506,
      "indicates": 5507,
      "Camp": 5508,
      "64": 5509,
      "decide": 5510,
      "Michael": 5511,
      "instrument": 5512,
      "Wood": 5513,
      "employed": 5514,
      "handle": 5515,
      "institution": 5516,
      "ying": 5517,
      "culation": 5518,
      "Sa": 5519,
      "false": 5520,
      "shift": 5521,
      "mechanism": 5522,
      "~,": 5523,
      "bac": 5524,
      "vessels": 5525,
      "vous": 5526,
      "compare": 5527,
      "Du": 5528,
      "sheet": 5529,
      "reland": 5530,
      "compr": 5531,
      "Big": 5532,
      "insects": 5533,
      "covers": 5534,
      "allerg": 5535,
      "boy": 5536,
      "Haw": 5537,
      "Northern": 5538,
      "minute": 5539,
      "Op": 5540,
      "ount": 5541,
      "environments": 5542,
      "sections": 5543,
      "CT": 5544,
      "flower": 5545,
      "custo": 5546,
      "difficulty": 5547,
      "algorith": 5548,
      "sentence": 5549,
      "diagnosed": 5550,
      "cultures": 5551,
      "Committee": 5552,
      "clust": 5553,
      "orbit": 5554,
      "contained": 5555,
      "Rob": 5556,
      "pic": 5557,
      "Three": 5558,
      "authorities": 5559,
      "responses": 5560,
      "mary": 5561,
      "bread": 5562,
      "Four": 5563,
      "Current": 5564,
      "rew": 5565,
      "limits": 5566,
      "witness": 5567,
      "acting": 5568,
      "holds": 5569,
      "driven": 5570,
      "inction": 5571,
      "none": 5572,
      "posing": 5573,
      "stands": 5574,
      "expans": 5575,
      "Pop": 5576,
      "consumers": 5577,
      "nerve": 5578,
      "join": 5579,
      "drawing": 5580,
      "arrived": 5581,
      "Ireland": 5582,
      "definite": 5583,
      "eastern": 5584,
      "Eth": 5585,
      "seas": 5586,
      "zil": 5587,
      "ingly": 5588,
      "’,": 5589,
      "fell": 5590,
      "tank": 5591,
      "contamin": 5592,
      "icians": 5593,
      "bath": 5594,
      "destroyed": 5595,
      "launch": 5596,
      "habits": 5597,
      "het": 5598,
      "HT": 5599,
      "Lit": 5600,
      "preced": 5601,
      "carefully": 5602,
      "accum": 5603,
      "compass": 5604,
      "holding": 5605,
      "Set": 5606,
      "aven": 5607,
      "reader": 5608,
      "DC": 5609,
      "purchase": 5610,
      "Ocean": 5611,
      "recept": 5612,
      "Ur": 5613,
      "joined": 5614,
      "philosophy": 5615,
      "partner": 5616,
      "sacr": 5617,
      "ultimately": 5618,
      "Italy": 5619,
      "RA": 5620,
      "constructed": 5621,
      "unable": 5622,
      "desire": 5623,
      "76": 5624,
      "eld": 5625,
      "younger": 5626,
      "CO2": 5627,
      "Key": 5628,
      "blind": 5629,
      "evaluation": 5630,
      "inhib": 5631,
      "ena": 5632,
      "respir": 5633,
      "Fish": 5634,
      "Brown": 5635,
      "dedicated": 5636,
      "Georg": 5637,
      "bra": 5638,
      "diction": 5639,
      "acknow": 5640,
      "breathing": 5641,
      "Royal": 5642,
      "presentation": 5643,
      "ada": 5644,
      "20th": 5645,
      "lap": 5646,
      "attached": 5647,
      "arg": 5648,
      "taste": 5649,
      "chosen": 5650,
      "debate": 5651,
      "Yes": 5652,
      "gam": 5653,
      "Down": 5654,
      "accessible": 5655,
      "immediate": 5656,
      "erals": 5657,
      "58": 5658,
      "comments": 5659,
      "string": 5660,
      "dians": 5661,
      "interaction": 5662,
      "kins": 5663,
      "etics": 5664,
      "lifestyle": 5665,
      "platform": 5666,
      "Effect": 5667,
      "closer": 5668,
      "regulations": 5669,
      "Administr": 5670,
      "anes": 5671,
      "supporting": 5672,
      "ogue": 5673,
      "Revolution": 5674,
      "brew": 5675,
      "EU": 5676,
      "scenar": 5677,
      "conven": 5678,
      "ratio": 5679,
      "cats": 5680,
      "subs": 5681,
      "Article": 5682,
      "Sil": 5683,
      "veter": 5684,
      "architect": 5685,
      "defe": 5686,
      "preval": 5687,
      "fewer": 5688,
      "BM": 5689,
      "dys": 5690,
      "Source": 5691,
      "mice": 5692,
      "twenty": 5693,
      "eric": 5694,
      "itative": 5695,
      "persist": 5696,
      "housing": 5697,
      "airs": 5698,
      "powers": 5699,
      "comparison": 5700,
      "thal": 5701,
      "tea": 5702,
      "DP": 5703,
      "pipe": 5704,
      "ita": 5705,
      "frequent": 5706,
      "lla": 5707,
      "criter": 5708,
      "Open": 5709,
      "Dar": 5710,
      "Plant": 5711,
      "succeed": 5712,
      "Chicago": 5713,
      "Moreover": 5714,
      "onomy": 5715,
      "Chapter": 5716,
      "therap": 5717,
      "ourselves": 5718,
      "earl": 5719,
      "Ha": 5720,
      "Dep": 5721,
      "Valley": 5722,
      "whatever": 5723,
      "PL": 5724,
      "emotions": 5725,
      "highlight": 5726,
      "crime": 5727,
      "cryst": 5728,
      "Furthermore": 5729,
      "budget": 5730,
      "aria": 5731,
      "roads": 5732,
      "Penn": 5733,
      "concrete": 5734,
      "rice": 5735,
      "ongo": 5736,
      "architecture": 5737,
      "izer": 5738,
      "1994": 5739,
      "territory": 5740,
      "markets": 5741,
      "ode": 5742,
      "magnetic": 5743,
      "RNA": 5744,
      "ores": 5745,
      "inform": 5746,
      "Orig": 5747,
      "tri": 5748,
      "physics": 5749,
      "bits": 5750,
      "biggest": 5751,
      "Nut": 5752,
      "oring": 5753,
      "cloud": 5754,
      "Scott": 5755,
      "Similar": 5756,
      "mone": 5757,
      "Special": 5758,
      "psychological": 5759,
      "colleagues": 5760,
      "turns": 5761,
      "instructions": 5762,
      "vote": 5763,
      "Carolina": 5764,
      "Language": 5765,
      "transportation": 5766,
      "facing": 5767,
      "printed": 5768,
      "Spain": 5769,
      "blow": 5770,
      "supports": 5771,
      "reliable": 5772,
      "gluco": 5773,
      "filter": 5774,
      "occasion": 5775,
      "icon": 5776,
      "Board": 5777,
      "rhy": 5778,
      "Inc": 5779,
      "~.": 5780,
      "View": 5781,
      "promin": 5782,
      "university": 5783,
      "Rom": 5784,
      "define": 5785,
      "owner": 5786,
      "dioxide": 5787,
      "Brazil": 5788,
      "57": 5789,
      "CL": 5790,
      "equivalent": 5791,
      "mechanisms": 5792,
      "knows": 5793,
      "arrange": 5794,
      "Bus": 5795,
      "grew": 5796,
      "posal": 5797,
      "fashion": 5798,
      "Bank": 5799,
      "exists": 5800,
      "communicate": 5801,
      "worship": 5802,
      "clop": 5803,
      "forth": 5804,
      "noise": 5805,
      "transition": 5806,
      "han": 5807,
      "chlor": 5808,
      "supplies": 5809,
      "Family": 5810,
      "programming": 5811,
      "relax": 5812,
      "align": 5813,
      "shut": 5814,
      "accident": 5815,
      "smoking": 5816,
      "rooms": 5817,
      "Youn": 5818,
      "ini": 5819,
      "percentage": 5820,
      "desc": 5821,
      "tight": 5822,
      "Ele": 5823,
      "Gard": 5824,
      "Unfortunately": 5825,
      "theast": 5826,
      "agreed": 5827,
      "underlying": 5828,
      "rub": 5829,
      "gap": 5830,
      "andon": 5831,
      "Indians": 5832,
      "Academy": 5833,
      "obesity": 5834,
      "connections": 5835,
      "greenhouse": 5836,
      "01": 5837,
      "usage": 5838,
      "rising": 5839,
      "Type": 5840,
      "promise": 5841,
      "capture": 5842,
      "covering": 5843,
      "banks": 5844,
      "improvement": 5845,
      "approved": 5846,
      "makers": 5847,
      "susp": 5848,
      "sor": 5849,
      "Gra": 5850,
      "issued": 5851,
      "division": 5852,
      "estimate": 5853,
      "Victor": 5854,
      "machines": 5855,
      "Holy": 5856,
      "Empire": 5857,
      "gov": 5858,
      "recognition": 5859,
      "variable": 5860,
      "sey": 5861,
      "phones": 5862,
      "legs": 5863,
      "artificial": 5864,
      "anta": 5865,
      "93": 5866,
      "AA": 5867,
      "participate": 5868,
      "maps": 5869,
      "ishment": 5870,
      "lake": 5871,
      "Bab": 5872,
      "Lar": 5873,
      "compounds": 5874,
      "missions": 5875,
      "evil": 5876,
      "Sel": 5877,
      "voltage": 5878,
      "Ther": 5879,
      "Start": 5880,
      "Age": 5881,
      "Additionally": 5882,
      "som": 5883,
      "cow": 5884,
      "Vit": 5885,
      "crimination": 5886,
      "sche": 5887,
      "whereas": 5888,
      "aret": 5889,
      "vulnerable": 5890,
      "flag": 5891,
      "supposed": 5892,
      "Italian": 5893,
      "funds": 5894,
      "refuge": 5895,
      "utch": 5896,
      "feedback": 5897,
      "Martin": 5898,
      "Indu": 5899,
      "thma": 5900,
      "throw": 5901,
      "behaviors": 5902,
      "examine": 5903,
      "Researchers": 5904,
      "Bill": 5905,
      "camera": 5906,
      "swim": 5907,
      "consumer": 5908,
      "Fo": 5909,
      "Times": 5910,
      "pled": 5911,
      "beliefs": 5912,
      "Sciences": 5913,
      "IG": 5914,
      "Low": 5915,
      "67": 5916,
      "chick": 5917,
      "alter": 5918,
      "riers": 5919,
      "resulted": 5920,
      "decor": 5921,
      "Never": 5922,
      "wait": 5923,
      "demonstrated": 5924,
      "Eastern": 5925,
      "92": 5926,
      "sme": 5927,
      "trials": 5928,
      "customers": 5929,
      "ione": 5930,
      "ahead": 5931,
      "len": 5932,
      "nom": 5933,
      "instruments": 5934,
      "advert": 5935,
      "burning": 5936,
      "bees": 5937,
      "vs": 5938,
      "street": 5939,
      "inch": 5940,
      "terior": 5941,
      "department": 5942,
      "yo": 5943,
      "objective": 5944,
      "layers": 5945,
      "stri": 5946,
      "imper": 5947,
      "reactions": 5948,
      "delay": 5949,
      "blocks": 5950,
      "observations": 5951,
      "Mountain": 5952,
      "pto": 5953,
      "ulf": 5954,
      "attend": 5955,
      "cort": 5956,
      "painting": 5957,
      "Kar": 5958,
      "competition": 5959,
      "independence": 5960,
      "Hill": 5961,
      "uni": 5962,
      "ME": 5963,
      "falls": 5964,
      "politics": 5965,
      "Author": 5966,
      "Irish": 5967,
      "pra": 5968,
      "estimates": 5969,
      "insulin": 5970,
      "68": 5971,
      "pher": 5972,
      "insurance": 5973,
      "icing": 5974,
      "fever": 5975,
      "cure": 5976,
      "spending": 5977,
      "mine": 5978,
      "feder": 5979,
      "05": 5980,
      "Ange": 5981,
      "elev": 5982,
      "scene": 5983,
      "plicit": 5984,
      "debt": 5985,
      "nearby": 5986,
      "integrated": 5987,
      "viruses": 5988,
      "election": 5989,
      "demonstrate": 5990,
      "guaran": 5991,
      "manif": 5992,
      "PDF": 5993,
      "weigh": 5994,
      "Atlantic": 5995,
      "________": 5996,
      "adoles": 5997,
      "categories": 5998,
      "poison": 5999,
      "centre": 6000,
      "Face": 6001,
      "myster": 6002,
      "rivers": 6003,
      "conclusion": 6004,
      "generations": 6005,
      "Tom": 6006,
      "wasn": 6007,
      "boys": 6008,
      "mining": 6009,
      "missing": 6010,
      "charged": 6011,
      "smoke": 6012,
      "Party": 6013,
      "nucle": 6014,
      "matters": 6015,
      "substances": 6016,
      "domain": 6017,
      "zon": 6018,
      "SO": 6019,
      "asking": 6020,
      "prev": 6021,
      "breeding": 6022,
      "lung": 6023,
      "esis": 6024,
      "session": 6025,
      "mg": 6026,
      "heads": 6027,
      "Less": 6028,
      "usions": 6029,
      "graduate": 6030,
      "idance": 6031,
      "oul": 6032,
      "county": 6033,
      "Next": 6034,
      "surve": 6035,
      "putting": 6036,
      "umes": 6037,
      "oo": 6038,
      "SP": 6039,
      "papers": 6040,
      "negot": 6041,
      "delivery": 6042,
      "virtual": 6043,
      "tub": 6044,
      "Dom": 6045,
      "asy": 6046,
      "Contin": 6047,
      "indicated": 6048,
      "Conne": 6049,
      "Mel": 6050,
      "composed": 6051,
      "route": 6052,
      "reven": 6053,
      "sts": 6054,
      "legislation": 6055,
      "Kingdom": 6056,
      "alysis": 6057,
      "column": 6058,
      "fert": 6059,
      "viewed": 6060,
      "Ru": 6061,
      "shad": 6062,
      "horses": 6063,
      "association": 6064,
      "match": 6065,
      "Mean": 6066,
      "stones": 6067,
      "epis": 6068,
      "aland": 6069,
      "explanation": 6070,
      "meters": 6071,
      "tissues": 6072,
      "honor": 6073,
      "launched": 6074,
      "Blue": 6075,
      "grain": 6076,
      "ij": 6077,
      "bond": 6078,
      "vac": 6079,
      "myth": 6080,
      "1993": 6081,
      "pool": 6082,
      "Columb": 6083,
      "participation": 6084,
      "lad": 6085,
      "abul": 6086,
      "breaks": 6087,
      "relief": 6088,
      "orn": 6089,
      "involving": 6090,
      "pu": 6091,
      "commission": 6092,
      "Sk": 6093,
      "pump": 6094,
      "arts": 6095,
      "Oxford": 6096,
      "robot": 6097,
      "Several": 6098,
      "faced": 6099,
      "Resources": 6100,
      "renewable": 6101,
      "Cross": 6102,
      "ented": 6103,
      "runs": 6104,
      "turning": 6105,
      "passage": 6106,
      "agents": 6107,
      "800": 6108,
      "shif": 6109,
      "Consider": 6110,
      "interactions": 6111,
      "organs": 6112,
      "gers": 6113,
      "placing": 6114,
      "distributed": 6115,
      "installed": 6116,
      "eff": 6117,
      "Gar": 6118,
      "ti": 6119,
      "adap": 6120,
      "transmit": 6121,
      "controls": 6122,
      "dress": 6123,
      "remark": 6124,
      "Change": 6125,
      "mad": 6126,
      "Based": 6127,
      "inser": 6128,
      "idespread": 6129,
      "resistant": 6130,
      "manip": 6131,
      "abled": 6132,
      "players": 6133,
      "gly": 6134,
      "award": 6135,
      "everyday": 6136,
      "glucose": 6137,
      "intellectual": 6138,
      "endo": 6139,
      "enemy": 6140,
      "destruction": 6141,
      "mortality": 6142,
      "Hall": 6143,
      "asts": 6144,
      "seeking": 6145,
      "1992": 6146,
      "iant": 6147,
      "mold": 6148,
      "serving": 6149,
      "acle": 6150,
      "hid": 6151,
      "outer": 6152,
      "kne": 6153,
      "defense": 6154,
      "1950": 6155,
      "Sir": 6156,
      "neither": 6157,
      "peror": 6158,
      "Windows": 6159,
      "aked": 6160,
      "damaged": 6161,
      "expansion": 6162,
      "volcan": 6163,
      "settings": 6164,
      "kidney": 6165,
      "holes": 6166,
      "uce": 6167,
      "asive": 6168,
      "ighter": 6169,
      "cribed": 6170,
      "pling": 6171,
      "tall": 6172,
      "aced": 6173,
      "citizen": 6174,
      "category": 6175,
      "phosph": 6176,
      "Den": 6177,
      "Inte": 6178,
      "ux": 6179,
      "52": 6180,
      "psy": 6181,
      "passing": 6182,
      "physi": 6183,
      "maintaining": 6184,
      "78": 6185,
      "calories": 6186,
      "smooth": 6187,
      "tropical": 6188,
      "94": 6189,
      "Pur": 6190,
      "asty": 6191,
      "heating": 6192,
      "pine": 6193,
      "molecular": 6194,
      "ureau": 6195,
      "publication": 6196,
      "iac": 6197,
      "Grand": 6198,
      "declared": 6199,
      "circle": 6200,
      "earthqu": 6201,
      "telling": 6202,
      "rd": 6203,
      "informed": 6204,
      "challenging": 6205,
      "yard": 6206,
      "committed": 6207,
      "mechanical": 6208,
      "Tit": 6209,
      "texts": 6210,
      "istry": 6211,
      "entered": 6212,
      "Ly": 6213,
      "somewhat": 6214,
      "Syn": 6215,
      "regulation": 6216,
      "examination": 6217,
      "Community": 6218,
      "gut": 6219,
      "brings": 6220,
      "zed": 6221,
      "industries": 6222,
      "listen": 6223,
      "isto": 6224,
      "grams": 6225,
      "Method": 6226,
      "umps": 6227,
      "nose": 6228,
      "Which": 6229,
      "trouble": 6230,
      "rose": 6231,
      "wheel": 6232,
      "itivity": 6233,
      "depart": 6234,
      "Services": 6235,
      "Dec": 6236,
      "butter": 6237,
      "Dou": 6238,
      "pharm": 6239,
      "spaces": 6240,
      "nervous": 6241,
      "CI": 6242,
      "azine": 6243,
      "Li": 6244,
      "finished": 6245,
      "receiving": 6246,
      "ongoing": 6247,
      "thorough": 6248,
      "signed": 6249,
      "Exper": 6250,
      "rab": 6251,
      "Asian": 6252,
      "Step": 6253,
      "erve": 6254,
      "fellow": 6255,
      "ounce": 6256,
      "VID": 6257,
      "mosqu": 6258,
      "interpre": 6259,
      "minerals": 6260,
      "refr": 6261,
      "evaluate": 6262,
      "abandon": 6263,
      "Thir": 6264,
      "strongly": 6265,
      "bringing": 6266,
      "igan": 6267,
      "exercises": 6268,
      "aker": 6269,
      "preparation": 6270,
      "Ep": 6271,
      "widespread": 6272,
      "victims": 6273,
      "Try": 6274,
      "oples": 6275,
      "islands": 6276,
      "plements": 6277,
      "carrying": 6278,
      "rely": 6279,
      "acute": 6280,
      "syl": 6281,
      "owned": 6282,
      "furn": 6283,
      "PR": 6284,
      "%)": 6285,
      "continuous": 6286,
      "Without": 6287,
      "archae": 6288,
      "GO": 6289,
      "flows": 6290,
      "correctly": 6291,
      "Introdu": 6292,
      "tube": 6293,
      "Viet": 6294,
      "Security": 6295,
      "husband": 6296,
      "Lead": 6297,
      "Young": 6298,
      "Non": 6299,
      "Online": 6300,
      "rational": 6301,
      "mony": 6302,
      "CN": 6303,
      "thanks": 6304,
      "writers": 6305,
      "fan": 6306,
      "Mu": 6307,
      "inson": 6308,
      "designs": 6309,
      "ammat": 6310,
      "crew": 6311,
      "dollars": 6312,
      "Model": 6313,
      "complicated": 6314,
      "ller": 6315,
      "surprising": 6316,
      "fairly": 6317,
      "51": 6318,
      "uous": 6319,
      "91": 6320,
      "welling": 6321,
      "fourth": 6322,
      "Cer": 6323,
      "remind": 6324,
      "reduces": 6325,
      "facility": 6326,
      "satellite": 6327,
      "UT": 6328,
      "racial": 6329,
      "proven": 6330,
      "arrest": 6331,
      "53": 6332,
      "Mult": 6333,
      "Bio": 6334,
      "coastal": 6335,
      "treating": 6336,
      "Jul": 6337,
      "worry": 6338,
      "planned": 6339,
      "scholar": 6340,
      "Van": 6341,
      "announced": 6342,
      "intense": 6343,
      "planted": 6344,
      "engaged": 6345,
      "keting": 6346,
      "Star": 6347,
      "reject": 6348,
      "seemed": 6349,
      "artists": 6350,
      "Sc": 6351,
      "Swed": 6352,
      "moisture": 6353,
      "Leg": 6354,
      "mood": 6355,
      "anth": 6356,
      "females": 6357,
      "bean": 6358,
      "Naz": 6359,
      "breaking": 6360,
      "mild": 6361,
      "realize": 6362,
      "offering": 6363,
      "measurements": 6364,
      "Tim": 6365,
      "measurement": 6366,
      "1991": 6367,
      "confirmed": 6368,
      "wound": 6369,
      "Mich": 6370,
      "Word": 6371,
      "Ot": 6372,
      "recommendations": 6373,
      "shell": 6374,
      "babies": 6375,
      "nels": 6376,
      "Copy": 6377,
      "conversation": 6378,
      "Industr": 6379,
      "union": 6380,
      "favorite": 6381,
      "merely": 6382,
      "emit": 6383,
      "600": 6384,
      "desired": 6385,
      "pill": 6386,
      "constantly": 6387,
      "appointed": 6388,
      "discrimination": 6389,
      "gical": 6390,
      "Reading": 6391,
      "Zealand": 6392,
      "variables": 6393,
      "Ko": 6394,
      "Prov": 6395,
      "theories": 6396,
      "grid": 6397,
      "escape": 6398,
      "prohib": 6399,
      "strip": 6400,
      "hall": 6401,
      "Light": 6402,
      "laid": 6403,
      "males": 6404,
      "officers": 6405,
      "roles": 6406,
      "perior": 6407,
      "maintained": 6408,
      "criteria": 6409,
      "Sar": 6410,
      "significance": 6411,
      "config": 6412,
      "slavery": 6413,
      "farming": 6414,
      "satisf": 6415,
      "mineral": 6416,
      "sought": 6417,
      "iti": 6418,
      "pressive": 6419,
      "cham": 6420,
      "clothing": 6421,
      "resident": 6422,
      "unk": 6423,
      "hormon": 6424,
      "HS": 6425,
      "tip": 6426,
      "respectively": 6427,
      "beat": 6428,
      "terror": 6429,
      "degrad": 6430,
      "beauty": 6431,
      "outcome": 6432,
      "pounds": 6433,
      "stract": 6434,
      "Scientists": 6435,
      "gate": 6436,
      "amins": 6437,
      "biom": 6438,
      "considering": 6439,
      "rays": 6440,
      "accuracy": 6441,
      "ki": 6442,
      "interpretation": 6443,
      "ros": 6444,
      "parallel": 6445,
      "seconds": 6446,
      "rocks": 6447,
      "complain": 6448,
      "fabric": 6449,
      "ora": 6450,
      "Agency": 6451,
      "Perhaps": 6452,
      "theme": 6453,
      "centers": 6454,
      "theore": 6455,
      "ativity": 6456,
      "Cat": 6457,
      "moves": 6458,
      "paras": 6459,
      "Hosp": 6460,
      "Ul": 6461,
      "elected": 6462,
      "orous": 6463,
      "graphical": 6464,
      "surfaces": 6465,
      "Ven": 6466,
      "clock": 6467,
      "pregnant": 6468,
      "strengthen": 6469,
      "54": 6470,
      "Ye": 6471,
      "Father": 6472,
      "airy": 6473,
      "powered": 6474,
      "rarely": 6475,
      "uted": 6476,
      "captured": 6477,
      "soul": 6478,
      "score": 6479,
      "temple": 6480,
      "directed": 6481,
      "District": 6482,
      "ember": 6483,
      "ammatory": 6484,
      "influenced": 6485,
      "EE": 6486,
      "deploy": 6487,
      "metabol": 6488,
      "criminal": 6489,
      "preventing": 6490,
      "detection": 6491,
      "abulary": 6492,
      "beings": 6493,
      "effectiveness": 6494,
      "solving": 6495,
      "ipedia": 6496,
      "gus": 6497,
      "dynamic": 6498,
      "opposed": 6499,
      "PV": 6500,
      "onia": 6501,
      "logic": 6502,
      "communications": 6503,
      "Wall": 6504,
      "plenty": 6505,
      "wis": 6506,
      "Modern": 6507,
      "intent": 6508,
      "healing": 6509,
      "ument": 6510,
      "cardio": 6511,
      "reaching": 6512,
      "chest": 6513,
      "essentially": 6514,
      "suring": 6515,
      "modified": 6516,
      "atically": 6517,
      "processed": 6518,
      "guidance": 6519,
      "plot": 6520,
      "incred": 6521,
      "odiversity": 6522,
      "Play": 6523,
      "keys": 6524,
      "Pak": 6525,
      "assem": 6526,
      "knowing": 6527,
      "panel": 6528,
      "nitrogen": 6529,
      "remed": 6530,
      "ubs": 6531,
      "Director": 6532,
      "combat": 6533,
      "mann": 6534,
      "cleaning": 6535,
      "migration": 6536,
      "fishing": 6537,
      "brand": 6538,
      "screening": 6539,
      "silver": 6540,
      "contemporary": 6541,
      "absence": 6542,
      "wine": 6543,
      "heimer": 6544,
      "uncertain": 6545,
      "forget": 6546,
      "artist": 6547,
      "abnormal": 6548,
      "Christmas": 6549,
      "Fire": 6550,
      "ordered": 6551,
      "Whether": 6552,
      "collaboration": 6553,
      "respiratory": 6554,
      "EPA": 6555,
      "tles": 6556,
      "forcement": 6557,
      "Neuro": 6558,
      "messages": 6559,
      "ria": 6560,
      "fers": 6561,
      "holders": 6562,
      "Oper": 6563,
      "shore": 6564,
      "roughly": 6565,
      "Liter": 6566,
      "IF": 6567,
      "attempts": 6568,
      "weapons": 6569,
      "pand": 6570,
      "osing": 6571,
      "phenomenon": 6572,
      "minister": 6573,
      "scientist": 6574,
      "%.": 6575,
      "statistics": 6576,
      "Hand": 6577,
      "ION": 6578,
      "Ret": 6579,
      "irrit": 6580,
      "cents": 6581,
      "72": 6582,
      "Centre": 6583,
      "array": 6584,
      "Ama": 6585,
      "Fund": 6586,
      "boat": 6587,
      "thritis": 6588,
      "implemented": 6589,
      "honey": 6590,
      "peak": 6591,
      "defect": 6592,
      "matically": 6593,
      "unt": 6594,
      "Thanks": 6595,
      "Columbia": 6596,
      "horizon": 6597,
      "Spir": 6598,
      "Johnson": 6599,
      "amazing": 6600,
      "murder": 6601,
      "experimental": 6602,
      "branch": 6603,
      "fires": 6604,
      "imagine": 6605,
      "Fun": 6606,
      "compound": 6607,
      "ventions": 6608,
      "principal": 6609,
      "beth": 6610,
      "linear": 6611,
      "analys": 6612,
      "ingredients": 6613,
      "Ident": 6614,
      "Sand": 6615,
      "vard": 6616,
      "universal": 6617,
      "isk": 6618,
      "breed": 6619,
      "traits": 6620,
      "iana": 6621,
      "IDS": 6622,
      "iox": 6623,
      "oms": 6624,
      "trait": 6625,
      "bag": 6626,
      "television": 6627,
      "Fer": 6628,
      "disaster": 6629,
      "removal": 6630,
      "Head": 6631,
      "polar": 6632,
      "hem": 6633,
      "trend": 6634,
      "DS": 6635,
      "structural": 6636,
      "client": 6637,
      "hazard": 6638,
      "nings": 6639,
      "inspired": 6640,
      "encouraged": 6641,
      "editor": 6642,
      "asthma": 6643,
      "intensity": 6644,
      "printing": 6645,
      "imaging": 6646,
      "shapes": 6647,
      "ares": 6648,
      "epide": 6649,
      "maybe": 6650,
      "judge": 6651,
      "Having": 6652,
      "considerable": 6653,
      "delivered": 6654,
      "86": 6655,
      "inity": 6656,
      "arter": 6657,
      "Treatment": 6658,
      "sharp": 6659,
      "HA": 6660,
      "gradually": 6661,
      "Cha": 6662,
      "assigned": 6663,
      "excessive": 6664,
      "Safety": 6665,
      "Again": 6666,
      "pets": 6667,
      "eries": 6668,
      "visitors": 6669,
      "mathematics": 6670,
      "Being": 6671,
      "120": 6672,
      "reward": 6673,
      "agent": 6674,
      "lihood": 6675,
      "assume": 6676,
      "newly": 6677,
      "detected": 6678,
      "Administration": 6679,
      "implications": 6680,
      "Remember": 6681,
      "Did": 6682,
      "spectrum": 6683,
      "aims": 6684,
      "cash": 6685,
      "Vietnam": 6686,
      "subsequent": 6687,
      "tut": 6688,
      "careful": 6689,
      "orph": 6690,
      "tos": 6691,
      "branches": 6692,
      "borne": 6693,
      "ears": 6694,
      "factory": 6695,
      "photos": 6696,
      "occurring": 6697,
      "prompt": 6698,
      "ampl": 6699,
      "examined": 6700,
      "inqu": 6701,
      "radical": 6702,
      "cooking": 6703,
      "stations": 6704,
      "courage": 6705,
      "teams": 6706,
      "Coast": 6707,
      "planets": 6708,
      "player": 6709,
      "oids": 6710,
      "inks": 6711,
      "chron": 6712,
      "split": 6713,
      "aska": 6714,
      "targets": 6715,
      "calling": 6716,
      "GE": 6717,
      "Prince": 6718,
      "itudes": 6719,
      "eline": 6720,
      "equally": 6721,
      "difficulties": 6722,
      "representation": 6723,
      "unusual": 6724,
      "Fact": 6725,
      "corner": 6726,
      "thentic": 6727,
      "proceed": 6728,
      "flash": 6729,
      "Call": 6730,
      "stronger": 6731,
      "Recent": 6732,
      "membr": 6733,
      "yer": 6734,
      "alog": 6735,
      "dealing": 6736,
      "Alz": 6737,
      "LO": 6738,
      "hormone": 6739,
      "coln": 6740,
      "spin": 6741,
      "Person": 6742,
      "caught": 6743,
      "characterized": 6744,
      "chart": 6745,
      "ography": 6746,
      "defend": 6747,
      "wage": 6748,
      "compens": 6749,
      "gained": 6750,
      "quarter": 6751,
      "translation": 6752,
      "pestic": 6753,
      "settlement": 6754,
      "partnership": 6755,
      "mud": 6756,
      "ancest": 6757,
      "flies": 6758,
      "Books": 6759,
      "lists": 6760,
      "aming": 6761,
      "sch": 6762,
      "inflammatory": 6763,
      "bee": 6764,
      "diameter": 6765,
      "Christians": 6766,
      "formula": 6767,
      "Pot": 6768,
      "ura": 6769,
      "bohydr": 6770,
      "Iran": 6771,
      "1st": 6772,
      "Pen": 6773,
      "focuses": 6774,
      "Lee": 6775,
      "Little": 6776,
      "etry": 6777,
      "physician": 6778,
      "gry": 6779,
      "Jeff": 6780,
      "acing": 6781,
      "concerning": 6782,
      "varieties": 6783,
      "fest": 6784,
      "Lincoln": 6785,
      "disput": 6786,
      "Page": 6787,
      "philosoph": 6788,
      "identification": 6789,
      "itals": 6790,
      "functioning": 6791,
      "indigenous": 6792,
      "funded": 6793,
      "raph": 6794,
      "Section": 6795,
      "dies": 6796,
      "bigger": 6797,
      "hence": 6798,
      "Adv": 6799,
      "Spring": 6800,
      "abil": 6801,
      "yes": 6802,
      "dependence": 6803,
      "ameters": 6804,
      "investigation": 6805,
      "resem": 6806,
      "Math": 6807,
      "ibl": 6808,
      "sales": 6809,
      "bat": 6810,
      "fract": 6811,
      "parag": 6812,
      "duty": 6813,
      "alpha": 6814,
      "oes": 6815,
      "moun": 6816,
      "prominent": 6817,
      "ruption": 6818,
      "ctr": 6819,
      "driver": 6820,
      "eliminate": 6821,
      "wheat": 6822,
      "deeper": 6823,
      "ishop": 6824,
      "happening": 6825,
      "Clar": 6826,
      "icip": 6827,
      "kg": 6828,
      "Hebrew": 6829,
      "neighborhood": 6830,
      "Conservation": 6831,
      "tray": 6832,
      "initially": 6833,
      "Assess": 6834,
      "Moon": 6835,
      "statements": 6836,
      "Forest": 6837,
      "iro": 6838,
      "gence": 6839,
      "Network": 6840,
      "acres": 6841,
      "musical": 6842,
      "armed": 6843,
      "galax": 6844,
      "substantial": 6845,
      "08": 6846,
      "PO": 6847,
      "Cir": 6848,
      "Organization": 6849,
      "aching": 6850,
      "Secret": 6851,
      "serves": 6852,
      "Business": 6853,
      "warning": 6854,
      "perception": 6855,
      "Queen": 6856,
      "Tu": 6857,
      "suffered": 6858,
      "Differ": 6859,
      "Supreme": 6860,
      "errors": 6861,
      "Mah": 6862,
      "copper": 6863,
      "Ba": 6864,
      "visited": 6865,
      "crimin": 6866,
      "250": 6867,
      "exception": 6868,
      "Cambridge": 6869,
      "Alzheimer": 6870,
      "ilation": 6871,
      "senior": 6872,
      "planting": 6873,
      "observe": 6874,
      "literacy": 6875,
      "ende": 6876,
      "innovation": 6877,
      "Engineering": 6878,
      "ec": 6879,
      "consideration": 6880,
      "slaves": 6881,
      "stores": 6882,
      "inspir": 6883,
      "icks": 6884,
      "democracy": 6885,
      "attain": 6886,
      "df": 6887,
      "Indeed": 6888,
      "Facebook": 6889,
      "Lim": 6890,
      "bacterial": 6891,
      "dish": 6892,
      "bless": 6893,
      "Heart": 6894,
      "COVID": 6895,
      "ecosystem": 6896,
      "dir": 6897,
      "Mot": 6898,
      "cosm": 6899,
      "Pakistan": 6900,
      "sport": 6901,
      "thermal": 6902,
      "traditions": 6903,
      "oured": 6904,
      "cury": 6905,
      "exceed": 6906,
      "coin": 6907,
      "itarian": 6908,
      "demands": 6909,
      "Us": 6910,
      "kingdom": 6911,
      "Dev": 6912,
      "interact": 6913,
      "orter": 6914,
      "stuff": 6915,
      "Boston": 6916,
      "Ohio": 6917,
      "evolved": 6918,
      "script": 6919,
      "flour": 6920,
      "reasonable": 6921,
      "granted": 6922,
      "iod": 6923,
      "Jac": 6924,
      "jac": 6925,
      "chair": 6926,
      "sitting": 6927,
      "Korea": 6928,
      "html": 6929,
      "Mur": 6930,
      "neutral": 6931,
      "colonial": 6932,
      "Abr": 6933,
      "emphasis": 6934,
      "Protection": 6935,
      "anywhere": 6936,
      "regarded": 6937,
      "clopedia": 6938,
      "Following": 6939,
      "Far": 6940,
      "icted": 6941,
      "Prevention": 6942,
      "Incre": 6943,
      "learners": 6944,
      "giant": 6945,
      "earliest": 6946,
      "nice": 6947,
      "06": 6948,
      "etime": 6949,
      "threats": 6950,
      "clip": 6951,
      "Trad": 6952,
      "haust": 6953,
      "Super": 6954,
      "compl": 6955,
      "Point": 6956,
      "consume": 6957,
      "illa": 6958,
      "scholars": 6959,
      "spat": 6960,
      "ansas": 6961,
      "currency": 6962,
      "listening": 6963,
      "Rock": 6964,
      "girl": 6965,
      "romo": 6966,
      "conference": 6967,
      "acquired": 6968,
      "beans": 6969,
      "1930": 6970,
      "decreased": 6971,
      "measuring": 6972,
      "videos": 6973,
      "EF": 6974,
      "icate": 6975,
      "Eliza": 6976,
      "isolated": 6977,
      "schedule": 6978,
      "Grow": 6979,
      "counsel": 6980,
      "reform": 6981,
      "drought": 6982,
      "Battle": 6983,
      "Policy": 6984,
      "~~~~~": 6985,
      "Ira": 6986,
      "windows": 6987,
      "rite": 6988,
      "seat": 6989,
      "mn": 6990,
      "publish": 6991,
      "2nd": 6992,
      "RS": 6993,
      "istical": 6994,
      "Max": 6995,
      "complications": 6996,
      "Solar": 6997,
      "oga": 6998,
      "trends": 6999,
      "humid": 7000,
      "meter": 7001,
      "balanced": 7002,
      "saving": 7003,
      "inhabit": 7004,
      "fron": 7005,
      "distur": 7006,
      "verb": 7007,
      "protective": 7008,
      "availability": 7009,
      "Palest": 7010,
      "qualities": 7011,
      "fined": 7012,
      "chemistry": 7013,
      "vania": 7014,
      "2021": 7015,
      "59": 7016,
      "Dutch": 7017,
      "cattle": 7018,
      "surge": 7019,
      "moderate": 7020,
      "heavily": 7021,
      "Minister": 7022,
      "Isa": 7023,
      "mol": 7024,
      "IM": 7025,
      "87": 7026,
      "variation": 7027,
      "1989": 7028,
      "width": 7029,
      "synthesis": 7030,
      "ioxid": 7031,
      "morph": 7032,
      "concluded": 7033,
      "cab": 7034,
      "oxid": 7035,
      "superior": 7036,
      "ucky": 7037,
      "Georgia": 7038,
      "ultane": 7039,
      "consciousness": 7040,
      "vised": 7041,
      "Due": 7042,
      "pointed": 7043,
      "transform": 7044,
      "iah": 7045,
      "provider": 7046,
      "inated": 7047,
      "enorm": 7048,
      "cence": 7049,
      "lymph": 7050,
      "versions": 7051,
      "adds": 7052,
      "Force": 7053,
      "ounder": 7054,
      "athlet": 7055,
      "regardless": 7056,
      "UV": 7057,
      "confident": 7058,
      "slave": 7059,
      "observation": 7060,
      "stability": 7061,
      "tot": 7062,
      "athe": 7063,
      "tech": 7064,
      "Equ": 7065,
      "identifying": 7066,
      "reveal": 7067,
      "phal": 7068,
      "definitely": 7069,
      "folk": 7070,
      "emic": 7071,
      "inject": 7072,
      "advent": 7073,
      "engineers": 7074,
      "ifications": 7075,
      "hidden": 7076,
      "Hom": 7077,
      "audio": 7078,
      "incent": 7079,
      "Fil": 7080,
      "Avoid": 7081,
      "viral": 7082,
      "Flo": 7083,
      "berries": 7084,
      "igate": 7085,
      "interview": 7086,
      "induced": 7087,
      "tong": 7088,
      "wan": 7089,
      "07": 7090,
      "ested": 7091,
      "Edward": 7092,
      "63": 7093,
      "Pass": 7094,
      "bomb": 7095,
      "acles": 7096,
      "potato": 7097,
      "Card": 7098,
      "alleg": 7099,
      "icious": 7100,
      "enger": 7101,
      "Vitamin": 7102,
      "?\"": 7103,
      "sunlight": 7104,
      "grows": 7105,
      "automatically": 7106,
      "logy": 7107,
      "finds": 7108,
      "igue": 7109,
      "aine": 7110,
      "violent": 7111,
      "Die": 7112,
      "writes": 7113,
      "mixture": 7114,
      "peoples": 7115,
      "berry": 7116,
      "Unlike": 7117,
      "workshe": 7118,
      "overcome": 7119,
      "Digital": 7120,
      "03": 7121,
      "IA": 7122,
      "extend": 7123,
      "grounds": 7124,
      "worst": 7125,
      "gged": 7126,
      "killing": 7127,
      "Vo": 7128,
      "shock": 7129,
      "semin": 7130,
      "phrase": 7131,
      "Ram": 7132,
      "reets": 7133,
      "rhyth": 7134,
      "ieval": 7135,
      "powder": 7136,
      "objectives": 7137,
      "Road": 7138,
      "Look": 7139,
      "rev": 7140,
      "vitamins": 7141,
      "cler": 7142,
      "Division": 7143,
      "suscept": 7144,
      "aham": 7145,
      "laser": 7146,
      "whel": 7147,
      "interactive": 7148,
      "cooling": 7149,
      "Ok": 7150,
      "addressed": 7151,
      "Es": 7152,
      "pace": 7153,
      "empty": 7154,
      "Way": 7155,
      "oldest": 7156,
      "fatty": 7157,
      "Survey": 7158,
      "cha": 7159,
      "flying": 7160,
      "lope": 7161,
      "spots": 7162,
      "ritual": 7163,
      "channel": 7164,
      "incident": 7165,
      "Later": 7166,
      "Hu": 7167,
      "argue": 7168,
      "Code": 7169,
      "ranging": 7170,
      "Field": 7171,
      "atively": 7172,
      "icting": 7173,
      "fet": 7174,
      "exhaust": 7175,
      "steam": 7176,
      "finger": 7177,
      "02": 7178,
      "committee": 7179,
      "experiencing": 7180,
      "classical": 7181,
      "stake": 7182,
      "resid": 7183,
      "kelet": 7184,
      "traction": 7185,
      "reporting": 7186,
      "hed": 7187,
      "Works": 7188,
      "ni": 7189,
      "panic": 7190,
      "autism": 7191,
      "hat": 7192,
      "interface": 7193,
      "89": 7194,
      "adverse": 7195,
      "ona": 7196,
      "Train": 7197,
      "weakness": 7198,
      "eration": 7199,
      "separated": 7200,
      "labour": 7201,
      "protecting": 7202,
      "Ros": 7203,
      "TR": 7204,
      "commitment": 7205,
      "dietary": 7206,
      "contributed": 7207,
      "apse": 7208,
      "autom": 7209,
      "wer": 7210,
      "Help": 7211,
      "hr": 7212,
      "----": 7213,
      "Pennsyl": 7214,
      "Spirit": 7215,
      "Building": 7216,
      "Michigan": 7217,
      "Islamic": 7218,
      "tables": 7219,
      "programme": 7220,
      "',": 7221,
      "illing": 7222,
      "tack": 7223,
      "ultr": 7224,
      "ctive": 7225,
      "ethical": 7226,
      "Analysis": 7227,
      "taxes": 7228,
      "illegal": 7229,
      "SE": 7230,
      "carbohydr": 7231,
      "Hospital": 7232,
      "Sto": 7233,
      "elder": 7234,
      "nuts": 7235,
      "mile": 7236,
      "towns": 7237,
      "mouse": 7238,
      "Ped": 7239,
      "gases": 7240,
      "ko": 7241,
      "urine": 7242,
      "contribution": 7243,
      "educators": 7244,
      "Na": 7245,
      "mountains": 7246,
      "ador": 7247,
      "antibiotics": 7248,
      "sover": 7249,
      "permission": 7250,
      "mathematical": 7251,
      "alive": 7252,
      "innovative": 7253,
      "authentic": 7254,
      "pH": 7255,
      "behavioral": 7256,
      "usalem": 7257,
      "tribes": 7258,
      "performing": 7259,
      "hea": 7260,
      "kings": 7261,
      "vaccines": 7262,
      "hardware": 7263,
      "falling": 7264,
      "hunting": 7265,
      "sad": 7266,
      "meals": 7267,
      "occupied": 7268,
      "Loc": 7269,
      "arthritis": 7270,
      "introduce": 7271,
      "assets": 7272,
      "hu": 7273,
      "pull": 7274,
      "Copyright": 7275,
      "reput": 7276,
      "vocabulary": 7277,
      "Colorado": 7278,
      "uality": 7279,
      "classified": 7280,
      "Right": 7281,
      "Jerusalem": 7282,
      "Kids": 7283,
      "1000": 7284,
      "Iraq": 7285,
      "disabilities": 7286,
      "FA": 7287,
      "confirm": 7288,
      "styles": 7289,
      "Schol": 7290,
      "jur": 7291,
      "heritage": 7292,
      "Watch": 7293,
      "Drug": 7294,
      "iture": 7295,
      "mothers": 7296,
      "Hal": 7297,
      "vertical": 7298,
      "manufacturers": 7299,
      "gravity": 7300,
      "Scotland": 7301,
      "copyright": 7302,
      "thereby": 7303,
      "mage": 7304,
      "BT": 7305,
      "membrane": 7306,
      "lens": 7307,
      "settled": 7308,
      "uten": 7309,
      "royal": 7310,
      "terr": 7311,
      "overwhel": 7312,
      "NE": 7313,
      "bury": 7314,
      "integration": 7315,
      "endment": 7316,
      "sizes": 7317,
      "deficiency": 7318,
      "62": 7319,
      "spinal": 7320,
      "farms": 7321,
      "],": 7322,
      "Harvard": 7323,
      "quantity": 7324,
      "quarters": 7325,
      "CDC": 7326,
      "sensitivity": 7327,
      "plates": 7328,
      "una": 7329,
      "propag": 7330,
      "passion": 7331,
      "providers": 7332,
      "grades": 7333,
      "Him": 7334,
      "varies": 7335,
      "insight": 7336,
      "04": 7337,
      "Pennsylvania": 7338,
      "wisdom": 7339,
      "tricts": 7340,
      "Justice": 7341,
      "urated": 7342,
      "angers": 7343,
      "decay": 7344,
      "inosa": 7345,
      "(~": 7346,
      "buried": 7347,
      "Christianity": 7348,
      "preserve": 7349,
      "Economic": 7350,
      "kit": 7351,
      "pac": 7352,
      "idal": 7353,
      "spray": 7354,
      "updated": 7355,
      "interventions": 7356,
      "tobac": 7357,
      "substit": 7358,
      "evident": 7359,
      ")|": 7360,
      "coverage": 7361,
      "spoken": 7362,
      "trauma": 7363,
      "calculated": 7364,
      "lide": 7365,
      "establishment": 7366,
      "Symp": 7367,
      "fuels": 7368,
      "batt": 7369,
      "Paren": 7370,
      "dense": 7371,
      "urches": 7372,
      "ecological": 7373,
      "Invest": 7374,
      "selling": 7375,
      "uset": 7376,
      "cotton": 7377,
      "cited": 7378,
      "affecting": 7379,
      "Music": 7380,
      "characteristic": 7381,
      "tumor": 7382,
      "acceptable": 7383,
      "exec": 7384,
      "concentrations": 7385,
      "constrain": 7386,
      "paragraph": 7387,
      "simultane": 7388,
      "gling": 7389,
      "geome": 7390,
      "Sunday": 7391,
      "revers": 7392,
      "archy": 7393,
      "anch": 7394,
      "scores": 7395,
      "1980": 7396,
      "Offic": 7397,
      "Mount": 7398,
      "Major": 7399,
      "improvements": 7400,
      "noticed": 7401,
      "Ency": 7402,
      "71": 7403,
      "sensors": 7404,
      "threatened": 7405,
      "burden": 7406,
      "arguments": 7407,
      "losing": 7408,
      "believes": 7409,
      "Crit": 7410,
      "span": 7411,
      "dating": 7412,
      "favour": 7413,
      "parameters": 7414,
      "container": 7415,
      "intention": 7416,
      "nutrient": 7417,
      "Saint": 7418,
      "antly": 7419,
      "fusion": 7420,
      "dramatic": 7421,
      "tap": 7422,
      "Los": 7423,
      "aimed": 7424,
      "dance": 7425,
      "specim": 7426,
      "supplements": 7427,
      "watching": 7428,
      "coat": 7429,
      "tebr": 7430,
      "mosquito": 7431,
      "herb": 7432,
      "button": 7433,
      "researcher": 7434,
      "consumed": 7435,
      "extension": 7436,
      "parad": 7437,
      "Parliament": 7438,
      "lined": 7439,
      "culpt": 7440,
      ".).": 7441,
      "1920": 7442,
      "stopped": 7443,
      "Massach": 7444,
      "Chief": 7445,
      "apor": 7446,
      "itory": 7447,
      "pla": 7448,
      "Process": 7449,
      "lungs": 7450,
      "Chang": 7451,
      "fascin": 7452,
      "Image": 7453,
      "Level": 7454,
      "Cell": 7455,
      "prey": 7456,
      "profile": 7457,
      "incidence": 7458,
      "compost": 7459,
      "enables": 7460,
      "Nutr": 7461,
      "ums": 7462,
      "literary": 7463,
      "thyroid": 7464,
      "losses": 7465,
      "opposition": 7466,
      "entr": 7467,
      "achievement": 7468,
      "Chem": 7469,
      "abolic": 7470,
      "crash": 7471,
      "batteries": 7472,
      "Writing": 7473,
      "cue": 7474,
      "panels": 7475,
      "dream": 7476,
      "narrative": 7477,
      "61": 7478,
      "eful": 7479,
      "officer": 7480,
      "ometers": 7481,
      "drivers": 7482,
      "march": 7483,
      "physically": 7484,
      "usetts": 7485,
      ".'": 7486,
      "pdf": 7487,
      "PE": 7488,
      "neys": 7489,
      "genome": 7490,
      "label": 7491,
      "evening": 7492,
      "technological": 7493,
      "expanded": 7494,
      "quiet": 7495,
      "rh": 7496,
      "harder": 7497,
      "Confeder": 7498,
      "emb": 7499,
      "Stan": 7500,
      "Massachusetts": 7501,
      "Still": 7502,
      "argued": 7503,
      "computing": 7504,
      "TE": 7505,
      "creatures": 7506,
      "Within": 7507,
      "customer": 7508,
      "waiting": 7509,
      "wonderful": 7510,
      "solved": 7511,
      "emerging": 7512,
      "antioxid": 7513,
      "irrig": 7514,
      "personality": 7515,
      "shops": 7516,
      "TA": 7517,
      "chromo": 7518,
      "sop": 7519,
      "teor": 7520,
      "lasting": 7521,
      "fats": 7522,
      "initiative": 7523,
      "adel": 7524,
      "vibr": 7525,
      "Wikipedia": 7526,
      "~~~~~~": 7527,
      "Ask": 7528,
      "descript": 7529,
      "sodium": 7530,
      "metals": 7531,
      "73": 7532,
      "ptions": 7533,
      "ease": 7534,
      "Arctic": 7535,
      "colored": 7536,
      "humanity": 7537,
      "Often": 7538,
      "kel": 7539,
      "raising": 7540,
      "invasive": 7541,
      "documented": 7542,
      "1940": 7543,
      "74": 7544,
      "Wel": 7545,
      "Gulf": 7546,
      "exciting": 7547,
      "engines": 7548,
      "sees": 7549,
      "fought": 7550,
      "glac": 7551,
      "Agriculture": 7552,
      "iary": 7553,
      "Francisco": 7554,
      "guess": 7555,
      "sym": 7556,
      "societies": 7557,
      "elsewhere": 7558,
      "Standard": 7559,
      "Systems": 7560,
      "variations": 7561,
      "Cro": 7562,
      "references": 7563,
      "1988": 7564,
      "lighting": 7565,
      "tact": 7566,
      "SD": 7567,
      "productivity": 7568,
      "Spec": 7569,
      "Hawai": 7570,
      "psychology": 7571,
      "adapted": 7572,
      "entertain": 7573,
      "actively": 7574,
      "iments": 7575,
      "cyber": 7576,
      "priority": 7577,
      "ila": 7578,
      "Historical": 7579,
      "courts": 7580,
      "intestinal": 7581,
      "distinguish": 7582,
      "quantum": 7583,
      "adder": 7584,
      "equation": 7585,
      "executive": 7586,
      "LD": 7587,
      "engagement": 7588,
      "reverse": 7589,
      "converted": 7590,
      "iop": 7591,
      "colonies": 7592,
      "Cast": 7593,
      "AIDS": 7594,
      "Mach": 7595,
      "bearing": 7596,
      "rior": 7597,
      "Fall": 7598,
      "Biology": 7599,
      "thon": 7600,
      "clou": 7601,
      "directions": 7602,
      "Media": 7603,
      "fatal": 7604,
      "Given": 7605,
      "promoting": 7606,
      "Support": 7607,
      "Dog": 7608,
      "09": 7609,
      "focusing": 7610,
      "Amazon": 7611,
      "boundaries": 7612,
      "engaging": 7613,
      "keeps": 7614,
      "Physical": 7615,
      "cardiovascular": 7616,
      "84": 7617,
      "weed": 7618,
      "reign": 7619,
      "managing": 7620,
      "literally": 7621,
      "Local": 7622,
      "Bes": 7623,
      "Islands": 7624,
      "analyze": 7625,
      "corresponding": 7626,
      "duration": 7627,
      "tone": 7628,
      "chances": 7629,
      "biodiversity": 7630,
      "Between": 7631,
      "shire": 7632,
      "summary": 7633,
      "exhibit": 7634,
      "pilot": 7635,
      "finish": 7636,
      "Material": 7637,
      "approv": 7638,
      "astronom": 7639,
      "flexible": 7640,
      "grains": 7641,
      "rows": 7642,
      "disability": 7643,
      "Wis": 7644,
      "erup": 7645,
      "aded": 7646,
      "cancers": 7647,
      "targeted": 7648,
      "strike": 7649,
      "companied": 7650,
      "fiction": 7651,
      "Ti": 7652,
      "doctr": 7653,
      "movie": 7654,
      "Put": 7655,
      "probability": 7656,
      "rection": 7657,
      "iva": 7658,
      "till": 7659,
      "Poly": 7660,
      "Blood": 7661,
      "83": 7662,
      "paying": 7663,
      "Farm": 7664,
      "promised": 7665,
      "perceived": 7666,
      "export": 7667,
      "rics": 7668,
      "colate": 7669,
      "Bang": 7670,
      "streets": 7671,
      "Tal": 7672,
      "Alexander": 7673,
      "odies": 7674,
      "hill": 7675,
      "Century": 7676,
      "rence": 7677,
      "equality": 7678,
      "Kr": 7679,
      "yr": 7680,
      "Cree": 7681,
      "itz": 7682,
      "lowest": 7683,
      "Move": 7684,
      "Chris": 7685,
      "Comple": 7686,
      "ecosystems": 7687,
      "trick": 7688,
      "marketing": 7689,
      "exploration": 7690,
      "fund": 7691,
      "Lev": 7692,
      "fre": 7693,
      "Muslims": 7694,
      "posts": 7695,
      "esh": 7696,
      "attitude": 7697,
      "mentia": 7698,
      "afts": 7699,
      "Laboratory": 7700,
      "cellular": 7701,
      "legit": 7702,
      "peer": 7703,
      "Imag": 7704,
      "Ice": 7705,
      "Elizabeth": 7706,
      "Appro": 7707,
      "arise": 7708,
      "Place": 7709,
      "expectations": 7710,
      "Small": 7711,
      "vegetation": 7712,
      "agan": 7713,
      "recycling": 7714,
      "69": 7715,
      "rib": 7716,
      "gging": 7717,
      "websites": 7718,
      "Wildlife": 7719,
      "enza": 7720,
      "amine": 7721,
      "entering": 7722,
      "households": 7723,
      "Diction": 7724,
      "investigate": 7725,
      "remarkable": 7726,
      "Introduction": 7727,
      "newspaper": 7728,
      "province": 7729,
      "rant": 7730,
      "vine": 7731,
      "classic": 7732,
      "Conference": 7733,
      "saved": 7734,
      "accompanied": 7735,
      "ENT": 7736,
      "deeply": 7737,
      "determining": 7738,
      "assumed": 7739,
      "specified": 7740,
      "enormous": 7741,
      "BI": 7742,
      "Line": 7743,
      "removing": 7744,
      "ala": 7745,
      "axis": 7746,
      "tin": 7747,
      "ski": 7748,
      "Mess": 7749,
      "attribut": 7750,
      "eness": 7751,
      "tics": 7752,
      "sensor": 7753,
      "rod": 7754,
      "preferred": 7755,
      "districts": 7756,
      "sized": 7757,
      "acre": 7758,
      "prospect": 7759,
      "cig": 7760,
      "los": 7761,
      "tobacco": 7762,
      "relate": 7763,
      "placement": 7764,
      "Proble": 7765,
      "Son": 7766,
      "%,": 7767,
      "bare": 7768,
      "eras": 7769,
      "secre": 7770,
      "heaven": 7771,
      "pip": 7772,
      "fatigue": 7773,
      "Hit": 7774,
      "universities": 7775,
      "finite": 7776,
      "Jacob": 7777,
      "emotion": 7778,
      "endar": 7779,
      "gotten": 7780,
      "Hard": 7781,
      "myself": 7782,
      "cuts": 7783,
      "transmitted": 7784,
      "awa": 7785,
      "otal": 7786,
      "continuing": 7787,
      "spatial": 7788,
      "surgical": 7789,
      "contributions": 7790,
      "Moses": 7791,
      "thread": 7792,
      "lifetime": 7793,
      "infer": 7794,
      "ensuring": 7795,
      "Greece": 7796,
      "privile": 7797,
      "ranean": 7798,
      "dess": 7799,
      "ifice": 7800,
      "interior": 7801,
      "thew": 7802,
      "explicit": 7803,
      "capabilities": 7804,
      "desert": 7805,
      "amino": 7806,
      "accord": 7807,
      "boards": 7808,
      "analog": 7809,
      "stood": 7810,
      ".-": 7811,
      "minds": 7812,
      "loose": 7813,
      "Liber": 7814,
      "assembly": 7815,
      "Symptoms": 7816,
      "ammals": 7817,
      "Senate": 7818,
      "Should": 7819,
      "orange": 7820,
      "wider": 7821,
      "portions": 7822,
      "poetry": 7823,
      "Short": 7824,
      "lymp": 7825,
      "stein": 7826,
      "Week": 7827,
      "feels": 7828,
      "existed": 7829,
      "trace": 7830,
      "worthy": 7831,
      "haven": 7832,
      "colony": 7833,
      "enterpr": 7834,
      "utic": 7835,
      "sustainability": 7836,
      "Master": 7837,
      "vig": 7838,
      "acted": 7839,
      "manager": 7840,
      "Understanding": 7841,
      "anticip": 7842,
      "trail": 7843,
      "prem": 7844,
      "tag": 7845,
      "Prim": 7846,
      "hormones": 7847,
      "cart": 7848,
      "versus": 7849,
      "representative": 7850,
      "clients": 7851,
      "(\"": 7852,
      "requirement": 7853,
      "painful": 7854,
      "Clean": 7855,
      "wearing": 7856,
      "coding": 7857,
      "fant": 7858,
      "eros": 7859,
      "Behavi": 7860,
      "Andrew": 7861,
      "vertebr": 7862,
      "Turk": 7863,
      "sentences": 7864,
      "Text": 7865,
      "ja": 7866,
      "differently": 7867,
      "79": 7868,
      "sessions": 7869,
      "ette": 7870,
      "clothes": 7871,
      "magnit": 7872,
      "Friday": 7873,
      "ori": 7874,
      "1986": 7875,
      "2022": 7876,
      "'.": 7877,
      "marg": 7878,
      "Var": 7879,
      "ications": 7880,
      "ups": 7881,
      "summar": 7882,
      "Squ": 7883,
      "gods": 7884,
      "facilitate": 7885,
      "turb": 7886,
      "addiction": 7887,
      "occas": 7888,
      "entit": 7889,
      "infants": 7890,
      "passes": 7891,
      "Doc": 7892,
      "VI": 7893,
      "Form": 7894,
      "aggressive": 7895,
      "currence": 7896,
      "Relig": 7897,
      "1987": 7898,
      "gran": 7899,
      "Emer": 7900,
      "Ash": 7901,
      "wouldn": 7902,
      "operative": 7903,
      "recru": 7904,
      "photographs": 7905,
      "unlike": 7906,
      "loop": 7907,
      ")||": 7908,
      "continent": 7909,
      "atoms": 7910,
      "Examples": 7911,
      "tough": 7912,
      "fulness": 7913,
      "applying": 7914,
      "Pain": 7915,
      "pod": 7916,
      "uniform": 7917,
      "lav": 7918,
      "Navy": 7919,
      "dil": 7920,
      "Olymp": 7921,
      "Third": 7922,
      "Han": 7923,
      "cyto": 7924,
      "restricted": 7925,
      "18th": 7926,
      "81": 7927,
      "inn": 7928,
      "convert": 7929,
      "collective": 7930,
      "Hence": 7931,
      "Much": 7932,
      "tan": 7933,
      "welve": 7934,
      "angles": 7935,
      "dynamics": 7936,
      "dairy": 7937,
      "provin": 7938,
      "mond": 7939,
      "begun": 7940,
      "virtually": 7941,
      "coron": 7942,
      "songs": 7943,
      "FDA": 7944,
      "sculpt": 7945,
      "clay": 7946,
      "ensed": 7947,
      "teles": 7948,
      "preserved": 7949,
      "safely": 7950,
      "mentary": 7951,
      "Best": 7952,
      "lyn": 7953,
      "CF": 7954,
      "immigrants": 7955,
      "welfare": 7956,
      "pene": 7957,
      "celebrated": 7958,
      "cycles": 7959,
      "kn": 7960,
      "consuming": 7961,
      "rison": 7962,
      "Princi": 7963,
      "enna": 7964,
      "campus": 7965,
      "umping": 7966,
      "honest": 7967,
      "Pet": 7968,
      "happiness": 7969,
      "hypothesis": 7970,
      "Mexican": 7971,
      "Daniel": 7972,
      "ji": 7973,
      "worker": 7974,
      "gif": 7975,
      "discipline": 7976,
      "notion": 7977,
      "apparently": 7978,
      "scheme": 7979,
      "Ce": 7980,
      "devast": 7981,
      "Arts": 7982,
      "habitats": 7983,
      "gel": 7984,
      "Secretary": 7985,
      "Sust": 7986,
      "Imp": 7987,
      "wed": 7988,
      "Think": 7989,
      "amination": 7990,
      "aws": 7991,
      "cule": 7992,
      "trem": 7993,
      "pursu": 7994,
      "municip": 7995,
      "endanger": 7996,
      "ensional": 7997,
      "Similarly": 7998,
      "Cub": 7999,
      "acknowled": 8000,
      "LA": 8001,
      "End": 8002,
      "Pu": 8003,
      "thane": 8004,
      "victory": 8005,
      "manual": 8006,
      "theli": 8007,
      "pm": 8008,
      "resil": 8009,
      "Egyptian": 8010,
      "Abraham": 8011,
      "veloc": 8012,
      "Univers": 8013,
      "edu": 8014,
      "Working": 8015,
      "Meas": 8016,
      "reviewed": 8017,
      "seriously": 8018,
      "oste": 8019,
      "diam": 8020,
      "mam": 8021,
      "mits": 8022,
      "chose": 8023,
      "Det": 8024,
      "nas": 8025,
      "diarr": 8026,
      "prayer": 8027,
      "Select": 8028,
      "holiday": 8029,
      "competitive": 8030,
      "Bon": 8031,
      "Number": 8032,
      "rix": 8033,
      "emerged": 8034,
      "sacred": 8035,
      "Rail": 8036,
      "Dictionary": 8037,
      "ician": 8038,
      "Contact": 8039,
      "reef": 8040,
      "registered": 8041,
      "compat": 8042,
      "Sustain": 8043,
      "sons": 8044,
      "pione": 8045,
      "symbols": 8046,
      "cough": 8047,
      "servers": 8048,
      "bene": 8049,
      "returns": 8050,
      "Computer": 8051,
      "tongue": 8052,
      "handling": 8053,
      "payment": 8054,
      "default": 8055,
      "neurons": 8056,
      "realized": 8057,
      "encoun": 8058,
      "recover": 8059,
      "convin": 8060,
      "avo": 8061,
      "Brain": 8062,
      "Origin": 8063,
      "ownership": 8064,
      "Ow": 8065,
      "Town": 8066,
      "Map": 8067,
      "teens": 8068,
      "convey": 8069,
      "drinks": 8070,
      "prevalence": 8071,
      "oblig": 8072,
      "cooperation": 8073,
      "inois": 8074,
      "Incl": 8075,
      "Search": 8076,
      "Hindu": 8077,
      "nutritional": 8078,
      "personnel": 8079,
      "Fair": 8080,
      "arrang": 8081,
      "circulation": 8082,
      "strategic": 8083,
      "contents": 8084,
      "Bot": 8085,
      "council": 8086,
      "operated": 8087,
      "intensive": 8088,
      "representing": 8089,
      "opinions": 8090,
      "izz": 8091,
      "700": 8092,
      "82": 8093,
      "utility": 8094,
      "purchased": 8095,
      "eu": 8096,
      "cheap": 8097,
      "1970s": 8098,
      "bullying": 8099,
      "infant": 8100,
      "limitations": 8101,
      "raid": 8102,
      "bleeding": 8103,
      "sister": 8104,
      "Exp": 8105,
      "barriers": 8106,
      "suspect": 8107,
      "gregation": 8108,
      "Trust": 8109,
      "filling": 8110,
      "cia": 8111,
      "Testament": 8112,
      "Temple": 8113,
      "Mind": 8114,
      "petition": 8115,
      "vice": 8116,
      "Kent": 8117,
      "ifer": 8118,
      "ceans": 8119,
      "dones": 8120,
      "Action": 8121,
      "Self": 8122,
      "codes": 8123,
      "replacement": 8124,
      "Wed": 8125,
      "accomplish": 8126,
      "sale": 8127,
      "conversion": 8128,
      "sciences": 8129,
      "closure": 8130,
      "1960s": 8131,
      "Name": 8132,
      "reaches": 8133,
      "complexity": 8134,
      "Indones": 8135,
      "barrier": 8136,
      "couldn": 8137,
      "ani": 8138,
      "Heritage": 8139,
      "binding": 8140,
      "!!": 8141,
      "DR": 8142,
      "Antar": 8143,
      "intim": 8144,
      "synthetic": 8145,
      "charges": 8146,
      "Microsoft": 8147,
      "Lad": 8148,
      "Dam": 8149,
      "Partic": 8150,
      "Area": 8151,
      "asser": 8152,
      "scop": 8153,
      "throat": 8154,
      "readily": 8155,
      "specialized": 8156,
      "fifth": 8157,
      "Mas": 8158,
      "Illinois": 8159,
      "bears": 8160,
      "alty": 8161,
      "curve": 8162,
      "nab": 8163,
      "develops": 8164,
      "restore": 8165,
      "restr": 8166,
      "absorb": 8167,
      "Bureau": 8168,
      "controlling": 8169,
      "adelph": 8170,
      "pairs": 8171,
      "Convention": 8172,
      "discussions": 8173,
      "sleeping": 8174,
      "spoke": 8175,
      "3rd": 8176,
      "Gall": 8177,
      "secut": 8178,
      "emia": 8179,
      ".~": 8180,
      "savings": 8181,
      "Ass": 8182,
      "refused": 8183,
      "Marine": 8184,
      "gathered": 8185,
      "origins": 8186,
      "partial": 8187,
      "dropped": 8188,
      "Print": 8189,
      "developmental": 8190,
      "juice": 8191,
      "Ren": 8192,
      "eigh": 8193,
      "este": 8194,
      "fate": 8195,
      "puts": 8196,
      "unlikely": 8197,
      "associate": 8198,
      "Six": 8199,
      "involvement": 8200,
      "Matthew": 8201,
      "annually": 8202,
      "indirect": 8203,
      "Pos": 8204,
      "Philadelph": 8205,
      "expertise": 8206,
      "evolutionary": 8207,
      "junction": 8208,
      "addresses": 8209,
      "rhe": 8210,
      "bris": 8211,
      "DE": 8212,
      "recording": 8213,
      "Lew": 8214,
      "enzyme": 8215,
      "cub": 8216,
      "PH": 8217,
      "fertility": 8218,
      "Jacks": 8219,
      "creativity": 8220,
      "chicken": 8221,
      "threatening": 8222,
      "scenario": 8223,
      "ee": 8224,
      "eign": 8225,
      "oh": 8226,
      "shorter": 8227,
      "assium": 8228,
      "sters": 8229,
      "foster": 8230,
      "coc": 8231,
      "awn": 8232,
      "permit": 8233,
      "vegetable": 8234,
      "pupils": 8235,
      "joints": 8236,
      "Prop": 8237,
      "headed": 8238,
      "magnitude": 8239,
      "displayed": 8240,
      "tens": 8241,
      "frustr": 8242,
      "democratic": 8243,
      "estate": 8244,
      "designated": 8245,
      "basically": 8246,
      "amps": 8247,
      "1945": 8248,
      "restoration": 8249,
      "enthus": 8250,
      "celebrate": 8251,
      "churches": 8252,
      "effic": 8253,
      "Sus": 8254,
      "WW": 8255,
      "abstract": 8256,
      "Ag": 8257,
      "ruled": 8258,
      "choosing": 8259,
      "BO": 8260,
      "encounter": 8261,
      "ema": 8262,
      "AF": 8263,
      "Rab": 8264,
      "utter": 8265,
      "Nov": 8266,
      "meaningful": 8267,
      "prime": 8268,
      "practition": 8269,
      "Adam": 8270,
      "prescribed": 8271,
      "tomat": 8272,
      "bron": 8273,
      "identical": 8274,
      "WHO": 8275,
      "manifest": 8276,
      ":||": 8277,
      "Bol": 8278,
      "Rather": 8279,
      "21st": 8280,
      "everywhere": 8281,
      "streams": 8282,
      "Import": 8283,
      "inspe": 8284,
      "gift": 8285,
      "sequences": 8286,
      "Paper": 8287,
      "digestive": 8288,
      "Jones": 8289,
      "ais": 8290,
      "backs": 8291,
      "particle": 8292,
      "volunteers": 8293,
      "mammals": 8294,
      "Show": 8295,
      "noun": 8296,
      "shed": 8297,
      "Has": 8298,
      "descend": 8299,
      "Real": 8300,
      "medicines": 8301,
      "Ancient": 8302,
      "bought": 8303,
      "outbreak": 8304,
      "GS": 8305,
      "Philadelphia": 8306,
      "stere": 8307,
      "restaur": 8308,
      "1980s": 8309,
      "varied": 8310,
      "iry": 8311,
      "copies": 8312,
      "ordination": 8313,
      "perfectly": 8314,
      "reflected": 8315,
      "puzz": 8316,
      "earthquake": 8317,
      "divine": 8318,
      "hygi": 8319,
      "aneous": 8320,
      "therape": 8321,
      "UL": 8322,
      "izers": 8323,
      "calculate": 8324,
      "oils": 8325,
      "minority": 8326,
      "pandemic": 8327,
      "spel": 8328,
      "reveals": 8329,
      "saturated": 8330,
      "aka": 8331,
      "ultimate": 8332,
      "Creek": 8333,
      "stell": 8334,
      "withdraw": 8335,
      "4th": 8336,
      "uls": 8337,
      "herself": 8338,
      "deser": 8339,
      "appointment": 8340,
      "Willi": 8341,
      "Teachers": 8342,
      "Jackson": 8343,
      "tent": 8344,
      "reserved": 8345,
      "iterranean": 8346,
      "hospitals": 8347,
      "conqu": 8348,
      "Altern": 8349,
      "Santa": 8350,
      "aceful": 8351,
      "translated": 8352,
      "embed": 8353,
      "preneur": 8354,
      "promising": 8355,
      "contamination": 8356,
      "Individual": 8357,
      "Obama": 8358,
      "exploring": 8359,
      "spacecraft": 8360,
      "1985": 8361,
      "transferred": 8362,
      "buying": 8363,
      "Making": 8364,
      "bladder": 8365,
      "rolled": 8366,
      "minimal": 8367,
      "faculty": 8368,
      "chip": 8369,
      "optical": 8370,
      "audi": 8371,
      "smell": 8372,
      "thur": 8373,
      "drag": 8374,
      "optimal": 8375,
      "prosper": 8376,
      "Interest": 8377,
      "livestock": 8378,
      "gardens": 8379,
      "scatter": 8380,
      "dried": 8381,
      "NY": 8382,
      "Schools": 8383,
      "strange": 8384,
      "hybrid": 8385,
      "enjoyed": 8386,
      "globe": 8387,
      "constitutional": 8388,
      "Mrs": 8389,
      "meetings": 8390,
      "loaded": 8391,
      "!”": 8392,
      "Aut": 8393,
      "Ministry": 8394,
      "soils": 8395,
      "gments": 8396,
      "uan": 8397,
      "Bor": 8398,
      "Answ": 8399,
      "profound": 8400,
      "Product": 8401,
      "surprise": 8402,
      "onaut": 8403,
      "Mediterranean": 8404,
      "Encyclopedia": 8405,
      "issip": 8406,
      "worn": 8407,
      "borrow": 8408,
      "Os": 8409,
      "tends": 8410,
      "dementia": 8411,
      "1900": 8412,
      "urning": 8413,
      "suicide": 8414,
      "1970": 8415,
      "alumin": 8416,
      "requiring": 8417,
      "merch": 8418,
      "Apple": 8419,
      "advances": 8420,
      "aya": 8421,
      "gradu": 8422,
      "Monday": 8423,
      "bags": 8424,
      "accurately": 8425,
      "painted": 8426,
      "Tar": 8427,
      "ilst": 8428,
      "attitudes": 8429,
      "specialist": 8430,
      "Commons": 8431,
      "noon": 8432,
      "paintings": 8433,
      "crack": 8434,
      "invasion": 8435,
      "developments": 8436,
      "MR": 8437,
      "influences": 8438,
      "Vide": 8439,
      "stig": 8440,
      "beneath": 8441,
      "varying": 8442,
      "modu": 8443,
      "fraction": 8444,
      "lean": 8445,
      "Scientific": 8446,
      "uit": 8447,
      "privacy": 8448,
      "educated": 8449,
      "neglect": 8450,
      "Log": 8451,
      "apple": 8452,
      "Clinical": 8453,
      "juris": 8454,
      "module": 8455,
      "cave": 8456,
      "incorporated": 8457,
      "Others": 8458,
      "regime": 8459,
      "analyzed": 8460,
      "det": 8461,
      "110": 8462,
      "shield": 8463,
      "visits": 8464,
      "sheep": 8465,
      "assignment": 8466,
      "bite": 8467,
      "suddenly": 8468,
      "TP": 8469,
      "Command": 8470,
      "illnesses": 8471,
      "Teaching": 8472,
      "package": 8473,
      "metabolism": 8474,
      "bands": 8475,
      "regulate": 8476,
      "rip": 8477,
      "itable": 8478,
      "mediate": 8479,
      "GP": 8480,
      "exem": 8481,
      "establishing": 8482,
      "aternal": 8483,
      "Williams": 8484,
      "founder": 8485,
      "insights": 8486,
      "cable": 8487,
      "broke": 8488,
      "reflection": 8489,
      "memor": 8490,
      "economics": 8491,
      "verage": 8492,
      "Oreg": 8493,
      "corporate": 8494,
      "contaminated": 8495,
      "Mississip": 8496,
      "elections": 8497,
      "bias": 8498,
      "FOR": 8499,
      "attractive": 8500,
      "Cost": 8501,
      "attempted": 8502,
      "adopt": 8503,
      "zones": 8504,
      "preparing": 8505,
      "cream": 8506,
      "Korean": 8507,
      "Order": 8508,
      "provision": 8509,
      "possibilities": 8510,
      "Turn": 8511,
      "Station": 8512,
      "impair": 8513,
      "hier": 8514,
      "counts": 8515,
      "pent": 8516,
      "separation": 8517,
      "rus": 8518,
      "sophist": 8519,
      "underground": 8520,
      "predicted": 8521,
      "issance": 8522,
      "absorption": 8523,
      "LED": 8524,
      "sending": 8525,
      "pollut": 8526,
      "circul": 8527,
      "cs": 8528,
      "collections": 8529,
      "(“": 8530,
      "pir": 8531,
      "Practice": 8532,
      "quantities": 8533,
      "Oct": 8534,
      "instances": 8535,
      "stag": 8536,
      "overview": 8537,
      "iano": 8538,
      "Student": 8539,
      "sensory": 8540,
      "Der": 8541,
      "iner": 8542,
      "invention": 8543,
      "motivation": 8544,
      "Ban": 8545,
      "Indigenous": 8546,
      "ortion": 8547,
      "themes": 8548,
      "plasma": 8549,
      "Rh": 8550,
      "tab": 8551,
      "workplace": 8552,
      "channels": 8553,
      "irus": 8554,
      "dimensions": 8555,
      "contributing": 8556,
      "addressing": 8557,
      "doses": 8558,
      "Pope": 8559,
      "organism": 8560,
      "knee": 8561,
      "Assessment": 8562,
      "chap": 8563,
      "Questions": 8564,
      "earn": 8565,
      "abandoned": 8566,
      "applies": 8567,
      "washing": 8568,
      "lakes": 8569,
      "inevit": 8570,
      "totally": 8571,
      "visiting": 8572,
      "cigaret": 8573,
      "calm": 8574,
      "STEM": 8575,
      "analyses": 8576,
      "Date": 8577,
      "aside": 8578,
      "consent": 8579,
      "Turkey": 8580,
      "Dun": 8581,
      "swelling": 8582,
      "Pas": 8583,
      "susceptible": 8584,
      "Uk": 8585,
      "entre": 8586,
      "initiatives": 8587,
      "kitch": 8588,
      "distant": 8589,
      "casting": 8590,
      "Jun": 8591,
      "iology": 8592,
      "subsid": 8593,
      "Alaska": 8594,
      "ulating": 8595,
      "magn": 8596,
      "porters": 8597,
      "conflicts": 8598,
      "villages": 8599,
      "Aud": 8600,
      "paste": 8601,
      "info": 8602,
      "severity": 8603,
      "dimin": 8604,
      "speaker": 8605,
      "sheets": 8606,
      "MB": 8607,
      "1990s": 8608,
      "theoretical": 8609,
      "Dem": 8610,
      "enforcement": 8611,
      "atomic": 8612,
      "electrons": 8613,
      "\")": 8614,
      "Tel": 8615,
      "consequence": 8616,
      "**": 8617,
      "Hot": 8618,
      "Different": 8619,
      "inhabitants": 8620,
      "inth": 8621,
      "ifier": 8622,
      "ogens": 8623,
      "1984": 8624,
      "chocolate": 8625,
      "worms": 8626,
      "alo": 8627,
      "Philos": 8628,
      "restrictions": 8629,
      "outdoor": 8630,
      "posted": 8631,
      "wooden": 8632,
      "Tre": 8633,
      "storms": 8634,
      "Sof": 8635,
      "cripts": 8636,
      ".||": 8637,
      "Proper": 8638,
      "algorithm": 8639,
      "Nevertheless": 8640,
      "Grad": 8641,
      "abundance": 8642,
      "counting": 8643,
      "Risk": 8644,
      "engineer": 8645,
      "mutations": 8646,
      "Corpor": 8647,
      "Cred": 8648,
      "ancestors": 8649,
      "icking": 8650,
      "faction": 8651,
      "beach": 8652,
      "Geo": 8653,
      "isations": 8654,
      "Hur": 8655,
      "missed": 8656,
      "Jim": 8657,
      "patri": 8658,
      "Oregon": 8659,
      "regulatory": 8660,
      "GDP": 8661,
      "loads": 8662,
      "Ten": 8663,
      "UC": 8664,
      "attended": 8665,
      "static": 8666,
      "treas": 8667,
      "ride": 8668,
      "equipped": 8669,
      "absolutely": 8670,
      "Fri": 8671,
      "wings": 8672,
      "izona": 8673,
      "desir": 8674,
      "approval": 8675,
      "Avail": 8676,
      "invented": 8677,
      "surrounded": 8678,
      "Enter": 8679,
      "Fac": 8680,
      "pleasure": 8681,
      "orate": 8682,
      "scales": 8683,
      "abling": 8684,
      "cock": 8685,
      "Diabetes": 8686,
      "Story": 8687,
      "coli": 8688,
      "Wilson": 8689,
      "candidate": 8690,
      "gart": 8691,
      "sle": 8692,
      "semi": 8693,
      "ilder": 8694,
      "obst": 8695,
      "Need": 8696,
      "Je": 8697,
      "Hon": 8698,
      "enda": 8699,
      "locate": 8700,
      "978": 8701,
      "holy": 8702,
      "Volume": 8703,
      "discharge": 8704,
      "Ak": 8705,
      "Bush": 8706,
      "ocy": 8707,
      "simultaneously": 8708,
      "Ra": 8709,
      "persu": 8710,
      "varian": 8711,
      "opa": 8712,
      "convenient": 8713,
      "burned": 8714,
      "onset": 8715,
      "thirty": 8716,
      "judgment": 8717,
      "Write": 8718,
      "Luther": 8719,
      "Hz": 8720,
      "relating": 8721,
      "revenue": 8722,
      "Arizona": 8723,
      "Integr": 8724,
      "attributed": 8725,
      "poet": 8726,
      "iblical": 8727,
      "mart": 8728,
      "reproductive": 8729,
      "elementary": 8730,
      "fascinating": 8731,
      "trave": 8732,
      "loan": 8733,
      "velocity": 8734,
      "Athen": 8735,
      "Ms": 8736,
      "manus": 8737,
      "isolation": 8738,
      "dramatically": 8739,
      "wart": 8740,
      "chamber": 8741,
      "dipl": 8742,
      "1979": 8743,
      "lan": 8744,
      "gon": 8745,
      "deem": 8746,
      "Assembly": 8747,
      "GA": 8748,
      "disk": 8749,
      "register": 8750,
      "proposal": 8751,
      "Mississippi": 8752,
      "deposits": 8753,
      "lingu": 8754,
      "Guard": 8755,
      "cad": 8756,
      "controvers": 8757,
      "combine": 8758,
      "entitled": 8759,
      "irs": 8760,
      "anthrop": 8761,
      "Nic": 8762,
      "Object": 8763,
      "BL": 8764,
      "ouri": 8765,
      "segment": 8766,
      "classification": 8767,
      "bol": 8768,
      "occasionally": 8769,
      "medieval": 8770,
      "diets": 8771,
      "hen": 8772,
      "deer": 8773,
      "arrival": 8774,
      "Parents": 8775,
      "minimize": 8776,
      "Java": 8777,
      "precisely": 8778,
      "enhanced": 8779,
      "tower": 8780,
      "dimensional": 8781,
      "Kin": 8782,
      "Sud": 8783,
      "Tan": 8784,
      "empire": 8785,
      "welcome": 8786,
      "Jr": 8787,
      "legend": 8788,
      ".:": 8789,
      "grammar": 8790,
      "duties": 8791,
      "soy": 8792,
      "wake": 8793,
      "strains": 8794,
      "Allah": 8795,
      "brains": 8796,
      "popularity": 8797,
      "poster": 8798,
      "Typ": 8799,
      "alternatives": 8800,
      "statistical": 8801,
      "rings": 8802,
      "repeat": 8803,
      "achieving": 8804,
      "worm": 8805,
      "magazine": 8806,
      "aes": 8807,
      "hopes": 8808,
      "confusion": 8809,
      "Exerc": 8810,
      "Cla": 8811,
      "Trade": 8812,
      "Training": 8813,
      "debris": 8814,
      ".),": 8815,
      "robust": 8816,
      "Death": 8817,
      "Culture": 8818,
      "thank": 8819,
      "SQ": 8820,
      "lum": 8821,
      "Berlin": 8822,
      "lore": 8823,
      "Tele": 8824,
      "swimming": 8825,
      "Peace": 8826,
      "expanding": 8827,
      "Tay": 8828,
      "endangered": 8829,
      "Jack": 8830,
      "eman": 8831,
      "managers": 8832,
      "ghan": 8833,
      "winds": 8834,
      "stabil": 8835,
      "distinction": 8836,
      "agen": 8837,
      "enzymes": 8838,
      "iations": 8839,
      "gian": 8840,
      "grave": 8841,
      "Below": 8842,
      "lift": 8843,
      "NC": 8844,
      "amongst": 8845,
      "spreading": 8846,
      "ffer": 8847,
      "bonds": 8848,
      "pink": 8849,
      "PhD": 8850,
      "vaccination": 8851,
      "divide": 8852,
      "tumors": 8853,
      "toxins": 8854,
      "installation": 8855,
      "ranges": 8856,
      "irrigation": 8857,
      "Five": 8858,
      "gray": 8859,
      "ika": 8860,
      "efficiently": 8861,
      "heal": 8862,
      "pend": 8863,
      "boundary": 8864,
      "diagram": 8865,
      "alarm": 8866,
      "metabolic": 8867,
      "Daily": 8868,
      "Unit": 8869,
      "elevated": 8870,
      "Meanwhile": 8871,
      "Angeles": 8872,
      "imply": 8873,
      "orus": 8874,
      "partly": 8875,
      "camps": 8876,
      "appl": 8877,
      "trading": 8878,
      "landing": 8879,
      "Arthur": 8880,
      "surveys": 8881,
      "allergic": 8882,
      "pesticides": 8883,
      "deliber": 8884,
      "Sem": 8885,
      "elderly": 8886,
      "neural": 8887,
      "Darwin": 8888,
      "wars": 8889,
      "officially": 8890,
      "Priv": 8891,
      "''": 8892,
      "Mun": 8893,
      "oked": 8894,
      "crimes": 8895,
      "vom": 8896,
      "flexibility": 8897,
      "uran": 8898,
      "loud": 8899,
      "Animal": 8900,
      "valve": 8901,
      "Ell": 8902,
      "producers": 8903,
      "Pa": 8904,
      "Sleep": 8905,
      "Theory": 8906,
      "appeal": 8907,
      "molecule": 8908,
      "Future": 8909,
      "administrative": 8910,
      "suggesting": 8911,
      "bec": 8912,
      "Scholar": 8913,
      "orientation": 8914,
      "oriented": 8915,
      "films": 8916,
      "brothers": 8917,
      "etary": 8918,
      "realistic": 8919,
      "Tam": 8920,
      "uled": 8921,
      "fluor": 8922,
      "transformation": 8923,
      "eleph": 8924,
      "certific": 8925,
      "lete": 8926,
      "plug": 8927,
      "Standards": 8928,
      "mistakes": 8929,
      "seal": 8930,
      "ogenic": 8931,
      "whenever": 8932,
      "~~~~~~~": 8933,
      "ati": 8934,
      "cession": 8935,
      "sug": 8936,
      "valley": 8937,
      "systematic": 8938,
      "containers": 8939,
      "sacrifice": 8940,
      "Fron": 8941,
      "adminis": 8942,
      "canal": 8943,
      "therapeutic": 8944,
      "sediment": 8945,
      "Twit": 8946,
      "Run": 8947,
      "caf": 8948,
      "tracking": 8949,
      "neighb": 8950,
      "nu": 8951,
      "Poland": 8952,
      "occupation": 8953,
      "tendency": 8954,
      "Chronic": 8955,
      "Event": 8956,
      "angular": 8957,
      "determination": 8958,
      "candidates": 8959,
      "Hitler": 8960,
      "liberal": 8961,
      "vae": 8962,
      "tempt": 8963,
      "treaty": 8964,
      "adoption": 8965,
      "boxes": 8966,
      "horizontal": 8967,
      "absorbed": 8968,
      "encouraging": 8969,
      "rank": 8970,
      "imagination": 8971,
      "abundant": 8972,
      "Emperor": 8973,
      "Ide": 8974,
      "Diag": 8975,
      "NF": 8976,
      "demo": 8977,
      "alongside": 8978,
      "civilization": 8979,
      "Cas": 8980,
      "Flu": 8981,
      "utilized": 8982,
      "Create": 8983,
      "ilitation": 8984,
      "pressing": 8985,
      "hurt": 8986,
      "ipher": 8987,
      "bage": 8988,
      "clouds": 8989,
      "describing": 8990,
      "pale": 8991,
      "rehab": 8992,
      "dinosa": 8993,
      "Missouri": 8994,
      "bottle": 8995,
      "surviv": 8996,
      "healthier": 8997,
      "commod": 8998,
      "Twitter": 8999,
      "survived": 9000,
      "omer": 9001,
      "Diet": 9002,
      "collapse": 9003,
      "allergies": 9004,
      "Garden": 9005,
      "altered": 9006,
      "prone": 9007,
      "peers": 9008,
      "lia": 9009,
      "tolerance": 9010,
      "Tha": 9011,
      "definitions": 9012,
      "winning": 9013,
      "engers": 9014,
      "dominated": 9015,
      "reflects": 9016,
      "socio": 9017,
      "rolling": 9018,
      "Besides": 9019,
      "peas": 9020,
      "prevents": 9021,
      "forcing": 9022,
      "Ukrain": 9023,
      "hepat": 9024,
      "None": 9025,
      "rin": 9026,
      "graphics": 9027,
      "connecting": 9028,
      "ologically": 9029,
      "sovereign": 9030,
      "Case": 9031,
      "Iron": 9032,
      "collecting": 9033,
      "Living": 9034,
      "consistently": 9035,
      "oceans": 9036,
      "rainfall": 9037,
      "Issue": 9038,
      "mounted": 9039,
      "urable": 9040,
      "firms": 9041,
      "qualified": 9042,
      "struck": 9043,
      "submit": 9044,
      "inflation": 9045,
      "Governor": 9046,
      "employee": 9047,
      "Evol": 9048,
      "lig": 9049,
      "nesium": 9050,
      "Related": 9051,
      "infectious": 9052,
      "sectors": 9053,
      "bugs": 9054,
      "reasoning": 9055,
      "jacent": 9056,
      "shoes": 9057,
      "ATION": 9058,
      "Mes": 9059,
      "desk": 9060,
      "femin": 9061,
      "Prom": 9062,
      "Minnes": 9063,
      "adesh": 9064,
      "incorporate": 9065,
      "consisting": 9066,
      "diver": 9067,
      "erosion": 9068,
      "Gir": 9069,
      "Path": 9070,
      "injured": 9071,
      "verbal": 9072,
      "suggestions": 9073,
      "Full": 9074,
      "Defin": 9075,
      "Nutrition": 9076,
      "slip": 9077,
      "twelve": 9078,
      "accessed": 9079,
      "weekly": 9080,
      "beam": 9081,
      "generating": 9082,
      "pond": 9083,
      "pitch": 9084,
      "cluster": 9085,
      "vag": 9086,
      "partially": 9087,
      "Niger": 9088,
      "Sav": 9089,
      "Maryland": 9090,
      "tel": 9091,
      "Kim": 9092,
      "punishment": 9093,
      "enrich": 9094,
      "asks": 9095,
      "offices": 9096,
      "diagnostic": 9097,
      "eaten": 9098,
      "OK": 9099,
      "Explor": 9100,
      "guarantee": 9101,
      "Proto": 9102,
      "speakers": 9103,
      "defic": 9104,
      "flux": 9105,
      "altit": 9106,
      "Ontar": 9107,
      "shelter": 9108,
      "evaluated": 9109,
      "5th": 9110,
      "regulated": 9111,
      "algae": 9112,
      "astics": 9113,
      "Thank": 9114,
      "affairs": 9115,
      "HR": 9116,
      "dying": 9117,
      "ricane": 9118,
      "wireless": 9119,
      "GR": 9120,
      "Hay": 9121,
      "BD": 9122,
      "cloth": 9123,
      "memories": 9124,
      "yan": 9125,
      "Large": 9126,
      "Fa": 9127,
      "Ga": 9128,
      "password": 9129,
      "publications": 9130,
      "striking": 9131,
      "respective": 9132,
      "fingers": 9133,
      "phil": 9134,
      "NT": 9135,
      "cheese": 9136,
      "Tree": 9137,
      "calendar": 9138,
      "conclusions": 9139,
      "attacked": 9140,
      "1800": 9141,
      "potassium": 9142,
      "receives": 9143,
      "ometer": 9144,
      "responsibilities": 9145,
      "skelet": 9146,
      "fibers": 9147,
      "uum": 9148,
      "kilometers": 9149,
      "Assist": 9150,
      "drops": 9151,
      "1983": 9152,
      "mont": 9153,
      "stip": 9154,
      "accounting": 9155,
      "SC": 9156,
      "pole": 9157,
      "din": 9158,
      "Nether": 9159,
      "~-": 9160,
      "Nation": 9161,
      "130": 9162,
      "finance": 9163,
      "Auto": 9164,
      "phenomena": 9165,
      "Est": 9166,
      "dip": 9167,
      "Exe": 9168,
      "isition": 9169,
      "ologic": 9170,
      "entrance": 9171,
      "NI": 9172,
      "enabled": 9173,
      "phon": 9174,
      "adolescents": 9175,
      "reputation": 9176,
      "Ontario": 9177,
      "wax": 9178,
      "Bell": 9179,
      "flavor": 9180,
      "EV": 9181,
      "developers": 9182,
      "rey": 9183,
      "atmospheric": 9184,
      "Astr": 9185,
      "Democratic": 9186,
      "eli": 9187,
      "Tenn": 9188,
      "Germans": 9189,
      "Benef": 9190,
      "parks": 9191,
      "tah": 9192,
      "prolong": 9193,
      "ivities": 9194,
      "crypto": 9195,
      "Nur": 9196,
      "Minnesota": 9197,
      "uding": 9198,
      "busy": 9199,
      "harsh": 9200,
      "Grade": 9201,
      "tape": 9202,
      "PP": 9203,
      "beet": 9204,
      "exhibition": 9205,
      "spine": 9206,
      "apps": 9207,
      "imental": 9208,
      "owing": 9209,
      "oke": 9210,
      "influenza": 9211,
      "Afghan": 9212,
      "Corps": 9213,
      "shade": 9214,
      "Patients": 9215,
      "intelligent": 9216,
      "rush": 9217,
      "guided": 9218,
      "vector": 9219,
      "Romans": 9220,
      "Buddhis": 9221,
      "retail": 9222,
      "Samuel": 9223,
      "Ni": 9224,
      "arranged": 9225,
      "Index": 9226,
      "utical": 9227,
      "feather": 9228,
      "priest": 9229,
      "malaria": 9230,
      "bub": 9231,
      "Cit": 9232,
      "athletes": 9233,
      "etically": 9234,
      "fled": 9235,
      "multip": 9236,
      "mobility": 9237,
      "nursing": 9238,
      "Nap": 9239,
      "conducting": 9240,
      "stretch": 9241,
      "fitness": 9242,
      "Cut": 9243,
      "xy": 9244,
      "crown": 9245,
      "progressive": 9246,
      "physicians": 9247,
      "RF": 9248,
      "likelihood": 9249,
      "cooked": 9250,
      "attributes": 9251,
      "uth": 9252,
      "residential": 9253,
      "metric": 9254,
      "WH": 9255,
      "Jefferson": 9256,
      "FO": 9257,
      "essays": 9258,
      "modeling": 9259,
      "Chemical": 9260,
      "reck": 9261,
      "gentle": 9262,
      "Sac": 9263,
      "wick": 9264,
      "Shar": 9265,
      "Certain": 9266,
      "entrepreneur": 9267,
      "Feb": 9268,
      "contrad": 9269,
      "desirable": 9270,
      "ulous": 9271,
      "draft": 9272,
      "oy": 9273,
      "somewhere": 9274,
      "1982": 9275,
      "fault": 9276,
      "seasonal": 9277,
      "seiz": 9278,
      "adjacent": 9279,
      "ieth": 9280,
      "17th": 9281,
      "GM": 9282,
      "Script": 9283,
      "Rose": 9284,
      "nea": 9285,
      "mented": 9286,
      "Carib": 9287,
      "elab": 9288,
      "ART": 9289,
      "Oil": 9290,
      "von": 9291,
      "injection": 9292,
      "Cold": 9293,
      "phic": 9294,
      "coral": 9295,
      "boats": 9296,
      "Observ": 9297,
      "milit": 9298,
      "een": 9299,
      "integrity": 9300,
      "Shakes": 9301,
      "representatives": 9302,
      "Bern": 9303,
      "prescription": 9304,
      "Mother": 9305,
      "Stephen": 9306,
      "Arabic": 9307,
      "surprised": 9308,
      "pest": 9309,
      "Love": 9310,
      "Sho": 9311,
      "onym": 9312,
      "provisions": 9313,
      "edges": 9314,
      "broader": 9315,
      "thood": 9316,
      "earned": 9317,
      "distribut": 9318,
      "dentist": 9319,
      "Chall": 9320,
      "capes": 9321,
      "lining": 9322,
      "hide": 9323,
      "itzer": 9324,
      "MM": 9325,
      "refugees": 9326,
      "designing": 9327,
      "BA": 9328,
      "Mental": 9329,
      "displays": 9330,
      "atus": 9331,
      "platforms": 9332,
      "appreciate": 9333,
      "Greg": 9334,
      "ym": 9335,
      "digit": 9336,
      "Ray": 9337,
      "tribe": 9338,
      "tanks": 9339,
      "preservation": 9340,
      "illance": 9341,
      "structured": 9342,
      "assessments": 9343,
      "improves": 9344,
      "gaining": 9345,
      "shares": 9346,
      "Nep": 9347,
      "Cs": 9348,
      "Kansas": 9349,
      "kitchen": 9350,
      "Wales": 9351,
      "borders": 9352,
      "prints": 9353,
      "iously": 9354,
      "circular": 9355,
      "license": 9356,
      "usively": 9357,
      "Produ": 9358,
      "Python": 9359,
      "Question": 9360,
      "nodes": 9361,
      "libraries": 9362,
      "oming": 9363,
      "explored": 9364,
[...]
