{
  "version": "1.0",
  "truncation": null,
  "padding": null,
  "added_tokens": [
    {
      "id": 0,
      "content": "<s>",
      "single_word": false,
      "lstrip": false,
      "rstrip": false,
      "normalized": false,
      "special": true
    },
    {
      "id": 1,
      "content": "</s>",
      "single_word": false,
      "lstrip": false,
      "rstrip": false,
      "normalized": false,
      "special": true
    },
    {
      "id": 2,
      "content": "<unk>",
      "single_word": false,
      "lstrip": false,
      "rstrip": false,
      "normalized": false,
      "special": true
    },
    {
      "id": 3,
      "content": "<pad>",
      "single_word": false,
      "lstrip": false,
      "rstrip": false,
      "normalized": false,
      "special": true
    }
  ],
  "normalizer": null,
  "pre_tokenizer": {
    "type": "Whitespace"
  },
  "post_processor": null,
  "decoder": null,
  "model": {
    "type": "BPE",
    "dropout": null,
    "unk_token": null,
    "continuing_subword_prefix": null,
    "end_of_word_suffix": null,
    "fuse_unk": false,
    "byte_fallback": false,
    "ignore_merges": false,
    "vocab": {
      "<s>": 0,
      "</s>": 1,
      "<unk>": 2,
      "<pad>": 3,
      "!": 4,
      "\"": 5,
      "#": 6,
      "$": 7,
      "%": 8,
      "&": 9,
      "'": 10,
      "(": 11,
      ")": 12,
      "*": 13,
      "+": 14,
      ",": 15,
      "-": 16,
      ".": 17,
      "/": 18,
      "0": 19,
      "1": 20,
      "2": 21,
      "3": 22,
      "4": 23,
      "5": 24,
      "6": 25,
      "7": 26,
      "8": 27,
      "9": 28,
      ":": 29,
      ";": 30,
      "<": 31,
      "=": 32,
      ">": 33,
      "?": 34,
      "@": 35,
      "A": 36,
      "B": 37,
      "C": 38,
      "D": 39,
      "E": 40,
      "F": 41,
      "G": 42,
      "H": 43,
      "I": 44,
      "J": 45,
      "K": 46,
      "L": 47,
      "M": 48,
      "N": 49,
      "O": 50,
      "P": 51,
      "Q": 52,
      "R": 53,
      "S": 54,
      "T": 55,
      "U": 56,
      "V": 57,
      "W": 58,
      "X": 59,
      "Y": 60,
      "Z": 61,
      "[": 62,
      "\\": 63,
      "]": 64,
      "^": 65,
      "_": 66,
      "a": 67,
      "b": 68,
      "c": 69,
      "d": 70,
      "e": 71,
      "f": 72,
      "g": 73,
      "h": 74,
      "i": 75,
      "j": 76,
      "k": 77,
      "l": 78,
      "m": 79,
      "n": 80,
      "o": 81,
      "p": 82,
      "q": 83,
      "r": 84,
      "s": 85,
      "t": 86,
      "u": 87,
      "v": 88,
      "w": 89,
      "x": 90,
      "y": 91,
      "z": 92,
      "|": 93,
      "}": 94,
      "~": 95,
      "’": 96,
      "“": 97,
      "”": 98,
      "•": 99,
      "th": 100,
      "in": 101,
      "er": 102,
      "an": 103,
      "the": 104,
      "on": 105,
      "re": 106,
      "at": 107,
      "en": 108,
      "or": 109,
      "es": 110,
      "al": 111,
      "is": 112,
      "ed": 113,
      "of": 114,
      "and": 115,
      "to": 116,
      "ar": 117,
      "ou": 118,
      "ing": 119,
      "it": 120,
      "as": 121,
      "ic": 122,
      "ion": 123,
      "st": 124,
      "le": 125,
      "ro": 126,
      "ent": 127,
      "ch": 128,
      "se": 129,
      "il": 130,
      "ct": 131,
      "he": 132,
      "ve": 133,
      "om": 134,
      "be": 135,
      "ly": 136,
      "de": 137,
      "for": 138,
      "ol": 139,
      "ation": 140,
      "ce": 141,
      "im": 142,
      "ow": 143,
      "am": 144,
      "ad": 145,
      "su": 146,
      "are": 147,
      "ig": 148,
      "wh": 149,
      "ver": 150,
      "that": 151,
      "ter": 152,
      "ir": 153,
      "con": 154,
      "id": 155,
      "ab": 156,
      "ay": 157,
      "un": 158,
      "pro": 159,
      "ur": 160,
      "The": 161,
      "ot": 162,
      "ith": 163,
      "ut": 164,
      "ge": 165,
      "us": 166,
      "ul": 167,
      "pe": 168,
      "with": 169,
      "mo": 170,
      "ra": 171,
      "lo": 172,
      "com": 173,
      "ther": 174,
      "res": 175,
      "ex": 176,
      "if": 177,
      "our": 178,
      "ts": 179,
      "ac": 180,
      "ment": 181,
      "ne": 182,
      "per": 183,
      "ate": 184,
      "ha": 185,
      "em": 186,
      "all": 187,
      "we": 188,
      "pl": 189,
      "ies": 190,
      "ill": 191,
      "ess": 192,
      "ke": 193,
      "by": 194,
      "tr": 195,
      "od": 196,
      "oun": 197,
      "ers": 198,
      "ld": 199,
      "ity": 200,
      "est": 201,
      "so": 202,
      "po": 203,
      "ere": 204,
      "rom": 205,
      "igh": 206,
      "ive": 207,
      "was": 208,
      "te": 209,
      "ma": 210,
      "iv": 211,
      "qu": 212,
      "from": 213,
      "ta": 214,
      "um": 215,
      "out": 216,
      "his": 217,
      "ll": 218,
      "et": 219,
      "sh": 220,
      "can": 221,
      "In": 222,
      "ci": 223,
      "ap": 224,
      "not": 225,
      "art": 226,
      "op": 227,
      "act": 228,
      "ant": 229,
      "one": 230,
      "ag": 231,
      "wor": 232,
      "cl": 233,
      "fe": 234,
      "have": 235,
      "ical": 236,
      "ud": 237,
      "ist": 238,
      "you": 239,
      "this": 240,
      "00": 241,
      "li": 242,
      "ich": 243,
      "du": 244,
      "ure": 245,
      "me": 246,
      "co": 247,
      "ort": 248,
      "gh": 249,
      "ould": 250,
      "ri": 251,
      "der": 252,
      "ear": 253,
      "ph": 254,
      "man": 255,
      "ions": 256,
      "ine": 257,
      "ated": 258,
      "do": 259,
      "ome": 260,
      "ard": 261,
      "their": 262,
      "ight": 263,
      "end": 264,
      "ans": 265,
      "use": 266,
      "dis": 267,
      "which": 268,
      "ough": 269,
      "gr": 270,
      "age": 271,
      "other": 272,
      "but": 273,
      "19": 274,
      "ally": 275,
      "ound": 276,
      "ous": 277,
      "ide": 278,
      "ind": 279,
      "they": 280,
      "ia": 281,
      "ence": 282,
      "ach": 283,
      "ish": 284,
      "ev": 285,
      "str": 286,
      "form": 287,
      "fo": 288,
      "up": 289,
      "ast": 290,
      "more": 291,
      "ong": 292,
      "iz": 293,
      "able": 294,
      "cre": 295,
      "has": 296,
      "port": 297,
      "pr": 298,
      "ass": 299,
      "Th": 300,
      "will": 301,
      "og": 302,
      "pre": 303,
      "el": 304,
      "fer": 305,
      "ple": 306,
      "ction": 307,
      "ary": 308,
      "go": 309,
      "ca": 310,
      "its": 311,
      "king": 312,
      "ain": 313,
      "were": 314,
      "ater": 315,
      "ie": 316,
      "tim": 317,
      "your": 318,
      "ib": 319,
      "now": 320,
      "low": 321,
      "ire": 322,
      "pres": 323,
      "ial": 324,
      "ild": 325,
      "ations": 326,
      "ust": 327,
      "ks": 328,
      "sy": 329,
      "ip": 330,
      "av": 331,
      "ren": 332,
      "ame": 333,
      "bl": 334,
      "ef": 335,
      "ber": 336,
      "who": 337,
      "part": 338,
      "bo": 339,
      "ents": 340,
      "spe": 341,
      "no": 342,
      "also": 343,
      "comm": 344,
      "cent": 345,
      "pt": 346,
      "pos": 347,
      "some": 348,
      "ase": 349,
      "ign": 350,
      "It": 351,
      "ice": 352,
      "gen": 353,
      "cess": 354,
      "ition": 355,
      "ance": 356,
      "way": 357,
      "about": 358,
      "ory": 359,
      "very": 360,
      "ite": 361,
      "af": 362,
      "inter": 363,
      "Wh": 364,
      "This": 365,
      "sp": 366,
      "stud": 367,
      "ens": 368,
      "20": 369,
      "ace": 370,
      "them": 371,
      "ces": 372,
      "ser": 373,
      "cont": 374,
      ").": 375,
      "ang": 376,
      "ack": 377,
      "ty": 378,
      "any": 379,
      "ree": 380,
      "year": 381,
      "An": 382,
      "than": 383,
      "over": 384,
      "Ch": 385,
      "col": 386,
      "int": 387,
      "ors": 388,
      "St": 389,
      "may": 390,
      "own": 391,
      "cor": 392,
      "ian": 393,
      "been": 394,
      "ile": 395,
      "ep": 396,
      "tra": 397,
      "most": 398,
      "reat": 399,
      "there": 400,
      "ates": 401,
      "had": 402,
      "work": 403,
      "time": 404,
      "land": 405,
      "fect": 406,
      "olog": 407,
      "arch": 408,
      "tain": 409,
      "into": 410,
      "when": 411,
      "sa": 412,
      "wo": 413,
      "br": 414,
      "bet": 415,
      "ople": 416,
      "like": 417,
      "new": 418,
      "des": 419,
      "ob": 420,
      "day": 421,
      "rit": 422,
      "mer": 423,
      "used": 424,
      "ok": 425,
      "cur": 426,
      "ult": 427,
      "know": 428,
      "dif": 429,
      "ful": 430,
      "these": 431,
      "ings": 432,
      "prov": 433,
      "how": 434,
      "vers": 435,
      "comp": 436,
      "Un": 437,
      "fir": 438,
      "cho": 439,
      "fl": 440,
      "would": 441,
      "people": 442,
      "je": 443,
      "200": 444,
      "med": 445,
      "rough": 446,
      "lect": 447,
      "row": 448,
      "lop": 449,
      "min": 450,
      "stem": 451,
      "ual": 452,
      "ms": 453,
      "ck": 454,
      "ue": 455,
      "fore": 456,
      "alth": 457,
      "rel": 458,
      "under": 459,
      "only": 460,
      "coun": 461,
      "such": 462,
      "cy": 463,
      "son": 464,
      "reg": 465,
      "ational": 466,
      "cer": 467,
      "ning": 468,
      "ities": 469,
      "cause": 470,
      "ific": 471,
      "ext": 472,
      "mon": 473,
      "old": 474,
      "ments": 475,
      "incl": 476,
      "child": 477,
      "la": 478,
      "He": 479,
      "ject": 480,
      "sel": 481,
      "lear": 482,
      "many": 483,
      "high": 484,
      "18": 485,
      "hel": 486,
      "ative": 487,
      "produ": 488,
      "what": 489,
      "ating": 490,
      "velop": 491,
      "ys": 492,
      "ose": 493,
      "sur": 494,
      "ced": 495,
      "ular": 496,
      "first": 497,
      "cial": 498,
      "need": 499,
      "red": 500,
      "ious": 501,
      "her": 502,
      "),": 503,
      "get": 504,
      "through": 505,
      "ins": 506,
      "att": 507,
      "As": 508,
      "two": 509,
      "fic": 510,
      "dr": 511,
      "ied": 512,
      "system": 513,
      "ubl": 514,
      "vel": 515,
      "10": 516,
      "ting": 517,
      "develop": 518,
      "Re": 519,
      "ten": 520,
      "par": 521,
      "ps": 522,
      "We": 523,
      "ics": 524,
      "ily": 525,
      "ever": 526,
      "cal": 527,
      "ath": 528,
      "well": 529,
      "mar": 530,
      "ise": 531,
      "my": 532,
      "read": 533,
      "where": 534,
      "water": 535,
      "fr": 536,
      "ew": 537,
      "ble": 538,
      "add": 539,
      "ak": 540,
      "ility": 541,
      "ons": 542,
      "ict": 543,
      "less": 544,
      "les": 545,
      "ife": 546,
      "differ": 547,
      "stru": 548,
      "uring": 549,
      "years": 550,
      "ress": 551,
      "au": 552,
      "cr": 553,
      "sup": 554,
      "stand": 555,
      "search": 556,
      "cond": 557,
      "ss": 558,
      "lar": 559,
      "bu": 560,
      "ange": 561,
      "long": 562,
      "ible": 563,
      "als": 564,
      "oc": 565,
      "ased": 566,
      "sub": 567,
      "serv": 568,
      "gan": 569,
      "then": 570,
      "pol": 571,
      "inv": 572,
      "tern": 573,
      "uch": 574,
      "should": 575,
      "cons": 576,
      "sul": 577,
      "could": 578,
      "For": 579,
      "car": 580,
      "come": 581,
      "En": 582,
      "ds": 583,
      "ween": 584,
      "thing": 585,
      "fact": 586,
      "gy": 587,
      "air": 588,
      "plan": 589,
      "help": 590,
      "ited": 591,
      "vir": 592,
      "just": 593,
      "requ": 594,
      "ick": 595,
      "iss": 596,
      "try": 597,
      "ail": 598,
      "fin": 599,
      "os": 600,
      "between": 601,
      "De": 602,
      "see": 603,
      "di": 604,
      "ident": 605,
      "If": 606,
      "ted": 607,
      "formation": 608,
      "ho": 609,
      "meric": 610,
      "ese": 611,
      "chool": 612,
      "peri": 613,
      "ists": 614,
      "call": 615,
      "ures": 616,
      "trans": 617,
      "Americ": 618,
      "Con": 619,
      "num": 620,
      "exam": 621,
      "make": 622,
      "Se": 623,
      "eng": 624,
      "spec": 625,
      "uc": 626,
      "fun": 627,
      "after": 628,
      "found": 629,
      "even": 630,
      "201": 631,
      "gener": 632,
      "health": 633,
      "research": 634,
      "ower": 635,
      "chn": 636,
      "led": 637,
      "Ar": 638,
      "life": 639,
      "hum": 640,
      "vis": 641,
      "lin": 642,
      "ology": 643,
      "Al": 644,
      "ural": 645,
      "publ": 646,
      "world": 647,
      "each": 648,
      "urn": 649,
      "includ": 650,
      "ature": 651,
      "set": 652,
      "Com": 653,
      "pp": 654,
      "vent": 655,
      "because": 656,
      "cell": 657,
      "effect": 658,
      "import": 659,
      "incre": 660,
      "fol": 661,
      "said": 662,
      "those": 663,
      "ives": 664,
      "sim": 665,
      "main": 666,
      "gram": 667,
      "self": 668,
      "cus": 669,
      "ution": 670,
      "pat": 671,
      "say": 672,
      "How": 673,
      "~~": 674,
      "being": 675,
      "cri": 676,
      "sure": 677,
      "fam": 678,
      "sm": 679,
      "..": 680,
      "They": 681,
      "ism": 682,
      "different": 683,
      "off": 684,
      "ically": 685,
      "nor": 686,
      "Pro": 687,
      "back": 688,
      "present": 689,
      "tri": 690,
      "ivers": 691,
      "ters": 692,
      "iew": 693,
      "sign": 694,
      "ness": 695,
      "gu": 696,
      "person": 697,
      "ract": 698,
      "ata": 699,
      "children": 700,
      "ases": 701,
      "every": 702,
      "val": 703,
      "bod": 704,
      "There": 705,
      "press": 706,
      "So": 707,
      "ward": 708,
      "var": 709,
      "made": 710,
      "partic": 711,
      "ety": 712,
      "sol": 713,
      "gg": 714,
      "cord": 715,
      "information": 716,
      "ener": 717,
      "though": 718,
      "ves": 719,
      "ris": 720,
      "using": 721,
      "much": 722,
      "she": 723,
      "commun": 724,
      "mem": 725,
      "But": 726,
      "sk": 727,
      "power": 728,
      "ry": 729,
      "level": 730,
      "hist": 731,
      "cept": 732,
      ".”": 733,
      "io": 734,
      "soci": 735,
      "war": 736,
      "during": 737,
      "same": 738,
      "Mo": 739,
      "resul": 740,
      "New": 741,
      "techn": 742,
      "state": 743,
      "sci": 744,
      "process": 745,
      "cap": 746,
      "char": 747,
      "him": 748,
      "gra": 749,
      "ude": 750,
      "grow": 751,
      "ider": 752,
      "students": 753,
      "vi": 754,
      "lead": 755,
      "bre": 756,
      "blo": 757,
      "school": 758,
      "follow": 759,
      "cted": 760,
      "por": 761,
      "take": 762,
      "ices": 763,
      "grou": 764,
      "gre": 765,
      "pop": 766,
      "does": 767,
      "find": 768,
      "ized": 769,
      "important": 770,
      "prote": 771,
      "down": 772,
      "ages": 773,
      "light": 774,
      "good": 775,
      "aw": 776,
      "resp": 777,
      "again": 778,
      "mat": 779,
      "stit": 780,
      "ix": 781,
      "ince": 782,
      "both": 783,
      "before": 784,
      "poss": 785,
      "lit": 786,
      "line": 787,
      "15": 788,
      "study": 789,
      "show": 790,
      "proble": 791,
      "food": 792,
      "dep": 793,
      "ric": 794,
      "ink": 795,
      "organ": 796,
      "small": 797,
      "clo": 798,
      "hy": 799,
      "199": 800,
      "comple": 801,
      "let": 802,
      "view": 803,
      "gover": 804,
      "gl": 805,
      "treat": 806,
      "ize": 807,
      "while": 808,
      "ished": 809,
      "don": 810,
      "ship": 811,
      "ability": 812,
      "sto": 813,
      "order": 814,
      "Be": 815,
      "ways": 816,
      "ug": 817,
      "And": 818,
      "ved": 819,
      "viron": 820,
      "mal": 821,
      ".\"": 822,
      "often": 823,
      "right": 824,
      "omen": 825,
      "ient": 826,
      "put": 827,
      "place": 828,
      "contro": 829,
      "ner": 830,
      "play": 831,
      "rain": 832,
      "tle": 833,
      "On": 834,
      "dise": 835,
      "12": 836,
      "kes": 837,
      "plic": 838,
      "activ": 839,
      "body": 840,
      "000": 841,
      "ving": 842,
      "class": 843,
      "ven": 844,
      "You": 845,
      "care": 846,
      "known": 847,
      "Is": 848,
      "net": 849,
      "leg": 850,
      "number": 851,
      "iversity": 852,
      "called": 853,
      "data": 854,
      "hand": 855,
      "govern": 856,
      "pare": 857,
      "ants": 858,
      "three": 859,
      "When": 860,
      "human": 861,
      "ord": 862,
      "To": 863,
      "ivid": 864,
      "del": 865,
      "far": 866,
      "||": 867,
      "cour": 868,
      "did": 869,
      "ret": 870,
      "issu": 871,
      "lim": 872,
      "ars": 873,
      "cts": 874,
      "plo": 875,
      "contin": 876,
      "pa": 877,
      "program": 878,
      "ury": 879,
      "17": 880,
      "dire": 881,
      "elect": 882,
      "What": 883,
      "ger": 884,
      "allow": 885,
      "ides": 886,
      "appro": 887,
      "great": 888,
      "ality": 889,
      "iving": 890,
      "vironment": 891,
      "example": 892,
      "design": 893,
      "ub": 894,
      "ste": 895,
      "sum": 896,
      "point": 897,
      "ft": 898,
      "large": 899,
      "ulation": 900,
      "sever": 901,
      "cover": 902,
      "These": 903,
      "Ex": 904,
      "ually": 905,
      "16": 906,
      "ences": 907,
      "around": 908,
      "ital": 909,
      "must": 910,
      "public": 911,
      "ash": 912,
      "tal": 913,
      "gn": 914,
      ".,": 915,
      "test": 916,
      "ouse": 917,
      "teach": 918,
      "ield": 919,
      "including": 920,
      "ton": 921,
      "change": 922,
      "writ": 923,
      "sing": 924,
      "educ": 925,
      "came": 926,
      "American": 927,
      "mot": 928,
      "bal": 929,
      "cle": 930,
      "tribut": 931,
      "tem": 932,
      "law": 933,
      "At": 934,
      "struct": 935,
      "ather": 936,
      "equ": 937,
      "flu": 938,
      "quest": 939,
      "bi": 940,
      "itions": 941,
      "appe": 942,
      "miss": 943,
      "outh": 944,
      "build": 945,
      "consider": 946,
      "support": 947,
      "based": 948,
      "still": 949,
      "oper": 950,
      "dec": 951,
      "gin": 952,
      "30": 953,
      "redu": 954,
      "bers": 955,
      "men": 956,
      "ross": 957,
      "ond": 958,
      "chang": 959,
      ",”": 960,
      "acter": 961,
      "ply": 962,
      "ately": 963,
      "eas": 964,
      "University": 965,
      "dist": 966,
      "iven": 967,
      "uro": 968,
      "Res": 969,
      "ional": 970,
      "conom": 971,
      "vol": 972,
      "move": 973,
      "ove": 974,
      "ute": 975,
      "pract": 976,
      "few": 977,
      "might": 978,
      "energy": 979,
      "start": 980,
      "term": 981,
      "sit": 982,
      "without": 983,
      "too": 984,
      "rent": 985,
      "til": 986,
      "Bo": 987,
      "ights": 988,
      "ron": 989,
      "har": 990,
      "pass": 991,
      "ctor": 992,
      "und": 993,
      "top": 994,
      "nam": 995,
      "mil": 996,
      "mill": 997,
      "ran": 998,
      "phys": 999,
      "ired": 1000,
      "government": 1001,
      "Nor": 1002,
      "14": 1003,
      "Ad": 1004,
      "ids": 1005,
      "ization": 1006,
      "50": 1007,
      "understand": 1008,
      "depend": 1009,
      "disease": 1010,
      "face": 1011,
      "environment": 1012,
      "head": 1013,
      "pur": 1014,
      "ived": 1015,
      "ources": 1016,
      "aterial": 1017,
      "home": 1018,
      "--": 1019,
      "prof": 1020,
      "nat": 1021,
      "thod": 1022,
      "ason": 1023,
      "another": 1024,
      "uses": 1025,
      "ividual": 1026,
      "beli": 1027,
      "experi": 1028,
      ",\"": 1029,
      "last": 1030,
      "Can": 1031,
      "adv": 1032,
      "ared": 1033,
      "mp": 1034,
      "pain": 1035,
      "Col": 1036,
      "loc": 1037,
      "ential": 1038,
      "ination": 1039,
      "jo": 1040,
      "common": 1041,
      "report": 1042,
      "However": 1043,
      "thor": 1044,
      "development": 1045,
      "jor": 1046,
      "suc": 1047,
      "want": 1048,
      "mic": 1049,
      "cording": 1050,
      "within": 1051,
      "Wor": 1052,
      "Jo": 1053,
      "itive": 1054,
      "contain": 1055,
      "early": 1056,
      "pot": 1057,
      "bor": 1058,
      "che": 1059,
      "iqu": 1060,
      "ave": 1061,
      "ense": 1062,
      "typ": 1063,
      "learn": 1064,
      "ye": 1065,
      "ium": 1066,
      "name": 1067,
      "mus": 1068,
      "ben": 1069,
      "rest": 1070,
      "ken": 1071,
      "women": 1072,
      "inal": 1073,
      "look": 1074,
      "rad": 1075,
      "bas": 1076,
      "anim": 1077,
      "against": 1078,
      "ref": 1079,
      "bed": 1080,
      "area": 1081,
      "ier": 1082,
      "book": 1083,
      "ask": 1084,
      "ele": 1085,
      "ark": 1086,
      "control": 1087,
      "percent": 1088,
      "econom": 1089,
      "non": 1090,
      "individual": 1091,
      "real": 1092,
      "arr": 1093,
      "family": 1094,
      "material": 1095,
      "ples": 1096,
      "possible": 1097,
      "here": 1098,
      "dom": 1099,
      "indu": 1100,
      "second": 1101,
      "group": 1102,
      "11": 1103,
      "national": 1104,
      "United": 1105,
      "enc": 1106,
      "ency": 1107,
      "project": 1108,
      "social": 1109,
      "ban": 1110,
      "paren": 1111,
      "near": 1112,
      "Co": 1113,
      "plant": 1114,
      "ina": 1115,
      "ww": 1116,
      "cult": 1117,
      "post": 1118,
      "aim": 1119,
      "ator": 1120,
      "risk": 1121,
      "enter": 1122,
      "history": 1123,
      "ests": 1124,
      "mit": 1125,
      "Le": 1126,
      "proper": 1127,
      "fac": 1128,
      "imp": 1129,
      "anal": 1130,
      "ues": 1131,
      "All": 1132,
      "include": 1133,
      "descri": 1134,
      "run": 1135,
      "scient": 1136,
      "open": 1137,
      "ground": 1138,
      "blood": 1139,
      "particular": 1140,
      "certain": 1141,
      "idence": 1142,
      "major": 1143,
      "cells": 1144,
      "become": 1145,
      "angu": 1146,
      "usu": 1147,
      "bir": 1148,
      "13": 1149,
      "dam": 1150,
      "orig": 1151,
      "ines": 1152,
      "wee": 1153,
      "ians": 1154,
      "ctive": 1155,
      "ended": 1156,
      "avail": 1157,
      "species": 1158,
      "Or": 1159,
      "bro": 1160,
      "best": 1161,
      "ah": 1162,
      "interest": 1163,
      "Pl": 1164,
      "field": 1165,
      "occur": 1166,
      "Ind": 1167,
      "cu": 1168,
      "ake": 1169,
      "meas": 1170,
      "NA": 1171,
      "ket": 1172,
      "Pr": 1173,
      "Ro": 1174,
      "met": 1175,
      "better": 1176,
      "site": 1177,
      "says": 1178,
      "itional": 1179,
      "comes": 1180,
      "artic": 1181,
      "ified": 1182,
      "means": 1183,
      "method": 1184,
      "provide": 1185,
      "US": 1186,
      "polit": 1187,
      "One": 1188,
      "free": 1189,
      "current": 1190,
      "God": 1191,
      "chem": 1192,
      "happ": 1193,
      "National": 1194,
      "think": 1195,
      "flow": 1196,
      "rist": 1197,
      "four": 1198,
      "ories": 1199,
      "dra": 1200,
      "Ph": 1201,
      "ource": 1202,
      "case": 1203,
      "local": 1204,
      "keep": 1205,
      "ats": 1206,
      "side": 1207,
      "ones": 1208,
      "several": 1209,
      "tw": 1210,
      "later": 1211,
      "posed": 1212,
      "sc": 1213,
      "pri": 1214,
      "since": 1215,
      "plain": 1216,
      "hold": 1217,
      "period": 1218,
      "ided": 1219,
      "iness": 1220,
      "tell": 1221,
      "ify": 1222,
      "fil": 1223,
      "States": 1224,
      "cut": 1225,
      "Af": 1226,
      "exp": 1227,
      "treatment": 1228,
      "plac": 1229,
      "Mar": 1230,
      "mun": 1231,
      "lab": 1232,
      "ths": 1233,
      "ann": 1234,
      "invol": 1235,
      "ustr": 1236,
      "things": 1237,
      "ological": 1238,
      "vari": 1239,
      "Med": 1240,
      "mean": 1241,
      "II": 1242,
      "list": 1243,
      "fort": 1244,
      "tre": 1245,
      "Some": 1246,
      "feel": 1247,
      "198": 1248,
      "trad": 1249,
      "country": 1250,
      "Ac": 1251,
      "success": 1252,
      "bus": 1253,
      "century": 1254,
      "imes": 1255,
      "times": 1256,
      "whe": 1257,
      "tail": 1258,
      "ills": 1259,
      "tru": 1260,
      "others": 1261,
      "Dr": 1262,
      "ale": 1263,
      "little": 1264,
      "available": 1265,
      "among": 1266,
      "object": 1267,
      "dev": 1268,
      "ably": 1269,
      "areas": 1270,
      "atic": 1271,
      "action": 1272,
      "abl": 1273,
      "learning": 1274,
      "25": 1275,
      "With": 1276,
      "hn": 1277,
      "ime": 1278,
      "ients": 1279,
      "mis": 1280,
      "natural": 1281,
      "conne": 1282,
      "tic": 1283,
      "following": 1284,
      "ards": 1285,
      "cost": 1286,
      "until": 1287,
      "direct": 1288,
      "No": 1289,
      "ches": 1290,
      "nal": 1291,
      "access": 1292,
      "Pe": 1293,
      "Euro": 1294,
      "ready": 1295,
      "langu": 1296,
      "turn": 1297,
      "aster": 1298,
      "By": 1299,
      "house": 1300,
      "rece": 1301,
      "az": 1302,
      "Sci": 1303,
      "function": 1304,
      "urther": 1305,
      "ax": 1306,
      "exper": 1307,
      "affect": 1308,
      "words": 1309,
      "given": 1310,
      "model": 1311,
      "clear": 1312,
      "type": 1313,
      "Ger": 1314,
      "hal": 1315,
      "fish": 1316,
      "benef": 1317,
      "Ear": 1318,
      "making": 1319,
      "hard": 1320,
      "ither": 1321,
      "seem": 1322,
      "Brit": 1323,
      "Christ": 1324,
      "ox": 1325,
      "prevent": 1326,
      "glo": 1327,
      "ges": 1328,
      "course": 1329,
      "likely": 1330,
      "centr": 1331,
      "Europe": 1332,
      "cing": 1333,
      "cially": 1334,
      "position": 1335,
      "amoun": 1336,
      "ilar": 1337,
      "problems": 1338,
      "author": 1339,
      "refer": 1340,
      "signific": 1341,
      "imate": 1342,
      "comb": 1343,
      "ned": 1344,
      "cir": 1345,
      "eral": 1346,
      "wide": 1347,
      "recent": 1348,
      "dro": 1349,
      "lands": 1350,
      "along": 1351,
      "oks": 1352,
      "sed": 1353,
      "associ": 1354,
      "War": 1355,
      "something": 1356,
      "days": 1357,
      "den": 1358,
      "40": 1359,
      "defin": 1360,
      "sequ": 1361,
      "ots": 1362,
      "mission": 1363,
      "That": 1364,
      "tro": 1365,
      "gether": 1366,
      "cogn": 1367,
      "sugg": 1368,
      "sis": 1369,
      "Sy": 1370,
      "John": 1371,
      "Sh": 1372,
      "ped": 1373,
      "levels": 1374,
      "bit": 1375,
      "ming": 1376,
      "ler": 1377,
      "197": 1378,
      "systems": 1379,
      "ade": 1380,
      "Car": 1381,
      "ined": 1382,
      "ont": 1383,
      "oid": 1384,
      "above": 1385,
      "cul": 1386,
      "pect": 1387,
      "education": 1388,
      "ledge": 1389,
      "ls": 1390,
      "word": 1391,
      "ining": 1392,
      "exist": 1393,
      "space": 1394,
      "youn": 1395,
      "graph": 1396,
      "million": 1397,
      "Ge": 1398,
      "rele": 1399,
      "emplo": 1400,
      "due": 1401,
      "Me": 1402,
      "sha": 1403,
      "usually": 1404,
      "room": 1405,
      "short": 1406,
      "temper": 1407,
      "ption": 1408,
      "problem": 1409,
      "pan": 1410,
      "population": 1411,
      "cra": 1412,
      "uture": 1413,
      "invest": 1414,
      "ched": 1415,
      "ision": 1416,
      "Go": 1417,
      "bur": 1418,
      "necess": 1419,
      "crit": 1420,
      "thern": 1421,
      "ances": 1422,
      "death": 1423,
      "ged": 1424,
      "specific": 1425,
      "cam": 1426,
      "mind": 1427,
      "inst": 1428,
      "key": 1429,
      "havi": 1430,
      "ends": 1431,
      "Po": 1432,
      "establ": 1433,
      "tom": 1434,
      "prove": 1435,
      "aut": 1436,
      "ctions": 1437,
      "hour": 1438,
      "result": 1439,
      "together": 1440,
      "works": 1441,
      "related": 1442,
      "60": 1443,
      "ht": 1444,
      "fall": 1445,
      "fric": 1446,
      "vious": 1447,
      "tries": 1448,
      "mult": 1449,
      "suf": 1450,
      "cancer": 1451,
      "Afric": 1452,
      "begin": 1453,
      "step": 1454,
      "heart": 1455,
      "lower": 1456,
      "hab": 1457,
      "working": 1458,
      "wn": 1459,
      "selves": 1460,
      "next": 1461,
      "stri": 1462,
      "raph": 1463,
      "ling": 1464,
      "today": 1465,
      "special": 1466,
      "hol": 1467,
      "kind": 1468,
      "ru": 1469,
      "away": 1470,
      "active": 1471,
      "Coun": 1472,
      "aring": 1473,
      "least": 1474,
      "changes": 1475,
      "community": 1476,
      "however": 1477,
      "give": 1478,
      "complete": 1479,
      "offic": 1480,
      "left": 1481,
      "city": 1482,
      "toms": 1483,
      "ication": 1484,
      "Of": 1485,
      "plants": 1486,
      "IS": 1487,
      "Ne": 1488,
      "ster": 1489,
      "mid": 1490,
      "relation": 1491,
      "conditions": 1492,
      "After": 1493,
      "ised": 1494,
      "reach": 1495,
      "character": 1496,
      "strong": 1497,
      "ork": 1498,
      "became": 1499,
      "prim": 1500,
      "always": 1501,
      "never": 1502,
      "impact": 1503,
      "earch": 1504,
      "technology": 1505,
      "ames": 1506,
      "cases": 1507,
      "language": 1508,
      "ently": 1509,
      "fully": 1510,
      "oto": 1511,
      "May": 1512,
      "discus": 1513,
      "sw": 1514,
      "significant": 1515,
      "ley": 1516,
      "past": 1517,
      "sent": 1518,
      "formed": 1519,
      "ik": 1520,
      "pet": 1521,
      "sal": 1522,
      "results": 1523,
      "having": 1524,
      "...": 1525,
      "atch": 1526,
      "future": 1527,
      "ators": 1528,
      "ane": 1529,
      "ental": 1530,
      "web": 1531,
      "diffic": 1532,
      "moder": 1533,
      "general": 1534,
      "applic": 1535,
      "higher": 1536,
      "respons": 1537,
      "represent": 1538,
      "similar": 1539,
      "espe": 1540,
      "mor": 1541,
      "behavi": 1542,
      "enough": 1543,
      "taken": 1544,
      "tar": 1545,
      "ensive": 1546,
      "eved": 1547,
      "going": 1548,
      "Engl": 1549,
      "green": 1550,
      "ured": 1551,
      "uter": 1552,
      "asing": 1553,
      "def": 1554,
      "ays": 1555,
      "increase": 1556,
      "especially": 1557,
      "ush": 1558,
      "claim": 1559,
      "why": 1560,
      "uary": 1561,
      "approach": 1562,
      "iver": 1563,
      "count": 1564,
      "ands": 1565,
      "amin": 1566,
      "English": 1567,
      "sun": 1568,
      "stead": 1569,
      "mber": 1570,
      "effective": 1571,
      "paper": 1572,
      "ought": 1573,
      "bar": 1574,
      "termin": 1575,
      "cop": 1576,
      "grad": 1577,
      "subject": 1578,
      "force": 1579,
      "activity": 1580,
      "omet": 1581,
      "pression": 1582,
      "create": 1583,
      "oney": 1584,
      "atory": 1585,
      "24": 1586,
      "Gr": 1587,
      "While": 1588,
      "agement": 1589,
      "evidence": 1590,
      "full": 1591,
      "story": 1592,
      "aves": 1593,
      "ilities": 1594,
      "tion": 1595,
      "studies": 1596,
      "York": 1597,
      "strate": 1598,
      "symp": 1599,
      "bon": 1600,
      "rather": 1601,
      "acy": 1602,
      "North": 1603,
      "across": 1604,
      "loss": 1605,
      "gar": 1606,
      "remain": 1607,
      "profess": 1608,
      "continu": 1609,
      "hor": 1610,
      "Inter": 1611,
      "Not": 1612,
      "World": 1613,
      "minis": 1614,
      "text": 1615,
      "Cl": 1616,
      "science": 1617,
      "knowledge": 1618,
      "wr": 1619,
      "further": 1620,
      "countries": 1621,
      "issue": 1622,
      "young": 1623,
      "org": 1624,
      "ali": 1625,
      "various": 1626,
      "reason": 1627,
      "effects": 1628,
      "seen": 1629,
      "inking": 1630,
      "21": 1631,
      "rate": 1632,
      "half": 1633,
      "big": 1634,
      "ention": 1635,
      "prob": 1636,
      "needs": 1637,
      "brain": 1638,
      "experience": 1639,
      "ially": 1640,
      "concer": 1641,
      "She": 1642,
      "Stud": 1643,
      "atures": 1644,
      "developed": 1645,
      "ked": 1646,
      "ene": 1647,
      "acc": 1648,
      "close": 1649,
      "sens": 1650,
      "members": 1651,
      "fig": 1652,
      "ore": 1653,
      "growth": 1654,
      "chan": 1655,
      "100": 1656,
      "His": 1657,
      "question": 1658,
      "issues": 1659,
      "ique": 1660,
      "political": 1661,
      "itor": 1662,
      "ysis": 1663,
      "whether": 1664,
      "lines": 1665,
      "lack": 1666,
      "Pres": 1667,
      "quality": 1668,
      "five": 1669,
      "live": 1670,
      "nut": 1671,
      "medi": 1672,
      "Dis": 1673,
      "ival": 1674,
      "groups": 1675,
      "South": 1676,
      "Tr": 1677,
      "ires": 1678,
      "oman": 1679,
      "hip": 1680,
      "neg": 1681,
      "Do": 1682,
      "ES": 1683,
      "gress": 1684,
      "white": 1685,
      "Research": 1686,
      "pay": 1687,
      "weight": 1688,
      "range": 1689,
      "thir": 1690,
      "either": 1691,
      "influ": 1692,
      "ison": 1693,
      "ilt": 1694,
      "uel": 1695,
      "ago": 1696,
      "stat": 1697,
      "below": 1698,
      "building": 1699,
      "mass": 1700,
      "tool": 1701,
      "Health": 1702,
      "urch": 1703,
      "pose": 1704,
      "production": 1705,
      "explain": 1706,
      "polic": 1707,
      "22": 1708,
      "already": 1709,
      "upon": 1710,
      "offer": 1711,
      "frequ": 1712,
      "require": 1713,
      "single": 1714,
      "wer": 1715,
      "event": 1716,
      "role": 1717,
      "ivil": 1718,
      "drug": 1719,
      "ER": 1720,
      "Hist": 1721,
      "ream": 1722,
      "road": 1723,
      "amount": 1724,
      "gs": 1725,
      "physical": 1726,
      "iting": 1727,
      "labor": 1728,
      "patients": 1729,
      "xim": 1730,
      "once": 1731,
      "intro": 1732,
      "ending": 1733,
      "return": 1734,
      "surface": 1735,
      "published": 1736,
      "inte": 1737,
      "Earth": 1738,
      "photo": 1739,
      "week": 1740,
      "ae": 1741,
      "really": 1742,
      "team": 1743,
      "types": 1744,
      "makes": 1745,
      "Te": 1746,
      "forms": 1747,
      "black": 1748,
      "dig": 1749,
      "aged": 1750,
      "normal": 1751,
      "toward": 1752,
      "histor": 1753,
      "ened": 1754,
      "itself": 1755,
      "focus": 1756,
      "une": 1757,
      "ometimes": 1758,
      "enn": 1759,
      "load": 1760,
      "fed": 1761,
      "ibility": 1762,
      "particip": 1763,
      "famil": 1764,
      "inci": 1765,
      "done": 1766,
      "indic": 1767,
      "business": 1768,
      "coming": 1769,
      "living": 1770,
      "ening": 1771,
      "themselves": 1772,
      "America": 1773,
      "oking": 1774,
      "improve": 1775,
      "lay": 1776,
      "whole": 1777,
      "colle": 1778,
      "activities": 1779,
      "Jew": 1780,
      "rights": 1781,
      "Per": 1782,
      "value": 1783,
      "eth": 1784,
      "ior": 1785,
      "medical": 1786,
      "istic": 1787,
      "ze": 1788,
      "evol": 1789,
      "fail": 1790,
      "sof": 1791,
      "collect": 1792,
      "round": 1793,
      "resources": 1794,
      "init": 1795,
      "contribut": 1796,
      "ficient": 1797,
      "covered": 1798,
      "article": 1799,
      "fat": 1800,
      "squ": 1801,
      "parts": 1802,
      "Ser": 1803,
      "ried": 1804,
      "sex": 1805,
      "syn": 1806,
      "\".": 1807,
      "thought": 1808,
      "climate": 1809,
      "recogn": 1810,
      "lot": 1811,
      "23": 1812,
      "introdu": 1813,
      "//": 1814,
      "ank": 1815,
      "gas": 1816,
      "products": 1817,
      "path": 1818,
      "according": 1819,
      "aver": 1820,
      "Fe": 1821,
      "wind": 1822,
      "ograph": 1823,
      "struction": 1824,
      "ints": 1825,
      "outs": 1826,
      "symptoms": 1827,
      "oil": 1828,
      "states": 1829,
      "tact": 1830,
      "Ab": 1831,
      "researchers": 1832,
      "gest": 1833,
      "chall": 1834,
      "anger": 1835,
      "member": 1836,
      "sych": 1837,
      "difficult": 1838,
      "hib": 1839,
      "Gu": 1840,
      "vo": 1841,
      "State": 1842,
      "economic": 1843,
      "~~~~": 1844,
      "kill": 1845,
      "wood": 1846,
      "htt": 1847,
      "meet": 1848,
      "Man": 1849,
      "pread": 1850,
      "took": 1851,
      "ables": 1852,
      "source": 1853,
      "detail": 1854,
      "pressure": 1855,
      "Canad": 1856,
      "created": 1857,
      "diag": 1858,
      "plement": 1859,
      "Many": 1860,
      "potential": 1861,
      "British": 1862,
      "aking": 1863,
      "vit": 1864,
      ".)": 1865,
      "itary": 1866,
      "skin": 1867,
      "partment": 1868,
      "suggest": 1869,
      "sound": 1870,
      "eds": 1871,
      "animals": 1872,
      "cannot": 1873,
      "employ": 1874,
      "began": 1875,
      "relig": 1876,
      "ournal": 1877,
      "fri": 1878,
      "://": 1879,
      "bul": 1880,
      "dy": 1881,
      "ses": 1882,
      "ification": 1883,
      "size": 1884,
      "actually": 1885,
      "mag": 1886,
      "docu": 1887,
      "situ": 1888,
      "ports": 1889,
      "modern": 1890,
      "questions": 1891,
      "six": 1892,
      "spir": 1893,
      "Instit": 1894,
      "medic": 1895,
      "dem": 1896,
      "bot": 1897,
      "separ": 1898,
      "nature": 1899,
      "condu": 1900,
      "increased": 1901,
      "addition": 1902,
      "mach": 1903,
      "apan": 1904,
      "sem": 1905,
      "chemical": 1906,
      "almost": 1907,
      "atter": 1908,
      "leep": 1909,
      "idea": 1910,
      "observ": 1911,
      "considered": 1912,
      "address": 1913,
      "necessary": 1914,
      "Most": 1915,
      "Cor": 1916,
      "gain": 1917,
      "engine": 1918,
      "Japan": 1919,
      "parents": 1920,
      "entire": 1921,
      "flo": 1922,
      "needed": 1923,
      "multi": 1924,
      "night": 1925,
      "erc": 1926,
      "ey": 1927,
      "ugh": 1928,
      "SA": 1929,
      "Des": 1930,
      "cup": 1931,
      "spr": 1932,
      "da": 1933,
      "taking": 1934,
      "appear": 1935,
      "mother": 1936,
      "dict": 1937,
      "anta": 1938,
      "earth": 1939,
      "global": 1940,
      "page": 1941,
      "oura": 1942,
      "Ed": 1943,
      "portun": 1944,
      "relationship": 1945,
      "Austr": 1946,
      "eve": 1947,
      "ney": 1948,
      "2012": 1949,
      "Par": 1950,
      "Austral": 1951,
      "student": 1952,
      "region": 1953,
      "associated": 1954,
      "required": 1955,
      "More": 1956,
      "liter": 1957,
      "industr": 1958,
      "complex": 1959,
      "won": 1960,
      "reduce": 1961,
      "ping": 1962,
      "town": 1963,
      "priv": 1964,
      "built": 1965,
      "maintain": 1966,
      "Lo": 1967,
      "iding": 1968,
      "attle": 1969,
      "28": 1970,
      "explo": 1971,
      "196": 1972,
      "26": 1973,
      "wal": 1974,
      "AN": 1975,
      "dle": 1976,
      "utes": 1977,
      "practice": 1978,
      "pie": 1979,
      "Act": 1980,
      "tax": 1981,
      "Eng": 1982,
      "www": 1983,
      "actions": 1984,
      "produce": 1985,
      "bill": 1986,
      "stant": 1987,
      "utions": 1988,
      "yet": 1989,
      "fire": 1990,
      "money": 1991,
      "diet": 1992,
      "regard": 1993,
      "pers": 1994,
      "ising": 1995,
      "provides": 1996,
      "IN": 1997,
      "inc": 1998,
      "months": 1999,
      "record": 2000,
      "scal": 2001,
      "aging": 2002,
      "thus": 2003,
      "heav": 2004,
      "rul": 2005,
      "Sp": 2006,
      "simple": 2007,
      "recomm": 2008,
      "micro": 2009,
      "Mon": 2010,
      "emer": 2011,
      "Although": 2012,
      "analysis": 2013,
      "27": 2014,
      "structure": 2015,
      "lying": 2016,
      "lor": 2017,
      "Har": 2018,
      "Pol": 2019,
      "cks": 2020,
      "sea": 2021,
      "cular": 2022,
      "heat": 2023,
      "uss": 2024,
      "compan": 2025,
      "2010": 2026,
      "materials": 2027,
      "opportun": 2028,
      "healthy": 2029,
      "stitution": 2030,
      "rich": 2031,
      "Min": 2032,
      "afety": 2033,
      "ering": 2034,
      "apy": 2035,
      "quick": 2036,
      "rown": 2037,
      "born": 2038,
      "sense": 2039,
      "skills": 2040,
      "King": 2041,
      "chol": 2042,
      "temperature": 2043,
      "extra": 2044,
      "true": 2045,
      "condition": 2046,
      "http": 2047,
      "Fo": 2048,
      "cit": 2049,
      "computer": 2050,
      "):": 2051,
      "estern": 2052,
      "29": 2053,
      "hours": 2054,
      "80": 2055,
      "lives": 2056,
      "Qu": 2057,
      "reme": 2058,
      "forest": 2059,
      "schools": 2060,
      "late": 2061,
      "My": 2062,
      "princi": 2063,
      "CO": 2064,
      "Here": 2065,
      "Fr": 2066,
      "threat": 2067,
      "color": 2068,
      "popular": 2069,
      "dest": 2070,
      "scientists": 2071,
      "decl": 2072,
      "longer": 2073,
      "environmental": 2074,
      "eding": 2075,
      "Other": 2076,
      "fair": 2077,
      "hom": 2078,
      "usion": 2079,
      "tit": 2080,
      "etic": 2081,
      "throughout": 2082,
      "understanding": 2083,
      "Her": 2084,
      "ded": 2085,
      "shows": 2086,
      "nation": 2087,
      "infect": 2088,
      "determin": 2089,
      "AT": 2090,
      "safe": 2091,
      "ana": 2092,
      "relative": 2093,
      "ham": 2094,
      "surv": 2095,
      "rect": 2096,
      "lled": 2097,
      "share": 2098,
      "experim": 2099,
      "vide": 2100,
      "lex": 2101,
      "habit": 2102,
      "cas": 2103,
      "provided": 2104,
      "spect": 2105,
      "assess": 2106,
      "reed": 2107,
      "previous": 2108,
      "From": 2109,
      "Ju": 2110,
      "conf": 2111,
      "stor": 2112,
      "ember": 2113,
      "reading": 2114,
      "personal": 2115,
      "sometimes": 2116,
      "company": 2117,
      "ronic": 2118,
      "empt": 2119,
      "School": 2120,
      "job": 2121,
      "ery": 2122,
      "regular": 2123,
      "fa": 2124,
      "sam": 2125,
      "caused": 2126,
      "aud": 2127,
      "pattern": 2128,
      "protect": 2129,
      "bes": 2130,
      "acks": 2131,
      "service": 2132,
      "Science": 2133,
      "stain": 2134,
      "diagno": 2135,
      "designed": 2136,
      "izing": 2137,
      "hood": 2138,
      "standard": 2139,
      "lling": 2140,
      "accept": 2141,
      "increasing": 2142,
      "verse": 2143,
      "etc": 2144,
      "log": 2145,
      "writing": 2146,
      "ert": 2147,
      "got": 2148,
      "terms": 2149,
      "exerc": 2150,
      "According": 2151,
      "ging": 2152,
      "Fir": 2153,
      "training": 2154,
      "bring": 2155,
      "Cent": 2156,
      "date": 2157,
      "eval": 2158,
      "curity": 2159,
      "written": 2160,
      "Jan": 2161,
      "fill": 2162,
      "See": 2163,
      "Will": 2164,
      "thy": 2165,
      "stress": 2166,
      "soil": 2167,
      "meaning": 2168,
      "deep": 2169,
      "German": 2170,
      "books": 2171,
      "Ho": 2172,
      "bra": 2173,
      "ublic": 2174,
      "pul": 2175,
      "product": 2176,
      "origin": 2177,
      "lif": 2178,
      "shown": 2179,
      "viol": 2180,
      "inj": 2181,
      "services": 2182,
      "went": 2183,
      "discuss": 2184,
      "pret": 2185,
      "Gener": 2186,
      "measure": 2187,
      "held": 2188,
      "factors": 2189,
      "vey": 2190,
      "total": 2191,
      "super": 2192,
      "content": 2193,
      "matter": 2194,
      "music": 2195,
      "image": 2196,
      "ID": 2197,
      "Intern": 2198,
      "ung": 2199,
      "ito": 2200,
      "media": 2201,
      "rench": 2202,
      "original": 2203,
      "mark": 2204,
      "Am": 2205,
      "takes": 2206,
      "ony": 2207,
      "greater": 2208,
      "March": 2209,
      "Department": 2210,
      "reported": 2211,
      "pict": 2212,
      "teen": 2213,
      "atives": 2214,
      "print": 2215,
      "sou": 2216,
      "programs": 2217,
      "draw": 2218,
      "ulations": 2219,
      "cro": 2220,
      "average": 2221,
      "ivity": 2222,
      "ford": 2223,
      "resist": 2224,
      "smo": 2225,
      "Im": 2226,
      "Ma": 2227,
      "management": 2228,
      "simply": 2229,
      "div": 2230,
      "demon": 2231,
      "Now": 2232,
      "Pa": 2233,
      "placed": 2234,
      "inary": 2235,
      "section": 2236,
      "ners": 2237,
      "Char": 2238,
      "eat": 2239,
      "AR": 2240,
      "nia": 2241,
      "iabet": 2242,
      "produced": 2243,
      "reli": 2244,
      "China": 2245,
      "First": 2246,
      "70": 2247,
      "sleep": 2248,
      "Our": 2249,
      "particularly": 2250,
      "behavior": 2251,
      "ults": 2252,
      "tree": 2253,
      "ties": 2254,
      "moved": 2255,
      "front": 2256,
      "ilo": 2257,
      "believe": 2258,
      "35": 2259,
      "abs": 2260,
      "bs": 2261,
      "argu": 2262,
      "individuals": 2263,
      "Dav": 2264,
      "ns": 2265,
      "poor": 2266,
      "2011": 2267,
      "ote": 2268,
      "rap": 2269,
      "avoid": 2270,
      "orders": 2271,
      "jud": 2272,
      "market": 2273,
      "cil": 2274,
      "itch": 2275,
      "series": 2276,
      "90": 2277,
      "visit": 2278,
      "vision": 2279,
      "na": 2280,
      "respon": 2281,
      "IV": 2282,
      "45": 2283,
      "fection": 2284,
      "third": 2285,
      "growing": 2286,
      "sources": 2287,
      "break": 2288,
      "love": 2289,
      "industry": 2290,
      "pts": 2291,
      "wall": 2292,
      "iam": 2293,
      "respond": 2294,
      "fem": 2295,
      "movement": 2296,
      "theory": 2297,
      "roy": 2298,
      "spread": 2299,
      "Gre": 2300,
      "wild": 2301,
      "review": 2302,
      "deli": 2303,
      "ST": 2304,
      "Ir": 2305,
      "June": 2306,
      "culture": 2307,
      "opt": 2308,
      "ff": 2309,
      "ades": 2310,
      "reng": 2311,
      "anced": 2312,
      "idge": 2313,
      "plied": 2314,
      "mechan": 2315,
      "probably": 2316,
      "mental": 2317,
      "scre": 2318,
      "events": 2319,
      "commit": 2320,
      "proved": 2321,
      "fru": 2322,
      "Che": 2323,
      "__": 2324,
      "online": 2325,
      "igr": 2326,
      "aware": 2327,
      "electric": 2328,
      "sl": 2329,
      "appropri": 2330,
      "Center": 2331,
      "causes": 2332,
      "consist": 2333,
      "concept": 2334,
      "Pre": 2335,
      "mess": 2336,
      "wa": 2337,
      "answer": 2338,
      "Ste": 2339,
      "ring": 2340,
      "Mus": 2341,
      "sus": 2342,
      "generally": 2343,
      "teachers": 2344,
      "doing": 2345,
      "Isra": 2346,
      "board": 2347,
      "methods": 2348,
      "established": 2349,
      "deal": 2350,
      "duc": 2351,
      "Institute": 2352,
      "mos": 2353,
      "Spe": 2354,
      "rup": 2355,
      "arily": 2356,
      "serious": 2357,
      "iation": 2358,
      "Oc": 2359,
      "Aug": 2360,
      "During": 2361,
      "bacter": 2362,
      "moun": 2363,
      "French": 2364,
      "cot": 2365,
      "ington": 2366,
      "ension": 2367,
      "basic": 2368,
      "positive": 2369,
      "tur": 2370,
      "international": 2371,
      "cient": 2372,
      "distribut": 2373,
      "policy": 2374,
      "IC": 2375,
      "hind": 2376,
      "2009": 2377,
      "outside": 2378,
      "consum": 2379,
      "immun": 2380,
      "continue": 2381,
      "fast": 2382,
      "independ": 2383,
      "express": 2384,
      "society": 2385,
      "dou": 2386,
      "easy": 2387,
      "gard": 2388,
      "carbon": 2389,
      "military": 2390,
      "slow": 2391,
      "Fran": 2392,
      "Your": 2393,
      "bol": 2394,
      "crim": 2395,
      "safety": 2396,
      "includes": 2397,
      "involved": 2398,
      "2008": 2399,
      "check": 2400,
      "forman": 2401,
      "civil": 2402,
      "feet": 2403,
      "aving": 2404,
      "Ap": 2405,
      "Russ": 2406,
      "west": 2407,
      "birth": 2408,
      "clean": 2409,
      "developing": 2410,
      "kids": 2411,
      "European": 2412,
      "central": 2413,
      "bab": 2414,
      "Apr": 2415,
      "llow": 2416,
      "Indian": 2417,
      "yle": 2418,
      "ials": 2419,
      "haps": 2420,
      "estim": 2421,
      "2007": 2422,
      "agree": 2423,
      "History": 2424,
      "psych": 2425,
      "integr": 2426,
      "arm": 2427,
      "International": 2428,
      "card": 2429,
      "uge": 2430,
      "enced": 2431,
      "numbers": 2432,
      "suffer": 2433,
      "streng": 2434,
      "Educ": 2435,
      "promot": 2436,
      "variety": 2437,
      "sym": 2438,
      "ball": 2439,
      "covery": 2440,
      "looking": 2441,
      "Cam": 2442,
      "progress": 2443,
      "ama": 2444,
      "concl": 2445,
      "ference": 2446,
      "legal": 2447,
      "animal": 2448,
      "ministr": 2449,
      "AC": 2450,
      "sho": 2451,
      "scientific": 2452,
      "quite": 2453,
      "Cali": 2454,
      "mix": 2455,
      "wise": 2456,
      "getting": 2457,
      "thous": 2458,
      "ON": 2459,
      "although": 2460,
      "file": 2461,
      "sites": 2462,
      "aries": 2463,
      "north": 2464,
      "extreme": 2465,
      "evolution": 2466,
      "expe": 2467,
      "account": 2468,
      "select": 2469,
      "points": 2470,
      "guide": 2471,
      "farm": 2472,
      "document": 2473,
      "iet": 2474,
      "identify": 2475,
      "host": 2476,
      "cade": 2477,
      "President": 2478,
      "ises": 2479,
      "added": 2480,
      "damage": 2481,
      "AL": 2482,
      "iter": 2483,
      "cture": 2484,
      "ufact": 2485,
      "dete": 2486,
      "foot": 2487,
      "encoura": 2488,
      "whose": 2489,
      "seems": 2490,
      "instead": 2491,
      "vention": 2492,
      "fav": 2493,
      "Califor": 2494,
      "West": 2495,
      "bey": 2496,
      "assist": 2497,
      "attention": 2498,
      "solar": 2499,
      "RE": 2500,
      "Child": 2501,
      "benefits": 2502,
      "sustain": 2503,
      "ieve": 2504,
      "parent": 2505,
      "July": 2506,
      "investig": 2507,
      "primary": 2508,
      "leaders": 2509,
      "cross": 2510,
      "Sept": 2511,
      "era": 2512,
      "lam": 2513,
      "stream": 2514,
      "soph": 2515,
      "Since": 2516,
      "Wash": 2517,
      "concentr": 2518,
      "workers": 2519,
      "ister": 2520,
      "minim": 2521,
      "star": 2522,
      "ror": 2523,
      "dry": 2524,
      "trees": 2525,
      "Gover": 2526,
      "ino": 2527,
      "cred": 2528,
      "travel": 2529,
      "Bar": 2530,
      "immedi": 2531,
      "contact": 2532,
      "patient": 2533,
      "foods": 2534,
      "2013": 2535,
      "California": 2536,
      "center": 2537,
      "Read": 2538,
      "traditional": 2539,
      "doctor": 2540,
      "included": 2541,
      "families": 2542,
      "reas": 2543,
      "ites": 2544,
      "ips": 2545,
      "Jes": 2546,
      "fuel": 2547,
      "pal": 2548,
      "istics": 2549,
      "undred": 2550,
      "formance": 2551,
      "nuc": 2552,
      "write": 2553,
      "limited": 2554,
      "therefore": 2555,
      "April": 2556,
      "Part": 2557,
      "Mic": 2558,
      "Even": 2559,
      "doesn": 2560,
      "bel": 2561,
      "beginning": 2562,
      "sen": 2563,
      "month": 2564,
      "African": 2565,
      "eye": 2566,
      "altern": 2567,
      "implement": 2568,
      "ift": 2569,
      "started": 2570,
      "cean": 2571,
      "apt": 2572,
      "High": 2573,
      "IT": 2574,
      "joy": 2575,
      "miles": 2576,
      "36": 2577,
      "ral": 2578,
      "AD": 2579,
      "news": 2580,
      "attack": 2581,
      "ctors": 2582,
      "leading": 2583,
      "reflect": 2584,
      "ding": 2585,
      "gies": 2586,
      "response": 2587,
      "tin": 2588,
      "wat": 2589,
      "pped": 2590,
      "termine": 2591,
      "broad": 2592,
      "lost": 2593,
      "leng": 2594,
      "south": 2595,
      "itude": 2596,
      "compared": 2597,
      "counter": 2598,
      "cat": 2599,
      "Sun": 2600,
      "phere": 2601,
      "UN": 2602,
      "correct": 2603,
      "clin": 2604,
      "ideas": 2605,
      "protein": 2606,
      "father": 2607,
      "river": 2608,
      "version": 2609,
      "gree": 2610,
      "network": 2611,
      "tests": 2612,
      "ishing": 2613,
      "veget": 2614,
      "thinking": 2615,
      "ai": 2616,
      "lic": 2617,
      "pes": 2618,
      "fra": 2619,
      "deb": 2620,
      "Mc": 2621,
      "Lear": 2622,
      "directly": 2623,
      "Ire": 2624,
      "bad": 2625,
      "summer": 2626,
      "prepare": 2627,
      "capital": 2628,
      "iabetes": 2629,
      "hot": 2630,
      "win": 2631,
      "acid": 2632,
      "poll": 2633,
      "cles": 2634,
      "scale": 2635,
      "stra": 2636,
      "daily": 2637,
      "Bi": 2638,
      "sil": 2639,
      "uk": 2640,
      "soon": 2641,
      "someone": 2642,
      "ilosoph": 2643,
      "communities": 2644,
      "ales": 2645,
      "wel": 2646,
      "fici": 2647,
      "behind": 2648,
      "compon": 2649,
      "isions": 2650,
      "manufact": 2651,
      "aller": 2652,
      "severe": 2653,
      "ancy": 2654,
      "itation": 2655,
      "located": 2656,
      "ius": 2657,
      "critical": 2658,
      "helps": 2659,
      "Hum": 2660,
      "uck": 2661,
      "inde": 2662,
      "River": 2663,
      "supply": 2664,
      "negative": 2665,
      "tware": 2666,
      "cast": 2667,
      "easily": 2668,
      "additional": 2669,
      "Washington": 2670,
      "brought": 2671,
      "determine": 2672,
      "Canada": 2673,
      "emot": 2674,
      "allows": 2675,
      "August": 2676,
      "pair": 2677,
      "humans": 2678,
      "described": 2679,
      "ops": 2680,
      "diseases": 2681,
      "mole": 2682,
      "larger": 2683,
      "companies": 2684,
      "season": 2685,
      "capt": 2686,
      "Ireland": 2687,
      "33": 2688,
      "isms": 2689,
      "former": 2690,
      "January": 2691,
      "Israel": 2692,
      "dark": 2693,
      "sold": 2694,
      "nearly": 2695,
      "item": 2696,
      "uries": 2697,
      "difference": 2698,
      "pite": 2699,
      "vert": 2700,
      "corpor": 2701,
      "hundred": 2702,
      "gency": 2703,
      "minutes": 2704,
      "Because": 2705,
      "sat": 2706,
      "Soci": 2707,
      "fight": 2708,
      "infection": 2709,
      "communic": 2710,
      "Gen": 2711,
      "gets": 2712,
      "serve": 2713,
      "auto": 2714,
      "cou": 2715,
      "resh": 2716,
      "band": 2717,
      "essential": 2718,
      "antic": 2719,
      "General": 2720,
      "decre": 2721,
      "mom": 2722,
      "useum": 2723,
      "appropriate": 2724,
      "iat": 2725,
      "Press": 2726,
      "received": 2727,
      "evalu": 2728,
      "PA": 2729,
      "except": 2730,
      "Sm": 2731,
      "tend": 2732,
      "Why": 2733,
      "ulture": 2734,
      "Comp": 2735,
      "lat": 2736,
      "federal": 2737,
      "vation": 2738,
      "ump": 2739,
      "que": 2740,
      "inside": 2741,
      "Jesus": 2742,
      "game": 2743,
      "Also": 2744,
      "William": 2745,
      "India": 2746,
      "unch": 2747,
      "tox": 2748,
      "himself": 2749,
      "winter": 2750,
      "TH": 2751,
      "genetic": 2752,
      "ensure": 2753,
      "table": 2754,
      "oud": 2755,
      "saw": 2756,
      "2006": 2757,
      "court": 2758,
      "ander": 2759,
      "beaut": 2760,
      "anti": 2761,
      "OR": 2762,
      "user": 2763,
      "accur": 2764,
      "performance": 2765,
      "told": 2766,
      "application": 2767,
      "challeng": 2768,
      "Day": 2769,
      "EN": 2770,
      "waste": 2771,
      "speed": 2772,
      "tric": 2773,
      "England": 2774,
      "vill": 2775,
      "base": 2776,
      "else": 2777,
      "prior": 2778,
      "Christian": 2779,
      "Vir": 2780,
      "sett": 2781,
      "craft": 2782,
      "ets": 2783,
      "expected": 2784,
      "Don": 2785,
      "reve": 2786,
      "Cha": 2787,
      "construction": 2788,
      "190": 2789,
      "Lon": 2790,
      "Val": 2791,
      "September": 2792,
      "ume": 2793,
      "DNA": 2794,
      "colon": 2795,
      "aren": 2796,
      "mains": 2797,
      "contains": 2798,
      "ounds": 2799,
      "forts": 2800,
      "strict": 2801,
      "carry": 2802,
      "dead": 2803,
      "unique": 2804,
      "egg": 2805,
      "astic": 2806,
      "proced": 2807,
      "achieve": 2808,
      "Cong": 2809,
      "continued": 2810,
      "Gree": 2811,
      "Nove": 2812,
      "places": 2813,
      "Ber": 2814,
      "pi": 2815,
      "forces": 2816,
      "tools": 2817,
      "citiz": 2818,
      "Africa": 2819,
      "hon": 2820,
      "cohol": 2821,
      "video": 2822,
      "November": 2823,
      "fit": 2824,
      "Dece": 2825,
      "ows": 2826,
      "trade": 2827,
      "People": 2828,
      "ously": 2829,
      "ram": 2830,
      "code": 2831,
      "location": 2832,
      "asked": 2833,
      "phen": 2834,
      "quickly": 2835,
      "cry": 2836,
      "Ob": 2837,
      "attra": 2838,
      "finan": 2839,
      "birds": 2840,
      "iques": 2841,
      "private": 2842,
      "mob": 2843,
      "2005": 2844,
      "Americans": 2845,
      "largest": 2846,
      "Commun": 2847,
      "basis": 2848,
      "migr": 2849,
      "194": 2850,
      "Then": 2851,
      "Associ": 2852,
      "laws": 2853,
      "died": 2854,
      "useful": 2855,
      "December": 2856,
      "tober": 2857,
      "hydro": 2858,
      "remains": 2859,
      "servation": 2860,
      "vic": 2861,
      "commer": 2862,
      "named": 2863,
      "cool": 2864,
      "David": 2865,
      "Tra": 2866,
      "influence": 2867,
      "Over": 2868,
      "hous": 2869,
      "estic": 2870,
      "2000": 2871,
      "London": 2872,
      "Water": 2873,
      "31": 2874,
      "BC": 2875,
      "infl": 2876,
      "ancient": 2877,
      "ils": 2878,
      "October": 2879,
      "edia": 2880,
      "ief": 2881,
      "lier": 2882,
      "hun": 2883,
      "ibr": 2884,
      "security": 2885,
      "zy": 2886,
      "stop": 2887,
      "teaching": 2888,
      "equip": 2889,
      "weeks": 2890,
      "poly": 2891,
      "purpose": 2892,
      "Law": 2893,
      "sco": 2894,
      "quar": 2895,
      "software": 2896,
      "advanta": 2897,
      "portion": 2898,
      "highly": 2899,
      "danger": 2900,
      "leaves": 2901,
      "note": 2902,
      "Trans": 2903,
      "speak": 2904,
      "ficiency": 2905,
      "multiple": 2906,
      "Em": 2907,
      "moving": 2908,
      "Red": 2909,
      "images": 2910,
      "religious": 2911,
      "tee": 2912,
      "Br": 2913,
      "195": 2914,
      "exact": 2915,
      "attempt": 2916,
      "Li": 2917,
      "hic": 2918,
      "rare": 2919,
      "ologies": 2920,
      "CD": 2921,
      "lection": 2922,
      "expo": 2923,
      "towards": 2924,
      "Mr": 2925,
      "shall": 2926,
      "obtain": 2927,
      "Medic": 2928,
      "37": 2929,
      "Rep": 2930,
      "capac": 2931,
      "Education": 2932,
      "Vol": 2933,
      "nothing": 2934,
      "transport": 2935,
      "Church": 2936,
      "Techn": 2937,
      "situation": 2938,
      "pen": 2939,
      "agric": 2940,
      "goal": 2941,
      "bert": 2942,
      "decision": 2943,
      "friend": 2944,
      "kets": 2945,
      "spirit": 2946,
      "Great": 2947,
      "Ke": 2948,
      "adults": 2949,
      "plies": 2950,
      "protection": 2951,
      "Cur": 2952,
      "older": 2953,
      "ceed": 2954,
      "pregn": 2955,
      "imag": 2956,
      "hope": 2957,
      "teacher": 2958,
      "beyond": 2959,
      "requires": 2960,
      "Develop": 2961,
      "Su": 2962,
      "communication": 2963,
      "property": 2964,
      "County": 2965,
      "aly": 2966,
      "Reg": 2967,
      "House": 2968,
      "Just": 2969,
      "Cour": 2970,
      "Jewish": 2971,
      "eyes": 2972,
      "eating": 2973,
      "woman": 2974,
      "idents": 2975,
      "Irish": 2976,
      "goes": 2977,
      "ico": 2978,
      "recently": 2979,
      "East": 2980,
      "stay": 2981,
      "becomes": 2982,
      "hands": 2983,
      "ament": 2984,
      "cret": 2985,
      "efforts": 2986,
      "Serv": 2987,
      "Tod": 2988,
      "AM": 2989,
      "ulate": 2990,
      "nel": 2991,
      "aff": 2992,
      "entially": 2993,
      "copy": 2994,
      "generation": 2995,
      "spring": 2996,
      "Sim": 2997,
      "\",": 2998,
      "za": 2999,
      "ateg": 3000,
      "mes": 3001,
      "mention": 3002,
      "responsible": 3003,
      "Society": 3004,
      "izations": 3005,
      "successful": 3006,
      "feed": 3007,
      "website": 3008,
      "exercise": 3009,
      "vest": 3010,
      "length": 3011,
      "isl": 3012,
      "cords": 3013,
      "analy": 3014,
      "gene": 3015,
      "harm": 3016,
      "blue": 3017,
      "wit": 3018,
      "coast": 3019,
      "objects": 3020,
      "drugs": 3021,
      "ught": 3022,
      "umb": 3023,
      "anything": 3024,
      "surround": 3025,
      "encies": 3026,
      "ull": 3027,
      "memory": 3028,
      "therapy": 3029,
      "perform": 3030,
      "Ty": 3031,
      "rates": 3032,
      "repe": 3033,
      "apply": 3034,
      "Social": 3035,
      "System": 3036,
      "expect": 3037,
      "acqu": 3038,
      "San": 3039,
      "quant": 3040,
      "Australia": 3041,
      "sess": 3042,
      "reser": 3043,
      "strial": 3044,
      "Fin": 3045,
      "gal": 3046,
      "bran": 3047,
      "Park": 3048,
      "circ": 3049,
      "Each": 3050,
      "device": 3051,
      "City": 3052,
      "reedom": 3053,
      "display": 3054,
      "occup": 3055,
      "diabetes": 3056,
      "cape": 3057,
      "Sol": 3058,
      "cele": 3059,
      "contr": 3060,
      "distin": 3061,
      "rapid": 3062,
      "Journal": 3063,
      "nes": 3064,
      "rote": 3065,
      ");": 3066,
      "Use": 3067,
      "kers": 3068,
      "ctic": 3069,
      "ech": 3070,
      "pon": 3071,
      "middle": 3072,
      "aid": 3073,
      "gives": 3074,
      "els": 3075,
      "elements": 3076,
      "rise": 3077,
      "onom": 3078,
      "iers": 3079,
      "planet": 3080,
      "rule": 3081,
      "cript": 3082,
      "qual": 3083,
      "affected": 3084,
      "solution": 3085,
      "organization": 3086,
      "34": 3087,
      "values": 3088,
      "allowed": 3089,
      "billion": 3090,
      "gun": 3091,
      "ker": 3092,
      "spo": 3093,
      "abilities": 3094,
      "enjoy": 3095,
      "emiss": 3096,
      "kid": 3097,
      "benefit": 3098,
      "alone": 3099,
      "hear": 3100,
      "demonstr": 3101,
      "38": 3102,
      "techniques": 3103,
      "weak": 3104,
      "Arch": 3105,
      "die": 3106,
      "Govern": 3107,
      "domin": 3108,
      "demand": 3109,
      "Let": 3110,
      "giving": 3111,
      "2004": 3112,
      "degree": 3113,
      "Web": 3114,
      "numer": 3115,
      "figure": 3116,
      "suit": 3117,
      "Another": 3118,
      "Lab": 3119,
      "target": 3120,
      "AS": 3121,
      "iar": 3122,
      "cold": 3123,
      "bacteria": 3124,
      "features": 3125,
      "Chin": 3126,
      "186": 3127,
      "interesting": 3128,
      "everything": 3129,
      "peace": 3130,
      "firm": 3131,
      "tes": 3132,
      "forward": 3133,
      "iful": 3134,
      "discovered": 3135,
      "La": 3136,
      "remember": 3137,
      "currently": 3138,
      "Phil": 3139,
      "standing": 3140,
      "wrote": 3141,
      "perhaps": 3142,
      "monitor": 3143,
      "Roman": 3144,
      "followed": 3145,
      "celebr": 3146,
      "mut": 3147,
      "trying": 3148,
      "costs": 3149,
      "orge": 3150,
      "Pal": 3151,
      "fix": 3152,
      "final": 3153,
      "Sur": 3154,
      "stage": 3155,
      "leave": 3156,
      "link": 3157,
      "39": 3158,
      "Miss": 3159,
      "piece": 3160,
      "tas": 3161,
      "burn": 3162,
      "box": 3163,
      "completely": 3164,
      "Green": 3165,
      "kin": 3166,
      "cultural": 3167,
      "factor": 3168,
      "virus": 3169,
      "importance": 3170,
      "worth": 3171,
      "predict": 3172,
      "Sch": 3173,
      "bound": 3174,
      "philosoph": 3175,
      "command": 3176,
      "operation": 3177,
      "tor": 3178,
      "changed": 3179,
      "Mid": 3180,
      "dim": 3181,
      "confl": 3182,
      "acts": 3183,
      "weather": 3184,
      "Once": 3185,
      "economy": 3186,
      "32": 3187,
      "Fig": 3188,
      "mel": 3189,
      "Prof": 3190,
      "pher": 3191,
      "Program": 3192,
      "500": 3193,
      "James": 3194,
      "pack": 3195,
      "providing": 3196,
      "efficient": 3197,
      "Nat": 3198,
      "phone": 3199,
      "classroom": 3200,
      "destroy": 3201,
      "seven": 3202,
      "testing": 3203,
      "gave": 3204,
      "symbol": 3205,
      "Today": 3206,
      "aling": 3207,
      "sugar": 3208,
      "ED": 3209,
      "rat": 3210,
      "respect": 3211,
      "Lin": 3212,
      "smaller": 3213,
      "ordin": 3214,
      "compet": 3215,
      "preh": 3216,
      "processes": 3217,
      "practices": 3218,
      "exposure": 3219,
      "users": 3220,
      "enge": 3221,
      "examples": 3222,
      "names": 3223,
      "devices": 3224,
      "atmos": 3225,
      "earlier": 3226,
      "effort": 3227,
      "bing": 3228,
      "lies": 3229,
      "odes": 3230,
      "aks": 3231,
      "alcohol": 3232,
      "occurs": 3233,
      "75": 3234,
      "augh": 3235,
      "via": 3236,
      "Thus": 3237,
      "income": 3238,
      "resol": 3239,
      "iction": 3240,
      "mitted": 3241,
      "install": 3242,
      "historical": 3243,
      "ju": 3244,
      "conce": 3245,
      "identified": 3246,
      "Add": 3247,
      "vehic": 3248,
      "Febr": 3249,
      "Bu": 3250,
      "ester": 3251,
      "Under": 3252,
      "February": 3253,
      "Sup": 3254,
      "cious": 3255,
      "sec": 3256,
      "dog": 3257,
      "plor": 3258,
      "illustr": 3259,
      "rome": 3260,
      "gypt": 3261,
      "trieved": 3262,
      "president": 3263,
      "frame": 3264,
      "charge": 3265,
      "neigh": 3266,
      "izes": 3267,
      "spital": 3268,
      "distance": 3269,
      "treated": 3270,
      "financial": 3271,
      "creating": 3272,
      "gery": 3273,
      "projects": 3274,
      "Internet": 3275,
      "van": 3276,
      "receive": 3277,
      "OS": 3278,
      "Pat": 3279,
      "swe": 3280,
      "ultural": 3281,
      "talk": 3282,
      "oral": 3283,
      "Chinese": 3284,
      "Ca": 3285,
      "ergy": 3286,
      "constant": 3287,
      "Rev": 3288,
      "zer": 3289,
      "cru": 3290,
      "instru": 3291,
      "majority": 3292,
      "Their": 3293,
      "AP": 3294,
      "standards": 3295,
      "didn": 3296,
      "ulated": 3297,
      "perfect": 3298,
      "Thom": 3299,
      "visual": 3300,
      "appears": 3301,
      "iles": 3302,
      "preser": 3303,
      "Germany": 3304,
      "urban": 3305,
      "digital": 3306,
      "administr": 3307,
      "tellig": 3308,
      "applications": 3309,
      "typically": 3310,
      "trict": 3311,
      "church": 3312,
      "sac": 3313,
      "calcul": 3314,
      "block": 3315,
      "ximately": 3316,
      "presents": 3317,
      "everyone": 3318,
      "reasons": 3319,
      "”.": 3320,
      "defined": 3321,
      "shape": 3322,
      "worked": 3323,
      "assign": 3324,
      "models": 3325,
      "steps": 3326,
      "photograph": 3327,
      "Every": 3328,
      "inf": 3329,
      "stories": 3330,
      "consequ": 3331,
      "establish": 3332,
      "rules": 3333,
      "electr": 3334,
      "eight": 3335,
      "watch": 3336,
      "Environment": 3337,
      "bell": 3338,
      "exe": 3339,
      "commonly": 3340,
      "rock": 3341,
      "themat": 3342,
      "virt": 3343,
      "Egypt": 3344,
      "alle": 3345,
      "touch": 3346,
      "party": 3347,
      "colog": 3348,
      "inse": 3349,
      "ods": 3350,
      "mouth": 3351,
      "fib": 3352,
      "igation": 3353,
      "tum": 3354,
      "fresh": 3355,
      "ience": 3356,
      "bone": 3357,
      "sn": 3358,
      "Sam": 3359,
      "relatively": 3360,
      "mas": 3361,
      "applied": 3362,
      "expand": 3363,
      "initi": 3364,
      "Are": 3365,
      "Black": 3366,
      "Mal": 3367,
      "Rel": 3368,
      "choice": 3369,
      "MS": 3370,
      "acade": 3371,
      "2003": 3372,
      "fruit": 3373,
      "Hen": 3374,
      "root": 3375,
      "waters": 3376,
      "Association": 3377,
      "aled": 3378,
      "belief": 3379,
      "gir": 3380,
      "inno": 3381,
      "ensity": 3382,
      "enh": 3383,
      "prom": 3384,
      "erson": 3385,
      "bri": 3386,
      "onto": 3387,
      "Congress": 3388,
      "journal": 3389,
      "arrow": 3390,
      "baby": 3391,
      "existing": 3392,
      "collection": 3393,
      "ios": 3394,
      "stro": 3395,
      "phas": 3396,
      "Council": 3397,
      "cycle": 3398,
      "phe": 3399,
      "reduced": 3400,
      "Common": 3401,
      "atom": 3402,
      "showed": 3403,
      "ston": 3404,
      "olic": 3405,
      "office": 3406,
      "turned": 3407,
      "78": 3408,
      "ov": 3409,
      "sets": 3410,
      "passed": 3411,
      "believed": 3412,
      "ky": 3413,
      "maxim": 3414,
      "powerful": 3415,
      "George": 3416,
      "separate": 3417,
      "picture": 3418,
      "categ": 3419,
      "2001": 3420,
      "Retrieved": 3421,
      "amm": 3422,
      "compar": 3423,
      "Japanese": 3424,
      "divid": 3425,
      "vacc": 3426,
      "equal": 3427,
      "Art": 3428,
      "sexual": 3429,
      "illness": 3430,
      "map": 3431,
      "status": 3432,
      "eventually": 3433,
      "immune": 3434,
      "dol": 3435,
      "Mor": 3436,
      "orts": 3437,
      "tele": 3438,
      "context": 3439,
      "2002": 3440,
      "lap": 3441,
      "Av": 3442,
      "Port": 3443,
      "choose": 3444,
      "details": 3445,
      "atta": 3446,
      "door": 3447,
      "subst": 3448,
      "breast": 3449,
      "purch": 3450,
      "medicine": 3451,
      "commercial": 3452,
      "coal": 3453,
      "pping": 3454,
      "milk": 3455,
      "favor": 3456,
      "gic": 3457,
      "revol": 3458,
      "mountain": 3459,
      "cin": 3460,
      "gins": 3461,
      "nic": 3462,
      "valu": 3463,
      "educational": 3464,
      "opportunity": 3465,
      "equipment": 3466,
      "foreign": 3467,
      "legisl": 3468,
      "Human": 3469,
      "Sal": 3470,
      "gment": 3471,
      "isn": 3472,
      "stone": 3473,
      "modif": 3474,
      "IP": 3475,
      "enty": 3476,
      "Mex": 3477,
      "yourself": 3478,
      "limit": 3479,
      "paign": 3480,
      "nuclear": 3481,
      "gold": 3482,
      "prison": 3483,
      "plications": 3484,
      "transl": 3485,
      "transfer": 3486,
      "staff": 3487,
      "increases": 3488,
      "properties": 3489,
      "vitamin": 3490,
      "topic": 3491,
      "Children": 3492,
      "ald": 3493,
      "Union": 3494,
      "surpr": 3495,
      "faith": 3496,
      "clinical": 3497,
      "thro": 3498,
      "female": 3499,
      "capacity": 3500,
      "ille": 3501,
      "poses": 3502,
      "buy": 3503,
      "Plan": 3504,
      "Colle": 3505,
      "industrial": 3506,
      "Air": 3507,
      "iment": 3508,
      "contract": 3509,
      "differences": 3510,
      "Ter": 3511,
      "Two": 3512,
      "style": 3513,
      "chance": 3514,
      "strugg": 3515,
      "huge": 3516,
      "mir": 3517,
      "western": 3518,
      "consu": 3519,
      "wards": 3520,
      "cities": 3521,
      "direction": 3522,
      "Hy": 3523,
      "ography": 3524,
      "recommend": 3525,
      "reports": 3526,
      "regions": 3527,
      "Western": 3528,
      "ffic": 3529,
      "notes": 3530,
      "creation": 3531,
      "learned": 3532,
      "sla": 3533,
      "wealth": 3534,
      "Au": 3535,
      "bow": 3536,
      "bridge": 3537,
      "running": 3538,
      "oxy": 3539,
      "instit": 3540,
      "reet": 3541,
      "race": 3542,
      "tage": 3543,
      "CC": 3544,
      "cking": 3545,
      "owners": 3546,
      "Virgin": 3547,
      "flowers": 3548,
      "estimated": 3549,
      "55": 3550,
      "offers": 3551,
      "reference": 3552,
      "College": 3553,
      "adop": 3554,
      "py": 3555,
      "ries": 3556,
      "sufficient": 3557,
      "las": 3558,
      "thesis": 3559,
      "archite": 3560,
      "ocean": 3561,
      "tour": 3562,
      "disorders": 3563,
      "functions": 3564,
      "vas": 3565,
      "island": 3566,
      "Found": 3567,
      "approximately": 3568,
      "garden": 3569,
      "Sub": 3570,
      "189": 3571,
      "square": 3572,
      "lived": 3573,
      "istry": 3574,
      "upper": 3575,
      "moment": 3576,
      "44": 3577,
      "Mary": 3578,
      "unit": 3579,
      "presence": 3580,
      "truth": 3581,
      "electricity": 3582,
      "immediately": 3583,
      "forced": 3584,
      "Government": 3585,
      "UK": 3586,
      "libr": 3587,
      "Teach": 3588,
      "gi": 3589,
      "records": 3590,
      "France": 3591,
      "ell": 3592,
      "rition": 3593,
      "iff": 3594,
      "grass": 3595,
      "rot": 3596,
      "ibly": 3597,
      "thetic": 3598,
      "bank": 3599,
      "fear": 3600,
      "overall": 3601,
      "Lu": 3602,
      "0s": 3603,
      "gent": 3604,
      "sion": 3605,
      "Cal": 3606,
      "bodies": 3607,
      "findings": 3608,
      "Mass": 3609,
      "populations": 3610,
      "professional": 3611,
      "Students": 3612,
      "Str": 3613,
      "thousands": 3614,
      "wrong": 3615,
      "opportunities": 3616,
      "patterns": 3617,
      "El": 3618,
      "Scot": 3619,
      "relev": 3620,
      "freedom": 3621,
      "pow": 3622,
      "amp": 3623,
      "teeth": 3624,
      "balance": 3625,
      "wanted": 3626,
      "measures": 3627,
      "Fed": 3628,
      "yal": 3629,
      "northern": 3630,
      "letter": 3631,
      "suggests": 3632,
      "rid": 3633,
      "famous": 3634,
      "schol": 3635,
      "ulty": 3636,
      "plans": 3637,
      "Rich": 3638,
      "kept": 3639,
      "disci": 3640,
      "native": 3641,
      "inner": 3642,
      "cting": 3643,
      "sky": 3644,
      "connected": 3645,
      "release": 3646,
      "rout": 3647,
      "comfort": 3648,
      "soft": 3649,
      "whom": 3650,
      "highest": 3651,
      "determined": 3652,
      "deliver": 3653,
      "grant": 3654,
      "decades": 3655,
      "emphas": 3656,
      "actual": 3657,
      "drive": 3658,
      "ida": 3659,
      "ively": 3660,
      "technologies": 3661,
      "accom": 3662,
      "fields": 3663,
      "Jews": 3664,
      "Jer": 3665,
      "hair": 3666,
      "games": 3667,
      "film": 3668,
      "assu": 3669,
      "released": 3670,
      "introduced": 3671,
      "Bra": 3672,
      "disorder": 3673,
      "signs": 3674,
      "wonder": 3675,
      "literature": 3676,
      "Organ": 3677,
      "Cap": 3678,
      "ingu": 3679,
      "heavy": 3680,
      "EM": 3681,
      "Pac": 3682,
      "Sou": 3683,
      "Islam": 3684,
      "citizens": 3685,
      "ga": 3686,
      "excess": 3687,
      "ternal": 3688,
      "structures": 3689,
      "opin": 3690,
      "arian": 3691,
      "chronic": 3692,
      "igen": 3693,
      "trig": 3694,
      "carried": 3695,
      "alternative": 3696,
      "Mag": 3697,
      "slight": 3698,
      "genes": 3699,
      "homes": 3700,
      "Public": 3701,
      "gather": 3702,
      "alter": 3703,
      "pects": 3704,
      "mod": 3705,
      "combination": 3706,
      "killed": 3707,
      "oes": 3708,
      "ships": 3709,
      "cand": 3710,
      "lu": 3711,
      "tissue": 3712,
      "tradition": 3713,
      "auth": 3714,
      "dat": 3715,
      "east": 3716,
      "prefer": 3717,
      "presented": 3718,
      "RO": 3719,
      "EC": 3720,
      "compreh": 3721,
      "warm": 3722,
      "Muslim": 3723,
      "friends": 3724,
      "cycl": 3725,
      "instance": 3726,
      "ET": 3727,
      "exhib": 3728,
      "physic": 3729,
      "battle": 3730,
      "2015": 3731,
      "articles": 3732,
      "Medicine": 3733,
      "thr": 3734,
      "depression": 3735,
      "ogle": 3736,
      "Its": 3737,
      "stim": 3738,
      "shr": 3739,
      "changing": 3740,
      "Britain": 3741,
      "48": 3742,
      "demo": 3743,
      "served": 3744,
      "grand": 3745,
      "organizations": 3746,
      "Phys": 3747,
      "beautiful": 3748,
      "chief": 3749,
      "observed": 3750,
      "absor": 3751,
      "connection": 3752,
      "restrict": 3753,
      "toxic": 3754,
      "itis": 3755,
      "essay": 3756,
      "Republic": 3757,
      "resistance": 3758,
      "nine": 3759,
      "univers": 3760,
      "element": 3761,
      "Dan": 3762,
      "hearing": 3763,
      "optim": 3764,
      "machine": 3765,
      "White": 3766,
      "surgery": 3767,
      "annual": 3768,
      "Life": 3769,
      "survey": 3770,
      "vary": 3771,
      "porary": 3772,
      "clearly": 3773,
      "strategies": 3774,
      "conducted": 3775,
      "strength": 3776,
      "Mer": 3777,
      "ias": 3778,
      "nit": 3779,
      "formal": 3780,
      "challenge": 3781,
      "ifically": 3782,
      "ologist": 3783,
      "tu": 3784,
      "infr": 3785,
      "trust": 3786,
      "noted": 3787,
      "Lat": 3788,
      "cers": 3789,
      "ost": 3790,
      "intellig": 3791,
      "vessel": 3792,
      "layer": 3793,
      "achi": 3794,
      "zing": 3795,
      "extremely": 3796,
      "iling": 3797,
      "male": 3798,
      "oxide": 3799,
      "independent": 3800,
      "Sw": 3801,
      "Island": 3802,
      "frequently": 3803,
      "message": 3804,
      "Lou": 3805,
      "Net": 3806,
      "exc": 3807,
      "discrim": 3808,
      "radio": 3809,
      "Lord": 3810,
      "isol": 3811,
      "ultim": 3812,
      "interpret": 3813,
      "happen": 3814,
      "daugh": 3815,
      "causing": 3816,
      "Bas": 3817,
      "anx": 3818,
      "orial": 3819,
      "188": 3820,
      "pages": 3821,
      "track": 3822,
      "excl": 3823,
      "speech": 3824,
      "Moun": 3825,
      "liber": 3826,
      "NASA": 3827,
      "icated": 3828,
      "cel": 3829,
      "novel": 3830,
      "traffic": 3831,
      "Energy": 3832,
      "statement": 3833,
      "grade": 3834,
      "employment": 3835,
      "chap": 3836,
      "shop": 3837,
      "distribution": 3838,
      "Cath": 3839,
      "Ken": 3840,
      "ored": 3841,
      "rob": 3842,
      "gradu": 3843,
      "experiment": 3844,
      "appoint": 3845,
      "fundam": 3846,
      "persons": 3847,
      "Paul": 3848,
      "Dire": 3849,
      "ria": 3850,
      "65": 3851,
      "occas": 3852,
      "Scient": 3853,
      "finding": 3854,
      "fortun": 3855,
      "widely": 3856,
      "300": 3857,
      "promis": 3858,
      "III": 3859,
      "stic": 3860,
      "decided": 3861,
      "Ben": 3862,
      "belong": 3863,
      "riage": 3864,
      "elim": 3865,
      "Sen": 3866,
      "glass": 3867,
      "appeared": 3868,
      "rang": 3869,
      "resource": 3870,
      "Project": 3871,
      "News": 3872,
      "hypo": 3873,
      "campaign": 3874,
      "Hol": 3875,
      "Old": 3876,
      "temperatures": 3877,
      "expression": 3878,
      "liqu": 3879,
      "preci": 3880,
      "spent": 3881,
      "planning": 3882,
      "operations": 3883,
      "Thomas": 3884,
      "gon": 3885,
      "tren": 3886,
      "heard": 3887,
      "adult": 3888,
      "core": 3889,
      "usual": 3890,
      "master": 3891,
      "conv": 3892,
      "Tex": 3893,
      "fine": 3894,
      "feature": 3895,
      "nur": 3896,
      "numerous": 3897,
      "breath": 3898,
      "bottom": 3899,
      "consul": 3900,
      "neuro": 3901,
      "Commission": 3902,
      "mathemat": 3903,
      "spot": 3904,
      "ica": 3905,
      "territ": 3906,
      "Well": 3907,
      "buildings": 3908,
      "Both": 3909,
      "panish": 3910,
      "meeting": 3911,
      "dent": 3912,
      "Greek": 3913,
      "About": 3914,
      "settle": 3915,
      "Development": 3916,
      "oxygen": 3917,
      "HIV": 3918,
      "wife": 3919,
      "thin": 3920,
      "reality": 3921,
      "isation": 3922,
      "controlled": 3923,
      "muscle": 3924,
      "DA": 3925,
      "Museum": 3926,
      "ano": 3927,
      "Google": 3928,
      "explor": 3929,
      "custom": 3930,
      "setting": 3931,
      "interested": 3932,
      "Medical": 3933,
      "victim": 3934,
      "Court": 3935,
      "BN": 3936,
      "trial": 3937,
      "nav": 3938,
      "becoming": 3939,
      "berg": 3940,
      "paid": 3941,
      "violence": 3942,
      "partners": 3943,
      "collabor": 3944,
      "mostly": 3945,
      "solid": 3946,
      "starting": 3947,
      "looked": 3948,
      "meat": 3949,
      "km": 3950,
      "conservation": 3951,
      "helped": 3952,
      "unders": 3953,
      "options": 3954,
      "insul": 3955,
      "proposed": 3956,
      "fel": 3957,
      "pressed": 3958,
      "otic": 3959,
      "gender": 3960,
      "Who": 3961,
      "hydr": 3962,
      "minor": 3963,
      "akes": 3964,
      "processing": 3965,
      "brother": 3966,
      "Henry": 3967,
      "Civil": 3968,
      "Up": 3969,
      "Second": 3970,
      "Mac": 3971,
      "andom": 3972,
      "motor": 3973,
      "easier": 3974,
      "describe": 3975,
      "emissions": 3976,
      "Mil": 3977,
      "ware": 3978,
      "yl": 3979,
      "prec": 3980,
      "finally": 3981,
      "2016": 3982,
      "store": 3983,
      "contrast": 3984,
      "decisions": 3985,
      "components": 3986,
      "jun": 3987,
      "performed": 3988,
      "Pacific": 3989,
      "”,": 3990,
      "referred": 3991,
      "Off": 3992,
      "bright": 3993,
      "credit": 3994,
      "advantage": 3995,
      "95": 3996,
      "opy": 3997,
      "ager": 3998,
      "volume": 3999,
      "yellow": 4000,
      "astr": 4001,
      "udd": 4002,
      "failure": 4003,
      "Def": 4004,
      "arms": 4005,
      "antib": 4006,
      "price": 4007,
      "dynam": 4008,
      "items": 4009,
      "respe": 4010,
      "exposed": 4011,
      "1999": 4012,
      "screen": 4013,
      "Mart": 4014,
      "edge": 4015,
      "youth": 4016,
      "nutri": 4017,
      "regarding": 4018,
      "anyone": 4019,
      "Flor": 4020,
      "storage": 4021,
      "southern": 4022,
      "Bay": 4023,
      "push": 4024,
      "please": 4025,
      "2014": 4026,
      "authors": 4027,
      "aspects": 4028,
      "links": 4029,
      "2017": 4030,
      "bird": 4031,
      "discussion": 4032,
      "46": 4033,
      "lease": 4034,
      "raised": 4035,
      "norm": 4036,
      "Book": 4037,
      "faces": 4038,
      "official": 4039,
      "familiar": 4040,
      "hop": 4041,
      "reaction": 4042,
      "Contro": 4043,
      "song": 4044,
      "chain": 4045,
      "185": 4046,
      "organic": 4047,
      "encing": 4048,
      "Like": 4049,
      "mentioned": 4050,
      "relevant": 4051,
      "Asia": 4052,
      "grees": 4053,
      "allowing": 4054,
      "enem": 4055,
      "sell": 4056,
      "linked": 4057,
      "prepared": 4058,
      "Sa": 4059,
      "plate": 4060,
      "experiences": 4061,
      "Food": 4062,
      "Test": 4063,
      "consumption": 4064,
      "Virginia": 4065,
      "NO": 4066,
      "identity": 4067,
      "views": 4068,
      "radiation": 4069,
      "Using": 4070,
      "conscious": 4071,
      "volun": 4072,
      "previously": 4073,
      "Bel": 4074,
      "ologists": 4075,
      "hyper": 4076,
      "raw": 4077,
      "experienced": 4078,
      "relationships": 4079,
      "Charles": 4080,
      "renew": 4081,
      "saying": 4082,
      "possess": 4083,
      "morning": 4084,
      "Pan": 4085,
      "removed": 4086,
      "participants": 4087,
      "challenges": 4088,
      "remained": 4089,
      "academic": 4090,
      "Mill": 4091,
      "sort": 4092,
      "remove": 4093,
      "pover": 4094,
      "magn": 4095,
      "classes": 4096,
      "employe": 4097,
      "camp": 4098,
      "Bl": 4099,
      "wash": 4100,
      "goals": 4101,
      "exactly": 4102,
      "Que": 4103,
      "fly": 4104,
      "degrees": 4105,
      "Note": 4106,
      "Profess": 4107,
      "Alex": 4108,
      "Information": 4109,
      "Therefore": 4110,
      "resulting": 4111,
      "technique": 4112,
      "reached": 4113,
      "chemicals": 4114,
      "cies": 4115,
      "iron": 4116,
      "urally": 4117,
      "involve": 4118,
      "Sum": 4119,
      "sand": 4120,
      "save": 4121,
      "significantly": 4122,
      "professor": 4123,
      "injury": 4124,
      "Acade": 4125,
      "hur": 4126,
      "ulum": 4127,
      "meant": 4128,
      "infections": 4129,
      "rew": 4130,
      "army": 4131,
      "holds": 4132,
      "Pho": 4133,
      "spective": 4134,
      "recommended": 4135,
      "ny": 4136,
      "nest": 4137,
      "amounts": 4138,
      "Post": 4139,
      "ado": 4140,
      "supported": 4141,
      "properly": 4142,
      "assessment": 4143,
      "Service": 4144,
      "49": 4145,
      "roll": 4146,
      "omb": 4147,
      "rivers": 4148,
      "conflict": 4149,
      "iders": 4150,
      "excell": 4151,
      "Russian": 4152,
      "Further": 4153,
      "task": 4154,
      "inher": 4155,
      "accoun": 4156,
      "proto": 4157,
      "incorpor": 4158,
      "justice": 4159,
      "pun": 4160,
      "ya": 4161,
      "raise": 4162,
      "frequency": 4163,
      "sample": 4164,
      "atmosphere": 4165,
      "Hel": 4166,
      "oth": 4167,
      "udes": 4168,
      "happens": 4169,
      "clop": 4170,
      "Histor": 4171,
      "Atl": 4172,
      "mand": 4173,
      "leader": 4174,
      "ek": 4175,
      "sav": 4176,
      "uration": 4177,
      "policies": 4178,
      "Spanish": 4179,
      "phase": 4180,
      "religion": 4181,
      "Space": 4182,
      "Texas": 4183,
      "ented": 4184,
      "improv": 4185,
      "email": 4186,
      "cription": 4187,
      "Glo": 4188,
      "divers": 4189,
      "background": 4190,
      "containing": 4191,
      "files": 4192,
      "Get": 4193,
      "IL": 4194,
      "oted": 4195,
      "astro": 4196,
      "village": 4197,
      "CA": 4198,
      "Women": 4199,
      "attribut": 4200,
      "salt": 4201,
      "Mem": 4202,
      "iled": 4203,
      "Those": 4204,
      "circum": 4205,
      "ours": 4206,
      "plastic": 4207,
      "ISBN": 4208,
      "Smith": 4209,
      "iety": 4210,
      "zo": 4211,
      "explan": 4212,
      "letters": 4213,
      "divided": 4214,
      "Power": 4215,
      "clim": 4216,
      "returned": 4217,
      "Elect": 4218,
      "replace": 4219,
      "ception": 4220,
      "expert": 4221,
      "Gal": 4222,
      "Last": 4223,
      "instruct": 4224,
      "ern": 4225,
      "Technology": 4226,
      "station": 4227,
      "dogs": 4228,
      "jour": 4229,
      "intended": 4230,
      "engineering": 4231,
      "ching": 4232,
      "habitat": 4233,
      "houses": 4234,
      "Bal": 4235,
      "ml": 4236,
      "pick": 4237,
      "iced": 4238,
      "eggs": 4239,
      "Home": 4240,
      "discover": 4241,
      "Prote": 4242,
      "spl": 4243,
      "ensus": 4244,
      "ams": 4245,
      "47": 4246,
      "ule": 4247,
      "looks": 4248,
      "output": 4249,
      "obvious": 4250,
      "facts": 4251,
      "Sha": 4252,
      "Treat": 4253,
      "motion": 4254,
      "urs": 4255,
      "Louis": 4256,
      "hit": 4257,
      "iance": 4258,
      "vity": 4259,
      "manner": 4260,
      "surance": 4261,
      "feeling": 4262,
      "MD": 4263,
      "PD": 4264,
      "sper": 4265,
      "uters": 4266,
      "ilit": 4267,
      "pred": 4268,
      "showing": 4269,
      "organisms": 4270,
      "claims": 4271,
      "claimed": 4272,
      "Mod": 4273,
      "itors": 4274,
      "reducing": 4275,
      "principles": 4276,
      "THE": 4277,
      "internal": 4278,
      "subs": 4279,
      "farmers": 4280,
      "Tur": 4281,
      "rum": 4282,
      "compe": 4283,
      "netic": 4284,
      "pieces": 4285,
      "discipl": 4286,
      "TO": 4287,
      "extensive": 4288,
      "ii": 4289,
      "completed": 4290,
      "maximum": 4291,
      "largely": 4292,
      "announ": 4293,
      "requirements": 4294,
      "Publ": 4295,
      "fif": 4296,
      "zone": 4297,
      "iverse": 4298,
      "encourage": 4299,
      "ona": 4300,
      "adjust": 4301,
      "extent": 4302,
      "Central": 4303,
      "doub": 4304,
      "satis": 4305,
      ".|": 4306,
      "fro": 4307,
      "oma": 4308,
      "strategy": 4309,
      "drome": 4310,
      "server": 4311,
      "police": 4312,
      "solute": 4313,
      "biological": 4314,
      "scen": 4315,
      "Learning": 4316,
      "icy": 4317,
      "prepar": 4318,
      "centuries": 4319,
      "leads": 4320,
      "continues": 4321,
      "Ver": 4322,
      "keeping": 4323,
      "effectively": 4324,
      "college": 4325,
      "diagnosis": 4326,
      "tons": 4327,
      "grown": 4328,
      "Yet": 4329,
      "math": 4330,
      "fee": 4331,
      "occurred": 4332,
      "dated": 4333,
      "mere": 4334,
      "angle": 4335,
      "lesson": 4336,
      "Grou": 4337,
      "cis": 4338,
      "iday": 4339,
      "assem": 4340,
      "umn": 4341,
      "speaking": 4342,
      "primarily": 4343,
      "initial": 4344,
      "sounds": 4345,
      "Fam": 4346,
      "ads": 4347,
      "studied": 4348,
      "Any": 4349,
      "Arab": 4350,
      "aces": 4351,
      "osis": 4352,
      "definition": 4353,
      "thick": 4354,
      "Guide": 4355,
      "Company": 4356,
      "Bur": 4357,
      "Fol": 4358,
      "sin": 4359,
      "vul": 4360,
      "efficiency": 4361,
      "Army": 4362,
      "1998": 4363,
      "dangerous": 4364,
      "SE": 4365,
      "taught": 4366,
      "advanced": 4367,
      "height": 4368,
      "destru": 4369,
      "marine": 4370,
      "Rem": 4371,
      "sector": 4372,
      "ota": 4373,
      "Peter": 4374,
      "Del": 4375,
      "ideal": 4376,
      "hospital": 4377,
      "Sea": 4378,
      "expensive": 4379,
      "poverty": 4380,
      ".;": 4381,
      "Sat": 4382,
      "fold": 4383,
      "enzy": 4384,
      "begins": 4385,
      "involves": 4386,
      "title": 4387,
      "Wil": 4388,
      "wers": 4389,
      "Such": 4390,
      "eria": 4391,
      "oph": 4392,
      "discovery": 4393,
      "constit": 4394,
      "officials": 4395,
      "Class": 4396,
      "Bir": 4397,
      "existence": 4398,
      "Kore": 4399,
      "alg": 4400,
      "shot": 4401,
      "Robert": 4402,
      "Review": 4403,
      "Jose": 4404,
      "convers": 4405,
      "metal": 4406,
      "Russia": 4407,
      "straight": 4408,
      "Mexico": 4409,
      "datab": 4410,
      "Through": 4411,
      "aint": 4412,
      "tructure": 4413,
      "institutions": 4414,
      "walk": 4415,
      "Fort": 4416,
      "practical": 4417,
      "earthqu": 4418,
      "Federal": 4419,
      "bly": 4420,
      "risks": 4421,
      "characteristics": 4422,
      "Cle": 4423,
      "Viet": 4424,
      "secret": 4425,
      "perman": 4426,
      "rence": 4427,
      "spa": 4428,
      "director": 4429,
      "offered": 4430,
      "filled": 4431,
      "dollar": 4432,
      "400": 4433,
      "pin": 4434,
      "roof": 4435,
      "lip": 4436,
      "cook": 4437,
      "Stand": 4438,
      "advice": 4439,
      "experts": 4440,
      "Good": 4441,
      "promote": 4442,
      "sight": 4443,
      "oles": 4444,
      "shar": 4445,
      "option": 4446,
      "calls": 4447,
      "Canadian": 4448,
      "flood": 4449,
      "foc": 4450,
      "tooth": 4451,
      "joint": 4452,
      "rupt": 4453,
      "CR": 4454,
      "Libr": 4455,
      "PS": 4456,
      "sides": 4457,
      "oppos": 4458,
      "closed": 4459,
      "greatest": 4460,
      "combined": 4461,
      "procedure": 4462,
      "eco": 4463,
      "hus": 4464,
      "va": 4465,
      "app": 4466,
      "explore": 4467,
      "vegetables": 4468,
      "Men": 4469,
      "pir": 4470,
      "util": 4471,
      "substant": 4472,
      "technical": 4473,
      "dependent": 4474,
      "pollution": 4475,
      "brief": 4476,
      "improved": 4477,
      "enses": 4478,
      "dram": 4479,
      "mort": 4480,
      "concepts": 4481,
      "elimin": 4482,
      "send": 4483,
      "yn": 4484,
      "atell": 4485,
      "drinking": 4486,
      "authority": 4487,
      "cris": 4488,
      "happened": 4489,
      "Rob": 4490,
      "bud": 4491,
      "icial": 4492,
      "seed": 4493,
      "depending": 4494,
      "Ham": 4495,
      "gap": 4496,
      "input": 4497,
      "err": 4498,
      "felt": 4499,
      "ood": 4500,
      "random": 4501,
      "ti": 4502,
      "zz": 4503,
      "convent": 4504,
      "units": 4505,
      "skill": 4506,
      "floor": 4507,
      "phenomen": 4508,
      "Middle": 4509,
      "Foundation": 4510,
      "contem": 4511,
      "revolution": 4512,
      "dial": 4513,
      "despite": 4514,
      "topics": 4515,
      "Hun": 4516,
      "Out": 4517,
      "snow": 4518,
      "proteins": 4519,
      "jobs": 4520,
      "fundamental": 4521,
      "fal": 4522,
      "notice": 4523,
      "coordin": 4524,
      "subjects": 4525,
      "sustainable": 4526,
      "Data": 4527,
      "Long": 4528,
      "greg": 4529,
      "conver": 4530,
      "1997": 4531,
      "teenth": 4532,
      "curric": 4533,
      "abol": 4534,
      "liver": 4535,
      "Northern": 4536,
      "kinds": 4537,
      "sensitive": 4538,
      "Despite": 4539,
      "Nav": 4540,
      "Tri": 4541,
      "umin": 4542,
      "lie": 4543,
      "tested": 4544,
      "recorded": 4545,
      "index": 4546,
      "spiritual": 4547,
      "UR": 4548,
      "rural": 4549,
      "trou": 4550,
      "responsibility": 4551,
      "Mos": 4552,
      "batter": 4553,
      "nations": 4554,
      "pray": 4555,
      "profit": 4556,
      "exts": 4557,
      "Catholic": 4558,
      "depos": 4559,
      "concern": 4560,
      "LE": 4561,
      "fare": 4562,
      "moon": 4563,
      "shared": 4564,
      "feeding": 4565,
      "interests": 4566,
      "specifically": 4567,
      "tiny": 4568,
      "Tor": 4569,
      "yield": 4570,
      "nutrition": 4571,
      "mobile": 4572,
      "Cons": 4573,
      "Make": 4574,
      "fing": 4575,
      "Instead": 4576,
      "Figure": 4577,
      "Environmental": 4578,
      "daughter": 4579,
      "latter": 4580,
      "oting": 4581,
      "minimum": 4582,
      "edition": 4583,
      "stock": 4584,
      "suggested": 4585,
      "focused": 4586,
      "Cr": 4587,
      "narr": 4588,
      "pure": 4589,
      "marks": 4590,
      "indicate": 4591,
      "absolute": 4592,
      "lose": 4593,
      "agricultural": 4594,
      "thes": 4595,
      "consists": 4596,
      "certainly": 4597,
      "Carol": 4598,
      "recognized": 4599,
      "mm": 4600,
      "leaving": 4601,
      "sole": 4602,
      "uded": 4603,
      "played": 4604,
      "emotional": 4605,
      "electrical": 4606,
      "trib": 4607,
      "producing": 4608,
      "drink": 4609,
      "profession": 4610,
      "slightly": 4611,
      "Year": 4612,
      "constitution": 4613,
      "emergency": 4614,
      "76": 4615,
      "HO": 4616,
      "pical": 4617,
      "wave": 4618,
      "tried": 4619,
      "apart": 4620,
      "operating": 4621,
      "neighbor": 4622,
      "vast": 4623,
      "ula": 4624,
      "haz": 4625,
      "poem": 4626,
      "tery": 4627,
      "Where": 4628,
      "solutions": 4629,
      "iveness": 4630,
      "drop": 4631,
      "Ox": 4632,
      "TS": 4633,
      "eties": 4634,
      "marked": 4635,
      "originally": 4636,
      "agreement": 4637,
      "walls": 4638,
      "Richard": 4639,
      "Florida": 4640,
      "Time": 4641,
      "rig": 4642,
      "schem": 4643,
      "alk": 4644,
      "lock": 4645,
      "concerned": 4646,
      "explains": 4647,
      "explained": 4648,
      "Australian": 4649,
      "execut": 4650,
      "gro": 4651,
      "lets": 4652,
      "capable": 4653,
      "protected": 4654,
      "horse": 4655,
      "99": 4656,
      "accurate": 4657,
      "Bro": 4658,
      "Mat": 4659,
      "organized": 4660,
      "Labor": 4661,
      "Bible": 4662,
      "ION": 4663,
      "ba": 4664,
      "hi": 4665,
      "wid": 4666,
      "astern": 4667,
      "marriage": 4668,
      "Chap": 4669,
      "dream": 4670,
      "kil": 4671,
      "uff": 4672,
      "measured": 4673,
      "monitoring": 4674,
      "Natural": 4675,
      "PM": 4676,
      "warming": 4677,
      "CE": 4678,
      "mph": 4679,
      "manage": 4680,
      "render": 4681,
      "cratic": 4682,
      "typical": 4683,
      "anks": 4684,
      "apparent": 4685,
      "otherwise": 4686,
      "Latin": 4687,
      "AB": 4688,
      "Gra": 4689,
      "Psych": 4690,
      "comment": 4691,
      "domestic": 4692,
      "minister": 4693,
      "pel": 4694,
      "mode": 4695,
      "igenous": 4696,
      "fle": 4697,
      "knew": 4698,
      "foss": 4699,
      "reduction": 4700,
      "liquid": 4701,
      "64": 4702,
      "Gold": 4703,
      "imer": 4704,
      "wet": 4705,
      "Ann": 4706,
      "colors": 4707,
      "helping": 4708,
      "concerns": 4709,
      "awareness": 4710,
      "Rights": 4711,
      "correspond": 4712,
      "train": 4713,
      "Constitution": 4714,
      "description": 4715,
      "faster": 4716,
      "ini": 4717,
      "wear": 4718,
      "Inde": 4719,
      "vital": 4720,
      "positions": 4721,
      "Cancer": 4722,
      "Office": 4723,
      "onic": 4724,
      "stret": 4725,
      "founded": 4726,
      "samples": 4727,
      "Bre": 4728,
      "Budd": 4729,
      "rou": 4730,
      "particles": 4731,
      "treatments": 4732,
      "Sto": 4733,
      "orient": 4734,
      "visible": 4735,
      "documents": 4736,
      "hundreds": 4737,
      "Mars": 4738,
      "advance": 4739,
      "Emp": 4740,
      "gone": 4741,
      "ville": 4742,
      "iest": 4743,
      "closely": 4744,
      "____": 4745,
      "Lake": 4746,
      "represents": 4747,
      "medium": 4748,
      "Before": 4749,
      "forming": 4750,
      "mainly": 4751,
      "double": 4752,
      "pipe": 4753,
      "85": 4754,
      "lers": 4755,
      "wish": 4756,
      "atever": 4757,
      "regional": 4758,
      "governments": 4759,
      "potentially": 4760,
      "couple": 4761,
      "instruction": 4762,
      "spend": 4763,
      "Only": 4764,
      "shaped": 4765,
      "Oh": 4766,
      "narrow": 4767,
      "ray": 4768,
      "adapt": 4769,
      "cium": 4770,
      "dust": 4771,
      "productive": 4772,
      "1995": 4773,
      "detailed": 4774,
      "respective": 4775,
      "roid": 4776,
      "plat": 4777,
      "parties": 4778,
      "surrounding": 4779,
      "normally": 4780,
      "Jud": 4781,
      "Wind": 4782,
      "driving": 4783,
      "distingu": 4784,
      "troops": 4785,
      "Academy": 4786,
      "?”": 4787,
      "Dise": 4788,
      "Ev": 4789,
      "flex": 4790,
      "inations": 4791,
      "dians": 4792,
      "funding": 4793,
      "vised": 4794,
      "playing": 4795,
      "Num": 4796,
      "llect": 4797,
      "pil": 4798,
      "celer": 4799,
      "external": 4800,
      "Georg": 4801,
      "excellent": 4802,
      "brown": 4803,
      "vote": 4804,
      "refers": 4805,
      "itage": 4806,
      "click": 4807,
      "180": 4808,
      "contribute": 4809,
      "appearance": 4810,
      "Francis": 4811,
      "ecolog": 4812,
      "66": 4813,
      "Rad": 4814,
      "investment": 4815,
      "Brown": 4816,
      "cket": 4817,
      "bear": 4818,
      "aches": 4819,
      "purposes": 4820,
      "introduction": 4821,
      "voc": 4822,
      "unless": 4823,
      "hael": 4824,
      "cars": 4825,
      "Exam": 4826,
      "figures": 4827,
      "MO": 4828,
      "Nature": 4829,
      "fluid": 4830,
      "approaches": 4831,
      "survival": 4832,
      "kidney": 4833,
      "discrimination": 4834,
      "stated": 4835,
      "adding": 4836,
      "depth": 4837,
      "listed": 4838,
      "Know": 4839,
      "SS": 4840,
      "Vis": 4841,
      "hes": 4842,
      "mail": 4843,
      "invas": 4844,
      "1996": 4845,
      "infected": 4846,
      "Vietnam": 4847,
      "Please": 4848,
      "aqu": 4849,
      "construct": 4850,
      "Ital": 4851,
      "muscles": 4852,
      "41": 4853,
      "Ze": 4854,
      "tension": 4855,
      "react": 4856,
      "collected": 4857,
      "Control": 4858,
      "Div": 4859,
      "ogen": 4860,
      "county": 4861,
      "laun": 4862,
      "pictures": 4863,
      "Econom": 4864,
      "wire": 4865,
      "moist": 4866,
      "cide": 4867,
      "prevention": 4868,
      "discussed": 4869,
      "moral": 4870,
      "eper": 4871,
      "format": 4872,
      "bled": 4873,
      "register": 4874,
      "Studies": 4875,
      "77": 4876,
      "Ef": 4877,
      "Indians": 4878,
      "agency": 4879,
      "Wild": 4880,
      "border": 4881,
      "equival": 4882,
      "paint": 4883,
      "facilities": 4884,
      "employed": 4885,
      "iatric": 4886,
      "Met": 4887,
      "Tem": 4888,
      "beans": 4889,
      "Stat": 4890,
      "newspa": 4891,
      "conduct": 4892,
      "bio": 4893,
      "Photo": 4894,
      "43": 4895,
      "Wik": 4896,
      "rail": 4897,
      "generate": 4898,
      "movements": 4899,
      "ered": 4900,
      "toler": 4901,
      "fell": 4902,
      "matic": 4903,
      "accepted": 4904,
      "reci": 4905,
      "constru": 4906,
      "anxiety": 4907,
      "Global": 4908,
      "ka": 4909,
      "perspective": 4910,
      "istan": 4911,
      "attacks": 4912,
      "crops": 4913,
      "pregnancy": 4914,
      "scan": 4915,
      "tood": 4916,
      "rapidly": 4917,
      "iel": 4918,
      "ifying": 4919,
      "affects": 4920,
      "Di": 4921,
      "quate": 4922,
      "acters": 4923,
      "pleas": 4924,
      "Commit": 4925,
      "possibility": 4926,
      "pretty": 4927,
      "god": 4928,
      "advoc": 4929,
      "understood": 4930,
      "assum": 4931,
      "stored": 4932,
      "connect": 4933,
      "pha": 4934,
      "tun": 4935,
      "orbit": 4936,
      "Study": 4937,
      "stars": 4938,
      "failed": 4939,
      "increasingly": 4940,
      "argument": 4941,
      "destroyed": 4942,
      "lights": 4943,
      "san": 4944,
      "anc": 4945,
      "supplies": 4946,
      "expressed": 4947,
      "selected": 4948,
      "substance": 4949,
      "vulner": 4950,
      "bones": 4951,
      "ture": 4952,
      "weap": 4953,
      "fertil": 4954,
      "flat": 4955,
      "subsequ": 4956,
      "dates": 4957,
      "clust": 4958,
      "cert": 4959,
      "~~~": 4960,
      "sentence": 4961,
      "distinct": 4962,
      "consequences": 4963,
      "Library": 4964,
      "rought": 4965,
      "Artic": 4966,
      "signal": 4967,
      "Philip": 4968,
      "Land": 4969,
      "Nations": 4970,
      "OF": 4971,
      "bag": 4972,
      "error": 4973,
      "phr": 4974,
      "bles": 4975,
      "component": 4976,
      "secure": 4977,
      "Group": 4978,
      "PC": 4979,
      "shel": 4980,
      "crete": 4981,
      "desc": 4982,
      "osph": 4983,
      "biology": 4984,
      "massive": 4985,
      "Paris": 4986,
      "pag": 4987,
      "sures": 4988,
      "rian": 4989,
      "derived": 4990,
      "willing": 4991,
      "situations": 4992,
      "ING": 4993,
      "pit": 4994,
      "iring": 4995,
      "ody": 4996,
      "cognitive": 4997,
      "plication": 4998,
      "periods": 4999
    },
    "merges": [
      [
        "t",
        "h"
      ],
      [
        "i",
        "n"
      ],
      [
        "e",
        "r"
      ],
      [
        "a",
        "n"
      ],
      [
        "th",
        "e"
      ],
      [
        "o",
        "n"
      ],
      [
        "r",
        "e"
      ],
      [
        "a",
        "t"
      ],
      [
        "e",
        "n"
      ],
      [
        "o",
        "r"
      ],
      [
        "e",
        "s"
      ],
      [
        "a",
        "l"
      ],
      [
        "i",
        "s"
      ],
      [
        "e",
        "d"
      ],
      [
        "o",
        "f"
      ],
      [
        "an",
        "d"
      ],
      [
        "t",
        "o"
      ],
      [
        "a",
        "r"
      ],
      [
        "o",
        "u"
      ],
      [
        "in",
        "g"
      ],
      [
        "i",
        "t"
      ],
      [
        "a",
        "s"
      ],
      [
        "i",
        "c"
      ],
      [
        "i",
        "on"
      ],
      [
        "s",
        "t"
      ],
      [
        "l",
        "e"
      ],
      [
        "r",
        "o"
      ],
      [
        "en",
        "t"
      ],
      [
        "c",
        "h"
      ],
      [
        "s",
        "e"
      ],
      [
        "i",
        "l"
      ],
      [
        "c",
        "t"
      ],
      [
        "h",
        "e"
      ],
      [
        "v",
        "e"
      ],
      [
        "o",
        "m"
      ],
      [
        "b",
        "e"
      ],
      [
        "l",
        "y"
      ],
      [
        "d",
        "e"
      ],
      [
        "f",
        "or"
      ],
      [
        "o",
        "l"
      ],
      [
        "at",
        "ion"
      ],
      [
        "c",
        "e"
      ],
      [
        "i",
        "m"
      ],
      [
        "o",
        "w"
      ],
      [
        "a",
        "m"
      ],
      [
        "a",
        "d"
      ],
      [
        "s",
        "u"
      ],
      [
        "a",
        "re"
      ],
      [
        "i",
        "g"
      ],
      [
        "w",
        "h"
      ],
      [
        "v",
        "er"
      ],
      [
        "th",
        "at"
      ],
      [
        "t",
        "er"
      ],
      [
        "i",
        "r"
      ],
      [
        "c",
        "on"
      ],
      [
        "i",
        "d"
      ],
      [
        "a",
        "b"
      ],
      [
        "a",
        "y"
      ],
      [
        "u",
        "n"
      ],
      [
        "p",
        "ro"
      ],
      [
        "u",
        "r"
      ],
      [
        "T",
        "he"
      ],
      [
        "o",
        "t"
      ],
      [
        "i",
        "th"
      ],
      [
        "u",
        "t"
      ],
      [
        "g",
        "e"
      ],
      [
        "u",
        "s"
      ],
      [
        "u",
        "l"
      ],
      [
        "p",
        "e"
      ],
      [
        "w",
        "ith"
      ],
      [
        "m",
        "o"
      ],
      [
        "r",
        "a"
      ],
      [
        "l",
        "o"
      ],
      [
        "c",
        "om"
      ],
      [
        "th",
        "er"
      ],
      [
        "re",
        "s"
      ],
      [
        "e",
        "x"
      ],
      [
        "i",
        "f"
      ],
      [
        "ou",
        "r"
      ],
      [
        "t",
        "s"
      ],
      [
        "a",
        "c"
      ],
      [
        "m",
        "ent"
      ],
      [
        "n",
        "e"
      ],
      [
        "p",
        "er"
      ],
      [
        "at",
        "e"
      ],
      [
        "h",
        "a"
      ],
      [
        "e",
        "m"
      ],
      [
        "al",
        "l"
      ],
      [
        "w",
        "e"
      ],
      [
        "p",
        "l"
      ],
      [
        "i",
        "es"
      ],
      [
        "il",
        "l"
      ],
      [
        "es",
        "s"
      ],
      [
        "k",
        "e"
      ],
      [
        "b",
        "y"
      ],
      [
        "t",
        "r"
      ],
      [
        "o",
        "d"
      ],
      [
        "ou",
        "n"
      ],
      [
        "er",
        "s"
      ],
      [
        "l",
        "d"
      ],
      [
        "it",
        "y"
      ],
      [
        "es",
        "t"
      ],
      [
        "s",
        "o"
      ],
      [
        "p",
        "o"
      ],
      [
        "er",
        "e"
      ],
      [
        "ro",
        "m"
      ],
      [
        "ig",
        "h"
      ],
      [
        "i",
        "ve"
      ],
      [
        "w",
        "as"
      ],
      [
        "t",
        "e"
      ],
      [
        "m",
        "a"
      ],
      [
        "i",
        "v"
      ],
      [
        "q",
        "u"
      ],
      [
        "f",
        "rom"
      ],
      [
        "t",
        "a"
      ],
      [
        "u",
        "m"
      ],
      [
        "ou",
        "t"
      ],
      [
        "h",
        "is"
      ],
      [
        "l",
        "l"
      ],
      [
        "e",
        "t"
      ],
      [
        "s",
        "h"
      ],
      [
        "c",
        "an"
      ],
      [
        "I",
        "n"
      ],
      [
        "c",
        "i"
      ],
      [
        "a",
        "p"
      ],
      [
        "n",
        "ot"
      ],
      [
        "ar",
        "t"
      ],
      [
        "o",
        "p"
      ],
      [
        "a",
        "ct"
      ],
      [
        "an",
        "t"
      ],
      [
        "on",
        "e"
      ],
      [
        "a",
        "g"
      ],
      [
        "w",
        "or"
      ],
      [
        "c",
        "l"
      ],
      [
        "f",
        "e"
      ],
      [
        "ha",
        "ve"
      ],
      [
        "ic",
        "al"
      ],
      [
        "u",
        "d"
      ],
      [
        "is",
        "t"
      ],
      [
        "y",
        "ou"
      ],
      [
        "th",
        "is"
      ],
      [
        "0",
        "0"
      ],
      [
        "l",
        "i"
      ],
      [
        "ic",
        "h"
      ],
      [
        "d",
        "u"
      ],
      [
        "u",
        "re"
      ],
      [
        "m",
        "e"
      ],
      [
        "c",
        "o"
      ],
      [
        "or",
        "t"
      ],
      [
        "g",
        "h"
      ],
      [
        "ou",
        "ld"
      ],
      [
        "r",
        "i"
      ],
      [
        "d",
        "er"
      ],
      [
        "e",
        "ar"
      ],
      [
        "p",
        "h"
      ],
      [
        "m",
        "an"
      ],
      [
        "ion",
        "s"
      ],
      [
        "in",
        "e"
      ],
      [
        "at",
        "ed"
      ],
      [
        "d",
        "o"
      ],
      [
        "om",
        "e"
      ],
      [
        "ar",
        "d"
      ],
      [
        "the",
        "ir"
      ],
      [
        "igh",
        "t"
      ],
      [
        "en",
        "d"
      ],
      [
        "an",
        "s"
      ],
      [
        "u",
        "se"
      ],
      [
        "d",
        "is"
      ],
      [
        "wh",
        "ich"
      ],
      [
        "ou",
        "gh"
      ],
      [
        "g",
        "r"
      ],
      [
        "a",
        "ge"
      ],
      [
        "o",
        "ther"
      ],
      [
        "b",
        "ut"
      ],
      [
        "1",
        "9"
      ],
      [
        "al",
        "ly"
      ],
      [
        "oun",
        "d"
      ],
      [
        "ou",
        "s"
      ],
      [
        "i",
        "de"
      ],
      [
        "in",
        "d"
      ],
      [
        "the",
        "y"
      ],
      [
        "i",
        "a"
      ],
      [
        "en",
        "ce"
      ],
      [
        "a",
        "ch"
      ],
      [
        "is",
        "h"
      ],
      [
        "e",
        "v"
      ],
      [
        "st",
        "r"
      ],
      [
        "for",
        "m"
      ],
      [
        "f",
        "o"
      ],
      [
        "u",
        "p"
      ],
      [
        "as",
        "t"
      ],
      [
        "mo",
        "re"
      ],
      [
        "on",
        "g"
      ],
      [
        "i",
        "z"
      ],
      [
        "ab",
        "le"
      ],
      [
        "c",
        "re"
      ],
      [
        "h",
        "as"
      ],
      [
        "p",
        "ort"
      ],
      [
        "p",
        "r"
      ],
      [
        "as",
        "s"
      ],
      [
        "T",
        "h"
      ],
      [
        "w",
        "ill"
      ],
      [
        "o",
        "g"
      ],
      [
        "p",
        "re"
      ],
      [
        "e",
        "l"
      ],
      [
        "f",
        "er"
      ],
      [
        "p",
        "le"
      ],
      [
        "ct",
        "ion"
      ],
      [
        "ar",
        "y"
      ],
      [
        "g",
        "o"
      ],
      [
        "c",
        "a"
      ],
      [
        "it",
        "s"
      ],
      [
        "k",
        "ing"
      ],
      [
        "a",
        "in"
      ],
      [
        "w",
        "ere"
      ],
      [
        "at",
        "er"
      ],
      [
        "i",
        "e"
      ],
      [
        "t",
        "im"
      ],
      [
        "y",
        "our"
      ],
      [
        "i",
        "b"
      ],
      [
        "n",
        "ow"
      ],
      [
        "l",
        "ow"
      ],
      [
        "i",
        "re"
      ],
      [
        "p",
        "res"
      ],
      [
        "i",
        "al"
      ],
      [
        "il",
        "d"
      ],
      [
        "ation",
        "s"
      ],
      [
        "u",
        "st"
      ],
      [
        "k",
        "s"
      ],
      [
        "s",
        "y"
      ],
      [
        "i",
        "p"
      ],
      [
        "a",
        "v"
      ],
      [
        "re",
        "n"
      ],
      [
        "am",
        "e"
      ],
      [
        "b",
        "l"
      ],
      [
        "e",
        "f"
      ],
      [
        "b",
        "er"
      ],
      [
        "wh",
        "o"
      ],
      [
        "p",
        "art"
      ],
      [
        "b",
        "o"
      ],
      [
        "ent",
        "s"
      ],
      [
        "s",
        "pe"
      ],
      [
        "n",
        "o"
      ],
      [
        "al",
        "so"
      ],
      [
        "com",
        "m"
      ],
      [
        "c",
        "ent"
      ],
      [
        "p",
        "t"
      ],
      [
        "po",
        "s"
      ],
      [
        "s",
        "ome"
      ],
      [
        "as",
        "e"
      ],
      [
        "ig",
        "n"
      ],
      [
        "I",
        "t"
      ],
      [
        "ic",
        "e"
      ],
      [
        "g",
        "en"
      ],
      [
        "c",
        "ess"
      ],
      [
        "it",
        "ion"
      ],
      [
        "an",
        "ce"
      ],
      [
        "w",
        "ay"
      ],
      [
        "ab",
        "out"
      ],
      [
        "or",
        "y"
      ],
      [
        "ver",
        "y"
      ],
      [
        "it",
        "e"
      ],
      [
        "a",
        "f"
      ],
      [
        "in",
        "ter"
      ],
      [
        "W",
        "h"
      ],
      [
        "T",
        "his"
      ],
      [
        "s",
        "p"
      ],
      [
        "st",
        "ud"
      ],
      [
        "en",
        "s"
      ],
      [
        "2",
        "0"
      ],
      [
        "a",
        "ce"
      ],
      [
        "the",
        "m"
      ],
      [
        "c",
        "es"
      ],
      [
        "s",
        "er"
      ],
      [
        "con",
        "t"
      ],
      [
        ")",
        "."
      ],
      [
        "an",
        "g"
      ],
      [
        "ac",
        "k"
      ],
      [
        "t",
        "y"
      ],
      [
        "an",
        "y"
      ],
      [
        "re",
        "e"
      ],
      [
        "y",
        "ear"
      ],
      [
        "A",
        "n"
      ],
      [
        "th",
        "an"
      ],
      [
        "o",
        "ver"
      ],
      [
        "C",
        "h"
      ],
      [
        "c",
        "ol"
      ],
      [
        "in",
        "t"
      ],
      [
        "or",
        "s"
      ],
      [
        "S",
        "t"
      ],
      [
        "m",
        "ay"
      ],
      [
        "ow",
        "n"
      ],
      [
        "c",
        "or"
      ],
      [
        "i",
        "an"
      ],
      [
        "be",
        "en"
      ],
      [
        "i",
        "le"
      ],
      [
        "e",
        "p"
      ],
      [
        "t",
        "ra"
      ],
      [
        "mo",
        "st"
      ],
      [
        "re",
        "at"
      ],
      [
        "ther",
        "e"
      ],
      [
        "at",
        "es"
      ],
      [
        "h",
        "ad"
      ],
      [
        "wor",
        "k"
      ],
      [
        "tim",
        "e"
      ],
      [
        "l",
        "and"
      ],
      [
        "fe",
        "ct"
      ],
      [
        "ol",
        "og"
      ],
      [
        "ar",
        "ch"
      ],
      [
        "ta",
        "in"
      ],
      [
        "in",
        "to"
      ],
      [
        "wh",
        "en"
      ],
      [
        "s",
        "a"
      ],
      [
        "w",
        "o"
      ],
      [
        "b",
        "r"
      ],
      [
        "be",
        "t"
      ],
      [
        "op",
        "le"
      ],
      [
        "li",
        "ke"
      ],
      [
        "ne",
        "w"
      ],
      [
        "d",
        "es"
      ],
      [
        "o",
        "b"
      ],
      [
        "d",
        "ay"
      ],
      [
        "r",
        "it"
      ],
      [
        "m",
        "er"
      ],
      [
        "us",
        "ed"
      ],
      [
        "o",
        "k"
      ],
      [
        "c",
        "ur"
      ],
      [
        "ul",
        "t"
      ],
      [
        "k",
        "now"
      ],
      [
        "d",
        "if"
      ],
      [
        "f",
        "ul"
      ],
      [
        "the",
        "se"
      ],
      [
        "ing",
        "s"
      ],
      [
        "pro",
        "v"
      ],
      [
        "h",
        "ow"
      ],
      [
        "ver",
        "s"
      ],
      [
        "com",
        "p"
      ],
      [
        "U",
        "n"
      ],
      [
        "f",
        "ir"
      ],
      [
        "ch",
        "o"
      ],
      [
        "f",
        "l"
      ],
      [
        "w",
        "ould"
      ],
      [
        "pe",
        "ople"
      ],
      [
        "j",
        "e"
      ],
      [
        "2",
        "00"
      ],
      [
        "m",
        "ed"
      ],
      [
        "r",
        "ough"
      ],
      [
        "le",
        "ct"
      ],
      [
        "ro",
        "w"
      ],
      [
        "lo",
        "p"
      ],
      [
        "m",
        "in"
      ],
      [
        "st",
        "em"
      ],
      [
        "u",
        "al"
      ],
      [
        "m",
        "s"
      ],
      [
        "c",
        "k"
      ],
      [
        "u",
        "e"
      ],
      [
        "fo",
        "re"
      ],
      [
        "al",
        "th"
      ],
      [
        "re",
        "l"
      ],
      [
        "un",
        "der"
      ],
      [
        "on",
        "ly"
      ],
      [
        "c",
        "oun"
      ],
      [
        "su",
        "ch"
      ],
      [
        "c",
        "y"
      ],
      [
        "s",
        "on"
      ],
      [
        "re",
        "g"
      ],
      [
        "ation",
        "al"
      ],
      [
        "c",
        "er"
      ],
      [
        "n",
        "ing"
      ],
      [
        "it",
        "ies"
      ],
      [
        "ca",
        "use"
      ],
      [
        "if",
        "ic"
      ],
      [
        "ex",
        "t"
      ],
      [
        "m",
        "on"
      ],
      [
        "ol",
        "d"
      ],
      [
        "ment",
        "s"
      ],
      [
        "in",
        "cl"
      ],
      [
        "ch",
        "ild"
      ],
      [
        "l",
        "a"
      ],
      [
        "H",
        "e"
      ],
      [
        "je",
        "ct"
      ],
      [
        "se",
        "l"
      ],
      [
        "le",
        "ar"
      ],
      [
        "man",
        "y"
      ],
      [
        "h",
        "igh"
      ],
      [
        "1",
        "8"
      ],
      [
        "he",
        "l"
      ],
      [
        "at",
        "ive"
      ],
      [
        "pro",
        "du"
      ],
      [
        "wh",
        "at"
      ],
      [
        "at",
        "ing"
      ],
      [
        "ve",
        "lop"
      ],
      [
        "y",
        "s"
      ],
      [
        "o",
        "se"
      ],
      [
        "su",
        "r"
      ],
      [
        "c",
        "ed"
      ],
      [
        "ul",
        "ar"
      ],
      [
        "fir",
        "st"
      ],
      [
        "ci",
        "al"
      ],
      [
        "ne",
        "ed"
      ],
      [
        "re",
        "d"
      ],
      [
        "i",
        "ous"
      ],
      [
        "h",
        "er"
      ],
      [
        ")",
        ","
      ],
      [
        "ge",
        "t"
      ],
      [
        "th",
        "rough"
      ],
      [
        "in",
        "s"
      ],
      [
        "at",
        "t"
      ],
      [
        "A",
        "s"
      ],
      [
        "t",
        "wo"
      ],
      [
        "f",
        "ic"
      ],
      [
        "d",
        "r"
      ],
      [
        "i",
        "ed"
      ],
      [
        "sy",
        "stem"
      ],
      [
        "u",
        "bl"
      ],
      [
        "ve",
        "l"
      ],
      [
        "1",
        "0"
      ],
      [
        "t",
        "ing"
      ],
      [
        "de",
        "velop"
      ],
      [
        "R",
        "e"
      ],
      [
        "t",
        "en"
      ],
      [
        "p",
        "ar"
      ],
      [
        "p",
        "s"
      ],
      [
        "W",
        "e"
      ],
      [
        "ic",
        "s"
      ],
      [
        "il",
        "y"
      ],
      [
        "e",
        "ver"
      ],
      [
        "c",
        "al"
      ],
      [
        "a",
        "th"
      ],
      [
        "we",
        "ll"
      ],
      [
        "m",
        "ar"
      ],
      [
        "is",
        "e"
      ],
      [
        "m",
        "y"
      ],
      [
        "re",
        "ad"
      ],
      [
        "wh",
        "ere"
      ],
      [
        "w",
        "ater"
      ],
      [
        "f",
        "r"
      ],
      [
        "e",
        "w"
      ],
      [
        "b",
        "le"
      ],
      [
        "ad",
        "d"
      ],
      [
        "a",
        "k"
      ],
      [
        "il",
        "ity"
      ],
      [
        "on",
        "s"
      ],
      [
        "ic",
        "t"
      ],
      [
        "l",
        "ess"
      ],
      [
        "l",
        "es"
      ],
      [
        "if",
        "e"
      ],
      [
        "dif",
        "fer"
      ],
      [
        "str",
        "u"
      ],
      [
        "ur",
        "ing"
      ],
      [
        "year",
        "s"
      ],
      [
        "res",
        "s"
      ],
      [
        "a",
        "u"
      ],
      [
        "c",
        "r"
      ],
      [
        "su",
        "p"
      ],
      [
        "st",
        "and"
      ],
      [
        "se",
        "arch"
      ],
      [
        "con",
        "d"
      ],
      [
        "s",
        "s"
      ],
      [
        "l",
        "ar"
      ],
      [
        "b",
        "u"
      ],
      [
        "an",
        "ge"
      ],
      [
        "l",
        "ong"
      ],
      [
        "ib",
        "le"
      ],
      [
        "al",
        "s"
      ],
      [
        "o",
        "c"
      ],
      [
        "as",
        "ed"
      ],
      [
        "su",
        "b"
      ],
      [
        "ser",
        "v"
      ],
      [
        "g",
        "an"
      ],
      [
        "the",
        "n"
      ],
      [
        "p",
        "ol"
      ],
      [
        "in",
        "v"
      ],
      [
        "ter",
        "n"
      ],
      [
        "u",
        "ch"
      ],
      [
        "sh",
        "ould"
      ],
      [
        "con",
        "s"
      ],
      [
        "su",
        "l"
      ],
      [
        "c",
        "ould"
      ],
      [
        "F",
        "or"
      ],
      [
        "c",
        "ar"
      ],
      [
        "com",
        "e"
      ],
      [
        "E",
        "n"
      ],
      [
        "d",
        "s"
      ],
      [
        "we",
        "en"
      ],
      [
        "th",
        "ing"
      ],
      [
        "f",
        "act"
      ],
      [
        "g",
        "y"
      ],
      [
        "a",
        "ir"
      ],
      [
        "pl",
        "an"
      ],
      [
        "hel",
        "p"
      ],
      [
        "it",
        "ed"
      ],
      [
        "v",
        "ir"
      ],
      [
        "j",
        "ust"
      ],
      [
        "re",
        "qu"
      ],
      [
        "ic",
        "k"
      ],
      [
        "is",
        "s"
      ],
      [
        "tr",
        "y"
      ],
      [
        "a",
        "il"
      ],
      [
        "f",
        "in"
      ],
      [
        "o",
        "s"
      ],
      [
        "bet",
        "ween"
      ],
      [
        "D",
        "e"
      ],
      [
        "se",
        "e"
      ],
      [
        "d",
        "i"
      ],
      [
        "id",
        "ent"
      ],
      [
        "I",
        "f"
      ],
      [
        "t",
        "ed"
      ],
      [
        "form",
        "ation"
      ],
      [
        "h",
        "o"
      ],
      [
        "mer",
        "ic"
      ],
      [
        "es",
        "e"
      ],
      [
        "cho",
        "ol"
      ],
      [
        "per",
        "i"
      ],
      [
        "is",
        "ts"
      ],
      [
        "c",
        "all"
      ],
      [
        "u",
        "res"
      ],
      [
        "tr",
        "ans"
      ],
      [
        "A",
        "meric"
      ],
      [
        "C",
        "on"
      ],
      [
        "n",
        "um"
      ],
      [
        "ex",
        "am"
      ],
      [
        "ma",
        "ke"
      ],
      [
        "S",
        "e"
      ],
      [
        "en",
        "g"
      ],
      [
        "spe",
        "c"
      ],
      [
        "u",
        "c"
      ],
      [
        "f",
        "un"
      ],
      [
        "af",
        "ter"
      ],
      [
        "f",
        "ound"
      ],
      [
        "ev",
        "en"
      ],
      [
        "20",
        "1"
      ],
      [
        "gen",
        "er"
      ],
      [
        "he",
        "alth"
      ],
      [
        "re",
        "search"
      ],
      [
        "ow",
        "er"
      ],
      [
        "ch",
        "n"
      ],
      [
        "l",
        "ed"
      ],
      [
        "A",
        "r"
      ],
      [
        "l",
        "ife"
      ],
      [
        "h",
        "um"
      ],
      [
        "v",
        "is"
      ],
      [
        "l",
        "in"
      ],
      [
        "olog",
        "y"
      ],
      [
        "A",
        "l"
      ],
      [
        "ur",
        "al"
      ],
      [
        "p",
        "ubl"
      ],
      [
        "wor",
        "ld"
      ],
      [
        "e",
        "ach"
      ],
      [
        "ur",
        "n"
      ],
      [
        "incl",
        "ud"
      ],
      [
        "at",
        "ure"
      ],
      [
        "se",
        "t"
      ],
      [
        "C",
        "om"
      ],
      [
        "p",
        "p"
      ],
      [
        "v",
        "ent"
      ],
      [
        "be",
        "cause"
      ],
      [
        "ce",
        "ll"
      ],
      [
        "ef",
        "fect"
      ],
      [
        "im",
        "port"
      ],
      [
        "in",
        "cre"
      ],
      [
        "f",
        "ol"
      ],
      [
        "sa",
        "id"
      ],
      [
        "th",
        "ose"
      ],
      [
        "iv",
        "es"
      ],
      [
        "s",
        "im"
      ],
      [
        "ma",
        "in"
      ],
      [
        "gr",
        "am"
      ],
      [
        "sel",
        "f"
      ],
      [
        "c",
        "us"
      ],
      [
        "ut",
        "ion"
      ],
      [
        "p",
        "at"
      ],
      [
        "s",
        "ay"
      ],
      [
        "H",
        "ow"
      ],
      [
        "~",
        "~"
      ],
      [
        "be",
        "ing"
      ],
      [
        "c",
        "ri"
      ],
      [
        "su",
        "re"
      ],
      [
        "f",
        "am"
      ],
      [
        "s",
        "m"
      ],
      [
        ".",
        "."
      ],
      [
        "The",
        "y"
      ],
      [
        "is",
        "m"
      ],
      [
        "differ",
        "ent"
      ],
      [
        "of",
        "f"
      ],
      [
        "ical",
        "ly"
      ],
      [
        "n",
        "or"
      ],
      [
        "P",
        "ro"
      ],
      [
        "b",
        "ack"
      ],
      [
        "pres",
        "ent"
      ],
      [
        "tr",
        "i"
      ],
      [
        "i",
        "vers"
      ],
      [
        "ter",
        "s"
      ],
      [
        "ie",
        "w"
      ],
      [
        "s",
        "ign"
      ],
      [
        "n",
        "ess"
      ],
      [
        "g",
        "u"
      ],
      [
        "per",
        "son"
      ],
      [
        "ra",
        "ct"
      ],
      [
        "at",
        "a"
      ],
      [
        "child",
        "ren"
      ],
      [
        "as",
        "es"
      ],
      [
        "e",
        "very"
      ],
      [
        "v",
        "al"
      ],
      [
        "b",
        "od"
      ],
      [
        "Th",
        "ere"
      ],
      [
        "pres",
        "s"
      ],
      [
        "S",
        "o"
      ],
      [
        "w",
        "ard"
      ],
      [
        "v",
        "ar"
      ],
      [
        "ma",
        "de"
      ],
      [
        "part",
        "ic"
      ],
      [
        "et",
        "y"
      ],
      [
        "s",
        "ol"
      ],
      [
        "g",
        "g"
      ],
      [
        "cor",
        "d"
      ],
      [
        "in",
        "formation"
      ],
      [
        "en",
        "er"
      ],
      [
        "th",
        "ough"
      ],
      [
        "v",
        "es"
      ],
      [
        "r",
        "is"
      ],
      [
        "us",
        "ing"
      ],
      [
        "m",
        "uch"
      ],
      [
        "s",
        "he"
      ],
      [
        "comm",
        "un"
      ],
      [
        "m",
        "em"
      ],
      [
        "B",
        "ut"
      ],
      [
        "s",
        "k"
      ],
      [
        "p",
        "ower"
      ],
      [
        "r",
        "y"
      ],
      [
        "le",
        "vel"
      ],
      [
        "his",
        "t"
      ],
      [
        "ce",
        "pt"
      ],
      [
        ".",
        "”"
      ],
      [
        "i",
        "o"
      ],
      [
        "so",
        "ci"
      ],
      [
        "w",
        "ar"
      ],
      [
        "d",
        "uring"
      ],
      [
        "s",
        "ame"
      ],
      [
        "M",
        "o"
      ],
      [
        "re",
        "sul"
      ],
      [
        "N",
        "ew"
      ],
      [
        "te",
        "chn"
      ],
      [
        "st",
        "ate"
      ],
      [
        "s",
        "ci"
      ],
      [
        "pro",
        "cess"
      ],
      [
        "c",
        "ap"
      ],
      [
        "ch",
        "ar"
      ],
      [
        "h",
        "im"
      ],
      [
        "g",
        "ra"
      ],
      [
        "u",
        "de"
      ],
      [
        "g",
        "row"
      ],
      [
        "id",
        "er"
      ],
      [
        "stud",
        "ents"
      ],
      [
        "v",
        "i"
      ],
      [
        "le",
        "ad"
      ],
      [
        "b",
        "re"
      ],
      [
        "b",
        "lo"
      ],
      [
        "s",
        "chool"
      ],
      [
        "fol",
        "low"
      ],
      [
        "ct",
        "ed"
      ],
      [
        "p",
        "or"
      ],
      [
        "ta",
        "ke"
      ],
      [
        "ic",
        "es"
      ],
      [
        "gr",
        "ou"
      ],
      [
        "g",
        "re"
      ],
      [
        "po",
        "p"
      ],
      [
        "do",
        "es"
      ],
      [
        "f",
        "ind"
      ],
      [
        "iz",
        "ed"
      ],
      [
        "import",
        "ant"
      ],
      [
        "pro",
        "te"
      ],
      [
        "d",
        "own"
      ],
      [
        "ag",
        "es"
      ],
      [
        "l",
        "ight"
      ],
      [
        "go",
        "od"
      ],
      [
        "a",
        "w"
      ],
      [
        "res",
        "p"
      ],
      [
        "ag",
        "ain"
      ],
      [
        "m",
        "at"
      ],
      [
        "st",
        "it"
      ],
      [
        "i",
        "x"
      ],
      [
        "in",
        "ce"
      ],
      [
        "bo",
        "th"
      ],
      [
        "be",
        "fore"
      ],
      [
        "pos",
        "s"
      ],
      [
        "l",
        "it"
      ],
      [
        "l",
        "ine"
      ],
      [
        "1",
        "5"
      ],
      [
        "stud",
        "y"
      ],
      [
        "sh",
        "ow"
      ],
      [
        "pro",
        "ble"
      ],
      [
        "fo",
        "od"
      ],
      [
        "de",
        "p"
      ],
      [
        "r",
        "ic"
      ],
      [
        "in",
        "k"
      ],
      [
        "or",
        "gan"
      ],
      [
        "sm",
        "all"
      ],
      [
        "c",
        "lo"
      ],
      [
        "h",
        "y"
      ],
      [
        "19",
        "9"
      ],
      [
        "com",
        "ple"
      ],
      [
        "le",
        "t"
      ],
      [
        "v",
        "iew"
      ],
      [
        "go",
        "ver"
      ],
      [
        "g",
        "l"
      ],
      [
        "t",
        "reat"
      ],
      [
        "iz",
        "e"
      ],
      [
        "wh",
        "ile"
      ],
      [
        "ish",
        "ed"
      ],
      [
        "d",
        "on"
      ],
      [
        "sh",
        "ip"
      ],
      [
        "ab",
        "ility"
      ],
      [
        "s",
        "to"
      ],
      [
        "or",
        "der"
      ],
      [
        "B",
        "e"
      ],
      [
        "way",
        "s"
      ],
      [
        "u",
        "g"
      ],
      [
        "An",
        "d"
      ],
      [
        "v",
        "ed"
      ],
      [
        "vir",
        "on"
      ],
      [
        "m",
        "al"
      ],
      [
        ".",
        "\""
      ],
      [
        "of",
        "ten"
      ],
      [
        "r",
        "ight"
      ],
      [
        "om",
        "en"
      ],
      [
        "i",
        "ent"
      ],
      [
        "p",
        "ut"
      ],
      [
        "pl",
        "ace"
      ],
      [
        "cont",
        "ro"
      ],
      [
        "n",
        "er"
      ],
      [
        "pl",
        "ay"
      ],
      [
        "ra",
        "in"
      ],
      [
        "t",
        "le"
      ],
      [
        "O",
        "n"
      ],
      [
        "dis",
        "e"
      ],
      [
        "1",
        "2"
      ],
      [
        "k",
        "es"
      ],
      [
        "pl",
        "ic"
      ],
      [
        "act",
        "iv"
      ],
      [
        "bod",
        "y"
      ],
      [
        "00",
        "0"
      ],
      [
        "v",
        "ing"
      ],
      [
        "cl",
        "ass"
      ],
      [
        "v",
        "en"
      ],
      [
        "Y",
        "ou"
      ],
      [
        "c",
        "are"
      ],
      [
        "know",
        "n"
      ],
      [
        "I",
        "s"
      ],
      [
        "ne",
        "t"
      ],
      [
        "le",
        "g"
      ],
      [
        "num",
        "ber"
      ],
      [
        "ivers",
        "ity"
      ],
      [
        "call",
        "ed"
      ],
      [
        "d",
        "ata"
      ],
      [
        "h",
        "and"
      ],
      [
        "gover",
        "n"
      ],
      [
        "p",
        "are"
      ],
      [
        "an",
        "ts"
      ],
      [
        "th",
        "ree"
      ],
      [
        "Wh",
        "en"
      ],
      [
        "hum",
        "an"
      ],
      [
        "or",
        "d"
      ],
      [
        "T",
        "o"
      ],
      [
        "iv",
        "id"
      ],
      [
        "de",
        "l"
      ],
      [
        "f",
        "ar"
      ],
      [
        "|",
        "|"
      ],
      [
        "c",
        "our"
      ],
      [
        "d",
        "id"
      ],
      [
        "re",
        "t"
      ],
      [
        "is",
        "su"
      ],
      [
        "l",
        "im"
      ],
      [
        "ar",
        "s"
      ],
      [
        "ct",
        "s"
      ],
      [
        "p",
        "lo"
      ],
      [
        "cont",
        "in"
      ],
      [
        "p",
        "a"
      ],
      [
        "pro",
        "gram"
      ],
      [
        "ur",
        "y"
      ],
      [
        "1",
        "7"
      ],
      [
        "d",
        "ire"
      ],
      [
        "e",
        "lect"
      ],
      [
        "Wh",
        "at"
      ],
      [
        "g",
        "er"
      ],
      [
        "all",
        "ow"
      ],
      [
        "id",
        "es"
      ],
      [
        "ap",
        "pro"
      ],
      [
        "g",
        "reat"
      ],
      [
        "al",
        "ity"
      ],
      [
        "iv",
        "ing"
      ],
      [
        "viron",
        "ment"
      ],
      [
        "exam",
        "ple"
      ],
      [
        "des",
        "ign"
      ],
      [
        "u",
        "b"
      ],
      [
        "st",
        "e"
      ],
      [
        "su",
        "m"
      ],
      [
        "po",
        "int"
      ],
      [
        "f",
        "t"
      ],
      [
        "lar",
        "ge"
      ],
      [
        "ul",
        "ation"
      ],
      [
        "se",
        "ver"
      ],
      [
        "co",
        "ver"
      ],
      [
        "Th",
        "ese"
      ],
      [
        "E",
        "x"
      ],
      [
        "u",
        "ally"
      ],
      [
        "1",
        "6"
      ],
      [
        "en",
        "ces"
      ],
      [
        "ar",
        "ound"
      ],
      [
        "it",
        "al"
      ],
      [
        "m",
        "ust"
      ],
      [
        "publ",
        "ic"
      ],
      [
        "as",
        "h"
      ],
      [
        "t",
        "al"
      ],
      [
        "g",
        "n"
      ],
      [
        ".",
        ","
      ],
      [
        "t",
        "est"
      ],
      [
        "ou",
        "se"
      ],
      [
        "te",
        "ach"
      ],
      [
        "ie",
        "ld"
      ],
      [
        "includ",
        "ing"
      ],
      [
        "t",
        "on"
      ],
      [
        "ch",
        "ange"
      ],
      [
        "w",
        "rit"
      ],
      [
        "s",
        "ing"
      ],
      [
        "ed",
        "uc"
      ],
      [
        "c",
        "ame"
      ],
      [
        "Americ",
        "an"
      ],
      [
        "m",
        "ot"
      ],
      [
        "b",
        "al"
      ],
      [
        "c",
        "le"
      ],
      [
        "tri",
        "but"
      ],
      [
        "t",
        "em"
      ],
      [
        "la",
        "w"
      ],
      [
        "A",
        "t"
      ],
      [
        "stru",
        "ct"
      ],
      [
        "a",
        "ther"
      ],
      [
        "e",
        "qu"
      ],
      [
        "fl",
        "u"
      ],
      [
        "qu",
        "est"
      ],
      [
        "b",
        "i"
      ],
      [
        "it",
        "ions"
      ],
      [
        "ap",
        "pe"
      ],
      [
        "m",
        "iss"
      ],
      [
        "ou",
        "th"
      ],
      [
        "bu",
        "ild"
      ],
      [
        "cons",
        "ider"
      ],
      [
        "sup",
        "port"
      ],
      [
        "b",
        "ased"
      ],
      [
        "st",
        "ill"
      ],
      [
        "o",
        "per"
      ],
      [
        "de",
        "c"
      ],
      [
        "g",
        "in"
      ],
      [
        "3",
        "0"
      ],
      [
        "re",
        "du"
      ],
      [
        "b",
        "ers"
      ],
      [
        "m",
        "en"
      ],
      [
        "ro",
        "ss"
      ],
      [
        "on",
        "d"
      ],
      [
        "ch",
        "ang"
      ],
      [
        ",",
        "”"
      ],
      [
        "act",
        "er"
      ],
      [
        "p",
        "ly"
      ],
      [
        "ate",
        "ly"
      ],
      [
        "e",
        "as"
      ],
      [
        "Un",
        "iversity"
      ],
      [
        "d",
        "ist"
      ],
      [
        "iv",
        "en"
      ],
      [
        "u",
        "ro"
      ],
      [
        "R",
        "es"
      ],
      [
        "ion",
        "al"
      ],
      [
        "con",
        "om"
      ],
      [
        "v",
        "ol"
      ],
      [
        "mo",
        "ve"
      ],
      [
        "o",
        "ve"
      ],
      [
        "ut",
        "e"
      ],
      [
        "p",
        "ract"
      ],
      [
        "fe",
        "w"
      ],
      [
        "m",
        "ight"
      ],
      [
        "ener",
        "gy"
      ],
      [
        "st",
        "art"
      ],
      [
        "ter",
        "m"
      ],
      [
        "s",
        "it"
      ],
      [
        "with",
        "out"
      ],
      [
        "to",
        "o"
      ],
      [
        "ren",
        "t"
      ],
      [
        "t",
        "il"
      ],
      [
        "B",
        "o"
      ],
      [
        "igh",
        "ts"
      ],
      [
        "r",
        "on"
      ],
      [
        "h",
        "ar"
      ],
      [
        "p",
        "ass"
      ],
      [
        "ct",
        "or"
      ],
      [
        "un",
        "d"
      ],
      [
        "to",
        "p"
      ],
      [
        "n",
        "am"
      ],
      [
        "m",
        "il"
      ],
      [
        "m",
        "ill"
      ],
      [
        "r",
        "an"
      ],
      [
        "ph",
        "ys"
      ],
      [
        "ire",
        "d"
      ],
      [
        "govern",
        "ment"
      ],
      [
        "N",
        "or"
      ],
      [
        "1",
        "4"
      ],
      [
        "A",
        "d"
      ],
      [
        "id",
        "s"
      ],
      [
        "iz",
        "ation"
      ],
      [
        "5",
        "0"
      ],
      [
        "under",
        "stand"
      ],
      [
        "dep",
        "end"
      ],
      [
        "dise",
        "ase"
      ],
      [
        "f",
        "ace"
      ],
      [
        "en",
        "vironment"
      ],
      [
        "he",
        "ad"
      ],
      [
        "p",
        "ur"
      ],
      [
        "iv",
        "ed"
      ],
      [
        "our",
        "ces"
      ],
      [
        "ater",
        "ial"
      ],
      [
        "h",
        "ome"
      ],
      [
        "-",
        "-"
      ],
      [
        "pr",
        "of"
      ],
      [
        "n",
        "at"
      ],
      [
        "th",
        "od"
      ],
      [
        "as",
        "on"
      ],
      [
        "an",
        "other"
      ],
      [
        "us",
        "es"
      ],
      [
        "ivid",
        "ual"
      ],
      [
        "be",
        "li"
      ],
      [
        "ex",
        "peri"
      ],
      [
        ",",
        "\""
      ],
      [
        "l",
        "ast"
      ],
      [
        "C",
        "an"
      ],
      [
        "ad",
        "v"
      ],
      [
        "are",
        "d"
      ],
      [
        "m",
        "p"
      ],
      [
        "p",
        "ain"
      ],
      [
        "C",
        "ol"
      ],
      [
        "lo",
        "c"
      ],
      [
        "ent",
        "ial"
      ],
      [
        "in",
        "ation"
      ],
      [
        "j",
        "o"
      ],
      [
        "comm",
        "on"
      ],
      [
        "re",
        "port"
      ],
      [
        "How",
        "ever"
      ],
      [
        "th",
        "or"
      ],
      [
        "develop",
        "ment"
      ],
      [
        "j",
        "or"
      ],
      [
        "su",
        "c"
      ],
      [
        "w",
        "ant"
      ],
      [
        "m",
        "ic"
      ],
      [
        "cord",
        "ing"
      ],
      [
        "with",
        "in"
      ],
      [
        "W",
        "or"
      ],
      [
        "J",
        "o"
      ],
      [
        "it",
        "ive"
      ],
      [
        "con",
        "tain"
      ],
      [
        "ear",
        "ly"
      ],
      [
        "p",
        "ot"
      ],
      [
        "b",
        "or"
      ],
      [
        "ch",
        "e"
      ],
      [
        "i",
        "qu"
      ],
      [
        "a",
        "ve"
      ],
      [
        "en",
        "se"
      ],
      [
        "ty",
        "p"
      ],
      [
        "lear",
        "n"
      ],
      [
        "y",
        "e"
      ],
      [
        "i",
        "um"
      ],
      [
        "n",
        "ame"
      ],
      [
        "m",
        "us"
      ],
      [
        "b",
        "en"
      ],
      [
        "re",
        "st"
      ],
      [
        "k",
        "en"
      ],
      [
        "w",
        "omen"
      ],
      [
        "in",
        "al"
      ],
      [
        "lo",
        "ok"
      ],
      [
        "r",
        "ad"
      ],
      [
        "b",
        "as"
      ],
      [
        "an",
        "im"
      ],
      [
        "again",
        "st"
      ],
      [
        "re",
        "f"
      ],
      [
        "b",
        "ed"
      ],
      [
        "are",
        "a"
      ],
      [
        "i",
        "er"
      ],
      [
        "bo",
        "ok"
      ],
      [
        "as",
        "k"
      ],
      [
        "e",
        "le"
      ],
      [
        "ar",
        "k"
      ],
      [
        "contro",
        "l"
      ],
      [
        "per",
        "cent"
      ],
      [
        "e",
        "conom"
      ],
      [
        "n",
        "on"
      ],
      [
        "ind",
        "ividual"
      ],
      [
        "re",
        "al"
      ],
      [
        "ar",
        "r"
      ],
      [
        "fam",
        "ily"
      ],
      [
        "m",
        "aterial"
      ],
      [
        "pl",
        "es"
      ],
      [
        "poss",
        "ible"
      ],
      [
        "h",
        "ere"
      ],
      [
        "d",
        "om"
      ],
      [
        "in",
        "du"
      ],
      [
        "se",
        "cond"
      ],
      [
        "grou",
        "p"
      ],
      [
        "1",
        "1"
      ],
      [
        "n",
        "ational"
      ],
      [
        "Un",
        "ited"
      ],
      [
        "en",
        "c"
      ],
      [
        "en",
        "cy"
      ],
      [
        "pro",
        "ject"
      ],
      [
        "so",
        "cial"
      ],
      [
        "b",
        "an"
      ],
      [
        "pare",
        "n"
      ],
      [
        "ne",
        "ar"
      ],
      [
        "C",
        "o"
      ],
      [
        "pl",
        "ant"
      ],
      [
        "in",
        "a"
      ],
      [
        "w",
        "w"
      ],
      [
        "c",
        "ult"
      ],
      [
        "po",
        "st"
      ],
      [
        "a",
        "im"
      ],
      [
        "at",
        "or"
      ],
      [
        "ris",
        "k"
      ],
      [
        "ent",
        "er"
      ],
      [
        "hist",
        "ory"
      ],
      [
        "es",
        "ts"
      ],
      [
        "m",
        "it"
      ],
      [
        "L",
        "e"
      ],
      [
        "pro",
        "per"
      ],
      [
        "f",
        "ac"
      ],
      [
        "im",
        "p"
      ],
      [
        "an",
        "al"
      ],
      [
        "u",
        "es"
      ],
      [
        "A",
        "ll"
      ],
      [
        "incl",
        "ude"
      ],
      [
        "des",
        "cri"
      ],
      [
        "r",
        "un"
      ],
      [
        "sci",
        "ent"
      ],
      [
        "op",
        "en"
      ],
      [
        "gr",
        "ound"
      ],
      [
        "blo",
        "od"
      ],
      [
        "partic",
        "ular"
      ],
      [
        "cer",
        "tain"
      ],
      [
        "id",
        "ence"
      ],
      [
        "ma",
        "jor"
      ],
      [
        "cell",
        "s"
      ],
      [
        "be",
        "come"
      ],
      [
        "ang",
        "u"
      ],
      [
        "u",
        "su"
      ],
      [
        "b",
        "ir"
      ],
      [
        "1",
        "3"
      ],
      [
        "d",
        "am"
      ],
      [
        "or",
        "ig"
      ],
      [
        "in",
        "es"
      ],
      [
        "we",
        "e"
      ],
      [
        "i",
        "ans"
      ],
      [
        "ct",
        "ive"
      ],
      [
        "end",
        "ed"
      ],
      [
        "av",
        "ail"
      ],
      [
        "spec",
        "ies"
      ],
      [
        "O",
        "r"
      ],
      [
        "b",
        "ro"
      ],
      [
        "b",
        "est"
      ],
      [
        "a",
        "h"
      ],
      [
        "inter",
        "est"
      ],
      [
        "P",
        "l"
      ],
      [
        "f",
        "ield"
      ],
      [
        "oc",
        "cur"
      ],
      [
        "In",
        "d"
      ],
      [
        "c",
        "u"
      ],
      [
        "a",
        "ke"
      ],
      [
        "me",
        "as"
      ],
      [
        "N",
        "A"
      ],
      [
        "ke",
        "t"
      ],
      [
        "P",
        "r"
      ],
      [
        "R",
        "o"
      ],
      [
        "m",
        "et"
      ],
      [
        "bet",
        "ter"
      ],
      [
        "s",
        "ite"
      ],
      [
        "say",
        "s"
      ],
      [
        "ition",
        "al"
      ],
      [
        "com",
        "es"
      ],
      [
        "art",
        "ic"
      ],
      [
        "if",
        "ied"
      ],
      [
        "me",
        "ans"
      ],
      [
        "me",
        "thod"
      ],
      [
        "prov",
        "ide"
      ],
      [
        "U",
        "S"
      ],
      [
        "pol",
        "it"
      ],
      [
        "O",
        "ne"
      ],
      [
        "f",
        "ree"
      ],
      [
        "cur",
        "rent"
      ],
      [
        "G",
        "od"
      ],
      [
        "ch",
        "em"
      ],
      [
        "ha",
        "pp"
      ],
      [
        "N",
        "ational"
      ],
      [
        "th",
        "ink"
      ],
      [
        "f",
        "low"
      ],
      [
        "r",
        "ist"
      ],
      [
        "f",
        "our"
      ],
      [
        "or",
        "ies"
      ],
      [
        "d",
        "ra"
      ],
      [
        "P",
        "h"
      ],
      [
        "our",
        "ce"
      ],
      [
        "c",
        "ase"
      ],
      [
        "lo",
        "cal"
      ],
      [
        "ke",
        "ep"
      ],
      [
        "at",
        "s"
      ],
      [
        "s",
        "ide"
      ],
      [
        "on",
        "es"
      ],
      [
        "sever",
        "al"
      ],
      [
        "t",
        "w"
      ],
      [
        "l",
        "ater"
      ],
      [
        "pos",
        "ed"
      ],
      [
        "s",
        "c"
      ],
      [
        "p",
        "ri"
      ],
      [
        "s",
        "ince"
      ],
      [
        "pl",
        "ain"
      ],
      [
        "h",
        "old"
      ],
      [
        "peri",
        "od"
      ],
      [
        "id",
        "ed"
      ],
      [
        "in",
        "ess"
      ],
      [
        "te",
        "ll"
      ],
      [
        "if",
        "y"
      ],
      [
        "f",
        "il"
      ],
      [
        "St",
        "ates"
      ],
      [
        "c",
        "ut"
      ],
      [
        "A",
        "f"
      ],
      [
        "ex",
        "p"
      ],
      [
        "treat",
        "ment"
      ],
      [
        "pl",
        "ac"
      ],
      [
        "M",
        "ar"
      ],
      [
        "m",
        "un"
      ],
      [
        "l",
        "ab"
      ],
      [
        "th",
        "s"
      ],
      [
        "an",
        "n"
      ],
      [
        "inv",
        "ol"
      ],
      [
        "u",
        "str"
      ],
      [
        "th",
        "ings"
      ],
      [
        "olog",
        "ical"
      ],
      [
        "var",
        "i"
      ],
      [
        "M",
        "ed"
      ],
      [
        "me",
        "an"
      ],
      [
        "I",
        "I"
      ],
      [
        "l",
        "ist"
      ],
      [
        "for",
        "t"
      ],
      [
        "t",
        "re"
      ],
      [
        "S",
        "ome"
      ],
      [
        "fe",
        "el"
      ],
      [
        "19",
        "8"
      ],
      [
        "tr",
        "ad"
      ],
      [
        "coun",
        "try"
      ],
      [
        "A",
        "c"
      ],
      [
        "suc",
        "cess"
      ],
      [
        "b",
        "us"
      ],
      [
        "cent",
        "ury"
      ],
      [
        "im",
        "es"
      ],
      [
        "tim",
        "es"
      ],
      [
        "w",
        "he"
      ],
      [
        "ta",
        "il"
      ],
      [
        "ill",
        "s"
      ],
      [
        "tr",
        "u"
      ],
      [
        "other",
        "s"
      ],
      [
        "D",
        "r"
      ],
      [
        "al",
        "e"
      ],
      [
        "lit",
        "tle"
      ],
      [
        "avail",
        "able"
      ],
      [
        "am",
        "ong"
      ],
      [
        "ob",
        "ject"
      ],
      [
        "de",
        "v"
      ],
      [
        "ab",
        "ly"
      ],
      [
        "are",
        "as"
      ],
      [
        "at",
        "ic"
      ],
      [
        "act",
        "ion"
      ],
      [
        "ab",
        "l"
      ],
      [
        "lear",
        "ning"
      ],
      [
        "2",
        "5"
      ],
      [
        "W",
        "ith"
      ],
      [
        "h",
        "n"
      ],
      [
        "im",
        "e"
      ],
      [
        "i",
        "ents"
      ],
      [
        "m",
        "is"
      ],
      [
        "nat",
        "ural"
      ],
      [
        "con",
        "ne"
      ],
      [
        "t",
        "ic"
      ],
      [
        "follow",
        "ing"
      ],
      [
        "ard",
        "s"
      ],
      [
        "co",
        "st"
      ],
      [
        "un",
        "til"
      ],
      [
        "dire",
        "ct"
      ],
      [
        "N",
        "o"
      ],
      [
        "ch",
        "es"
      ],
      [
        "n",
        "al"
      ],
      [
        "ac",
        "cess"
      ],
      [
        "P",
        "e"
      ],
      [
        "E",
        "uro"
      ],
      [
        "read",
        "y"
      ],
      [
        "l",
        "angu"
      ],
      [
        "t",
        "urn"
      ],
      [
        "as",
        "ter"
      ],
      [
        "B",
        "y"
      ],
      [
        "h",
        "ouse"
      ],
      [
        "re",
        "ce"
      ],
      [
        "a",
        "z"
      ],
      [
        "S",
        "ci"
      ],
      [
        "fun",
        "ction"
      ],
      [
        "ur",
        "ther"
      ],
      [
        "a",
        "x"
      ],
      [
        "ex",
        "per"
      ],
      [
        "af",
        "fect"
      ],
      [
        "wor",
        "ds"
      ],
      [
        "g",
        "iven"
      ],
      [
        "mo",
        "del"
      ],
      [
        "c",
        "lear"
      ],
      [
        "ty",
        "pe"
      ],
      [
        "G",
        "er"
      ],
      [
        "h",
        "al"
      ],
      [
        "f",
        "ish"
      ],
      [
        "ben",
        "ef"
      ],
      [
        "E",
        "ar"
      ],
      [
        "ma",
        "king"
      ],
      [
        "h",
        "ard"
      ],
      [
        "ith",
        "er"
      ],
      [
        "se",
        "em"
      ],
      [
        "B",
        "rit"
      ],
      [
        "Ch",
        "rist"
      ],
      [
        "o",
        "x"
      ],
      [
        "pre",
        "vent"
      ],
      [
        "g",
        "lo"
      ],
      [
        "g",
        "es"
      ],
      [
        "cour",
        "se"
      ],
      [
        "like",
        "ly"
      ],
      [
        "cent",
        "r"
      ],
      [
        "Euro",
        "pe"
      ],
      [
        "c",
        "ing"
      ],
      [
        "ci",
        "ally"
      ],
      [
        "pos",
        "ition"
      ],
      [
        "am",
        "oun"
      ],
      [
        "il",
        "ar"
      ],
      [
        "proble",
        "ms"
      ],
      [
        "au",
        "thor"
      ],
      [
        "re",
        "fer"
      ],
      [
        "sign",
        "ific"
      ],
      [
        "im",
        "ate"
      ],
      [
        "com",
        "b"
      ],
      [
        "n",
        "ed"
      ],
      [
        "c",
        "ir"
      ],
      [
        "er",
        "al"
      ],
      [
        "w",
        "ide"
      ],
      [
        "re",
        "cent"
      ],
      [
        "d",
        "ro"
      ],
      [
        "land",
        "s"
      ],
      [
        "al",
        "ong"
      ],
      [
        "o",
        "ks"
      ],
      [
        "s",
        "ed"
      ],
      [
        "as",
        "soci"
      ],
      [
        "W",
        "ar"
      ],
      [
        "some",
        "thing"
      ],
      [
        "day",
        "s"
      ],
      [
        "d",
        "en"
      ],
      [
        "4",
        "0"
      ],
      [
        "de",
        "fin"
      ],
      [
        "se",
        "qu"
      ],
      [
        "ot",
        "s"
      ],
      [
        "miss",
        "ion"
      ],
      [
        "Th",
        "at"
      ],
      [
        "t",
        "ro"
      ],
      [
        "ge",
        "ther"
      ],
      [
        "co",
        "gn"
      ],
      [
        "su",
        "gg"
      ],
      [
        "s",
        "is"
      ],
      [
        "S",
        "y"
      ],
      [
        "Jo",
        "hn"
      ],
      [
        "S",
        "h"
      ],
      [
        "p",
        "ed"
      ],
      [
        "level",
        "s"
      ],
      [
        "b",
        "it"
      ],
      [
        "m",
        "ing"
      ],
      [
        "l",
        "er"
      ],
      [
        "19",
        "7"
      ],
      [
        "system",
        "s"
      ],
      [
        "a",
        "de"
      ],
      [
        "C",
        "ar"
      ],
      [
        "in",
        "ed"
      ],
      [
        "on",
        "t"
      ],
      [
        "o",
        "id"
      ],
      [
        "ab",
        "ove"
      ],
      [
        "c",
        "ul"
      ],
      [
        "pe",
        "ct"
      ],
      [
        "educ",
        "ation"
      ],
      [
        "led",
        "ge"
      ],
      [
        "l",
        "s"
      ],
      [
        "wor",
        "d"
      ],
      [
        "in",
        "ing"
      ],
      [
        "ex",
        "ist"
      ],
      [
        "sp",
        "ace"
      ],
      [
        "y",
        "oun"
      ],
      [
        "gra",
        "ph"
      ],
      [
        "mill",
        "ion"
      ],
      [
        "G",
        "e"
      ],
      [
        "re",
        "le"
      ],
      [
        "em",
        "plo"
      ],
      [
        "du",
        "e"
      ],
      [
        "M",
        "e"
      ],
      [
        "s",
        "ha"
      ],
      [
        "usu",
        "ally"
      ],
      [
        "ro",
        "om"
      ],
      [
        "sh",
        "ort"
      ],
      [
        "tem",
        "per"
      ],
      [
        "pt",
        "ion"
      ],
      [
        "proble",
        "m"
      ],
      [
        "p",
        "an"
      ],
      [
        "pop",
        "ulation"
      ],
      [
        "c",
        "ra"
      ],
      [
        "ut",
        "ure"
      ],
      [
        "inv",
        "est"
      ],
      [
        "ch",
        "ed"
      ],
      [
        "is",
        "ion"
      ],
      [
        "G",
        "o"
      ],
      [
        "b",
        "ur"
      ],
      [
        "ne",
        "cess"
      ],
      [
        "c",
        "rit"
      ],
      [
        "ther",
        "n"
      ],
      [
        "an",
        "ces"
      ],
      [
        "de",
        "ath"
      ],
      [
        "g",
        "ed"
      ],
      [
        "spec",
        "ific"
      ],
      [
        "c",
        "am"
      ],
      [
        "m",
        "ind"
      ],
      [
        "in",
        "st"
      ],
      [
        "ke",
        "y"
      ],
      [
        "ha",
        "vi"
      ],
      [
        "end",
        "s"
      ],
      [
        "P",
        "o"
      ],
      [
        "est",
        "abl"
      ],
      [
        "to",
        "m"
      ],
      [
        "pro",
        "ve"
      ],
      [
        "a",
        "ut"
      ],
      [
        "ct",
        "ions"
      ],
      [
        "h",
        "our"
      ],
      [
        "resul",
        "t"
      ],
      [
        "to",
        "gether"
      ],
      [
        "wor",
        "ks"
      ],
      [
        "rel",
        "ated"
      ],
      [
        "6",
        "0"
      ],
      [
        "h",
        "t"
      ],
      [
        "f",
        "all"
      ],
      [
        "fr",
        "ic"
      ],
      [
        "v",
        "ious"
      ],
      [
        "tr",
        "ies"
      ],
      [
        "m",
        "ult"
      ],
      [
        "su",
        "f"
      ],
      [
        "can",
        "cer"
      ],
      [
        "A",
        "fric"
      ],
      [
        "be",
        "gin"
      ],
      [
        "st",
        "ep"
      ],
      [
        "he",
        "art"
      ],
      [
        "low",
        "er"
      ],
      [
        "h",
        "ab"
      ],
      [
        "wor",
        "king"
      ],
      [
        "w",
        "n"
      ],
      [
        "sel",
        "ves"
      ],
      [
        "n",
        "ext"
      ],
      [
        "st",
        "ri"
      ],
      [
        "ra",
        "ph"
      ],
      [
        "l",
        "ing"
      ],
      [
        "to",
        "day"
      ],
      [
        "spe",
        "cial"
      ],
      [
        "h",
        "ol"
      ],
      [
        "k",
        "ind"
      ],
      [
        "r",
        "u"
      ],
      [
        "a",
        "way"
      ],
      [
        "act",
        "ive"
      ],
      [
        "C",
        "oun"
      ],
      [
        "ar",
        "ing"
      ],
      [
        "le",
        "ast"
      ],
      [
        "chang",
        "es"
      ],
      [
        "commun",
        "ity"
      ],
      [
        "how",
        "ever"
      ],
      [
        "g",
        "ive"
      ],
      [
        "comple",
        "te"
      ],
      [
        "of",
        "fic"
      ],
      [
        "le",
        "ft"
      ],
      [
        "c",
        "ity"
      ],
      [
        "to",
        "ms"
      ],
      [
        "ic",
        "ation"
      ],
      [
        "O",
        "f"
      ],
      [
        "plan",
        "ts"
      ],
      [
        "I",
        "S"
      ],
      [
        "N",
        "e"
      ],
      [
        "st",
        "er"
      ],
      [
        "m",
        "id"
      ],
      [
        "rel",
        "ation"
      ],
      [
        "cond",
        "itions"
      ],
      [
        "Af",
        "ter"
      ],
      [
        "is",
        "ed"
      ],
      [
        "re",
        "ach"
      ],
      [
        "char",
        "acter"
      ],
      [
        "str",
        "ong"
      ],
      [
        "or",
        "k"
      ],
      [
        "be",
        "came"
      ],
      [
        "pr",
        "im"
      ],
      [
        "al",
        "ways"
      ],
      [
        "ne",
        "ver"
      ],
      [
        "imp",
        "act"
      ],
      [
        "ear",
        "ch"
      ],
      [
        "techn",
        "ology"
      ],
      [
        "am",
        "es"
      ],
      [
        "c",
        "ases"
      ],
      [
        "langu",
        "age"
      ],
      [
        "ent",
        "ly"
      ],
      [
        "ful",
        "ly"
      ],
      [
        "o",
        "to"
      ],
      [
        "M",
        "ay"
      ],
      [
        "dis",
        "cus"
      ],
      [
        "s",
        "w"
      ],
      [
        "signific",
        "ant"
      ],
      [
        "le",
        "y"
      ],
      [
        "p",
        "ast"
      ],
      [
        "s",
        "ent"
      ],
      [
        "form",
        "ed"
      ],
      [
        "i",
        "k"
      ],
      [
        "pe",
        "t"
      ],
      [
        "s",
        "al"
      ],
      [
        "resul",
        "ts"
      ],
      [
        "ha",
        "ving"
      ],
      [
        "..",
        "."
      ],
      [
        "at",
        "ch"
      ],
      [
        "f",
        "uture"
      ],
      [
        "at",
        "ors"
      ],
      [
        "an",
        "e"
      ],
      [
        "ent",
        "al"
      ],
      [
        "we",
        "b"
      ],
      [
        "dif",
        "fic"
      ],
      [
        "mo",
        "der"
      ],
      [
        "gener",
        "al"
      ],
      [
        "ap",
        "plic"
      ],
      [
        "high",
        "er"
      ],
      [
        "resp",
        "ons"
      ],
      [
        "re",
        "present"
      ],
      [
        "sim",
        "ilar"
      ],
      [
        "es",
        "pe"
      ],
      [
        "m",
        "or"
      ],
      [
        "be",
        "havi"
      ],
      [
        "en",
        "ough"
      ],
      [
        "ta",
        "ken"
      ],
      [
        "t",
        "ar"
      ],
      [
        "ens",
        "ive"
      ],
      [
        "ev",
        "ed"
      ],
      [
        "go",
        "ing"
      ],
      [
        "En",
        "gl"
      ],
      [
        "gre",
        "en"
      ],
      [
        "ure",
        "d"
      ],
      [
        "u",
        "ter"
      ],
      [
        "as",
        "ing"
      ],
      [
        "de",
        "f"
      ],
      [
        "ay",
        "s"
      ],
      [
        "incre",
        "ase"
      ],
      [
        "espe",
        "cially"
      ],
      [
        "us",
        "h"
      ],
      [
        "cl",
        "aim"
      ],
      [
        "wh",
        "y"
      ],
      [
        "u",
        "ary"
      ],
      [
        "appro",
        "ach"
      ],
      [
        "i",
        "ver"
      ],
      [
        "coun",
        "t"
      ],
      [
        "and",
        "s"
      ],
      [
        "am",
        "in"
      ],
      [
        "Engl",
        "ish"
      ],
      [
        "su",
        "n"
      ],
      [
        "ste",
        "ad"
      ],
      [
        "m",
        "ber"
      ],
      [
        "effect",
        "ive"
      ],
      [
        "pa",
        "per"
      ],
      [
        "ough",
        "t"
      ],
      [
        "b",
        "ar"
      ],
      [
        "ter",
        "min"
      ],
      [
        "c",
        "op"
      ],
      [
        "gr",
        "ad"
      ],
      [
        "sub",
        "ject"
      ],
      [
        "for",
        "ce"
      ],
      [
        "activ",
        "ity"
      ],
      [
        "om",
        "et"
      ],
      [
        "press",
        "ion"
      ],
      [
        "cre",
        "ate"
      ],
      [
        "one",
        "y"
      ],
      [
        "at",
        "ory"
      ],
      [
        "2",
        "4"
      ],
      [
        "G",
        "r"
      ],
      [
        "Wh",
        "ile"
      ],
      [
        "age",
        "ment"
      ],
      [
        "ev",
        "idence"
      ],
      [
        "ful",
        "l"
      ],
      [
        "st",
        "ory"
      ],
      [
        "av",
        "es"
      ],
      [
        "il",
        "ities"
      ],
      [
        "t",
        "ion"
      ],
      [
        "stud",
        "ies"
      ],
      [
        "Y",
        "ork"
      ],
      [
        "str",
        "ate"
      ],
      [
        "sy",
        "mp"
      ],
      [
        "b",
        "on"
      ],
      [
        "ra",
        "ther"
      ],
      [
        "ac",
        "y"
      ],
      [
        "Nor",
        "th"
      ],
      [
        "ac",
        "ross"
      ],
      [
        "lo",
        "ss"
      ],
      [
        "g",
        "ar"
      ],
      [
        "re",
        "main"
      ],
      [
        "prof",
        "ess"
      ],
      [
        "contin",
        "u"
      ],
      [
        "h",
        "or"
      ],
      [
        "In",
        "ter"
      ],
      [
        "N",
        "ot"
      ],
      [
        "Wor",
        "ld"
      ],
      [
        "min",
        "is"
      ],
      [
        "t",
        "ext"
      ],
      [
        "C",
        "l"
      ],
      [
        "sci",
        "ence"
      ],
      [
        "know",
        "ledge"
      ],
      [
        "w",
        "r"
      ],
      [
        "f",
        "urther"
      ],
      [
        "coun",
        "tries"
      ],
      [
        "issu",
        "e"
      ],
      [
        "youn",
        "g"
      ],
      [
        "or",
        "g"
      ],
      [
        "al",
        "i"
      ],
      [
        "var",
        "ious"
      ],
      [
        "re",
        "ason"
      ],
      [
        "effect",
        "s"
      ],
      [
        "se",
        "en"
      ],
      [
        "in",
        "king"
      ],
      [
        "2",
        "1"
      ],
      [
        "r",
        "ate"
      ],
      [
        "hal",
        "f"
      ],
      [
        "b",
        "ig"
      ],
      [
        "ent",
        "ion"
      ],
      [
        "pro",
        "b"
      ],
      [
        "need",
        "s"
      ],
      [
        "b",
        "rain"
      ],
      [
        "experi",
        "ence"
      ],
      [
        "i",
        "ally"
      ],
      [
        "con",
        "cer"
      ],
      [
        "S",
        "he"
      ],
      [
        "St",
        "ud"
      ],
      [
        "at",
        "ures"
      ],
      [
        "develop",
        "ed"
      ],
      [
        "k",
        "ed"
      ],
      [
        "en",
        "e"
      ],
      [
        "ac",
        "c"
      ],
      [
        "clo",
        "se"
      ],
      [
        "s",
        "ens"
      ],
      [
        "mem",
        "bers"
      ],
      [
        "f",
        "ig"
      ],
      [
        "o",
        "re"
      ],
      [
        "grow",
        "th"
      ],
      [
        "ch",
        "an"
      ],
      [
        "1",
        "00"
      ],
      [
        "H",
        "is"
      ],
      [
        "quest",
        "ion"
      ],
      [
        "issu",
        "es"
      ],
      [
        "iqu",
        "e"
      ],
      [
        "polit",
        "ical"
      ],
      [
        "it",
        "or"
      ],
      [
        "ys",
        "is"
      ],
      [
        "whe",
        "ther"
      ],
      [
        "lin",
        "es"
      ],
      [
        "l",
        "ack"
      ],
      [
        "P",
        "res"
      ],
      [
        "qu",
        "ality"
      ],
      [
        "f",
        "ive"
      ],
      [
        "l",
        "ive"
      ],
      [
        "n",
        "ut"
      ],
      [
        "med",
        "i"
      ],
      [
        "D",
        "is"
      ],
      [
        "iv",
        "al"
      ],
      [
        "grou",
        "ps"
      ],
      [
        "S",
        "outh"
      ],
      [
        "T",
        "r"
      ],
      [
        "i",
        "res"
      ],
      [
        "om",
        "an"
      ],
      [
        "h",
        "ip"
      ],
      [
        "ne",
        "g"
      ],
      [
        "D",
        "o"
      ],
      [
        "E",
        "S"
      ],
      [
        "g",
        "ress"
      ],
      [
        "wh",
        "ite"
      ],
      [
        "Res",
        "earch"
      ],
      [
        "p",
        "ay"
      ],
      [
        "we",
        "ight"
      ],
      [
        "r",
        "ange"
      ],
      [
        "th",
        "ir"
      ],
      [
        "e",
        "ither"
      ],
      [
        "in",
        "flu"
      ],
      [
        "is",
        "on"
      ],
      [
        "il",
        "t"
      ],
      [
        "u",
        "el"
      ],
      [
        "ag",
        "o"
      ],
      [
        "st",
        "at"
      ],
      [
        "be",
        "low"
      ],
      [
        "build",
        "ing"
      ],
      [
        "m",
        "ass"
      ],
      [
        "to",
        "ol"
      ],
      [
        "He",
        "alth"
      ],
      [
        "ur",
        "ch"
      ],
      [
        "po",
        "se"
      ],
      [
        "produ",
        "ction"
      ],
      [
        "ex",
        "plain"
      ],
      [
        "pol",
        "ic"
      ],
      [
        "2",
        "2"
      ],
      [
        "al",
        "ready"
      ],
      [
        "up",
        "on"
      ],
      [
        "of",
        "fer"
      ],
      [
        "f",
        "requ"
      ],
      [
        "requ",
        "ire"
      ],
      [
        "sing",
        "le"
      ],
      [
        "w",
        "er"
      ],
      [
        "ev",
        "ent"
      ],
      [
        "ro",
        "le"
      ],
      [
        "iv",
        "il"
      ],
      [
        "dr",
        "ug"
      ],
      [
        "E",
        "R"
      ],
      [
        "H",
        "ist"
      ],
      [
        "re",
        "am"
      ],
      [
        "ro",
        "ad"
      ],
      [
        "amoun",
        "t"
      ],
      [
        "g",
        "s"
      ],
      [
        "phys",
        "ical"
      ],
      [
        "it",
        "ing"
      ],
      [
        "lab",
        "or"
      ],
      [
        "pat",
        "ients"
      ],
      [
        "x",
        "im"
      ],
      [
        "on",
        "ce"
      ],
      [
        "int",
        "ro"
      ],
      [
        "end",
        "ing"
      ],
      [
        "ret",
        "urn"
      ],
      [
        "sur",
        "face"
      ],
      [
        "publ",
        "ished"
      ],
      [
        "in",
        "te"
      ],
      [
        "Ear",
        "th"
      ],
      [
        "ph",
        "oto"
      ],
      [
        "wee",
        "k"
      ],
      [
        "a",
        "e"
      ],
      [
        "re",
        "ally"
      ],
      [
        "te",
        "am"
      ],
      [
        "typ",
        "es"
      ],
      [
        "ma",
        "kes"
      ],
      [
        "T",
        "e"
      ],
      [
        "form",
        "s"
      ],
      [
        "bl",
        "ack"
      ],
      [
        "d",
        "ig"
      ],
      [
        "ag",
        "ed"
      ],
      [
        "nor",
        "mal"
      ],
      [
        "to",
        "ward"
      ],
      [
        "hist",
        "or"
      ],
      [
        "en",
        "ed"
      ],
      [
        "it",
        "self"
      ],
      [
        "fo",
        "cus"
      ],
      [
        "un",
        "e"
      ],
      [
        "omet",
        "imes"
      ],
      [
        "en",
        "n"
      ],
      [
        "lo",
        "ad"
      ],
      [
        "f",
        "ed"
      ],
      [
        "ib",
        "ility"
      ],
      [
        "partic",
        "ip"
      ],
      [
        "fam",
        "il"
      ],
      [
        "in",
        "ci"
      ],
      [
        "d",
        "one"
      ],
      [
        "ind",
        "ic"
      ],
      [
        "bus",
        "iness"
      ],
      [
        "com",
        "ing"
      ],
      [
        "l",
        "iving"
      ],
      [
        "en",
        "ing"
      ],
      [
        "them",
        "selves"
      ],
      [
        "Americ",
        "a"
      ],
      [
        "o",
        "king"
      ],
      [
        "im",
        "prove"
      ],
      [
        "l",
        "ay"
      ],
      [
        "who",
        "le"
      ],
      [
        "col",
        "le"
      ],
      [
        "activ",
        "ities"
      ],
      [
        "J",
        "ew"
      ],
      [
        "r",
        "ights"
      ],
      [
        "P",
        "er"
      ],
      [
        "val",
        "ue"
      ],
      [
        "e",
        "th"
      ],
      [
        "i",
        "or"
      ],
      [
        "med",
        "ical"
      ],
      [
        "ist",
        "ic"
      ],
      [
        "z",
        "e"
      ],
      [
        "ev",
        "ol"
      ],
      [
        "f",
        "ail"
      ],
      [
        "s",
        "of"
      ],
      [
        "col",
        "lect"
      ],
      [
        "r",
        "ound"
      ],
      [
        "res",
        "ources"
      ],
      [
        "in",
        "it"
      ],
      [
        "con",
        "tribut"
      ],
      [
        "fic",
        "ient"
      ],
      [
        "cover",
        "ed"
      ],
      [
        "artic",
        "le"
      ],
      [
        "f",
        "at"
      ],
      [
        "s",
        "qu"
      ],
      [
        "par",
        "ts"
      ],
      [
        "S",
        "er"
      ],
      [
        "ri",
        "ed"
      ],
      [
        "se",
        "x"
      ],
      [
        "sy",
        "n"
      ],
      [
        "\"",
        "."
      ],
      [
        "though",
        "t"
      ],
      [
        "cl",
        "imate"
      ],
      [
        "re",
        "cogn"
      ],
      [
        "l",
        "ot"
      ],
      [
        "2",
        "3"
      ],
      [
        "intro",
        "du"
      ],
      [
        "/",
        "/"
      ],
      [
        "an",
        "k"
      ],
      [
        "g",
        "as"
      ],
      [
        "produ",
        "cts"
      ],
      [
        "p",
        "ath"
      ],
      [
        "ac",
        "cording"
      ],
      [
        "a",
        "ver"
      ],
      [
        "F",
        "e"
      ],
      [
        "w",
        "ind"
      ],
      [
        "og",
        "raph"
      ],
      [
        "stru",
        "ction"
      ],
      [
        "in",
        "ts"
      ],
      [
        "ou",
        "ts"
      ],
      [
        "symp",
        "toms"
      ],
      [
        "o",
        "il"
      ],
      [
        "st",
        "ates"
      ],
      [
        "ta",
        "ct"
      ],
      [
        "A",
        "b"
      ],
      [
        "research",
        "ers"
      ],
      [
        "g",
        "est"
      ],
      [
        "ch",
        "all"
      ],
      [
        "ang",
        "er"
      ],
      [
        "mem",
        "ber"
      ],
      [
        "sy",
        "ch"
      ],
      [
        "diffic",
        "ult"
      ],
      [
        "h",
        "ib"
      ],
      [
        "G",
        "u"
      ],
      [
        "v",
        "o"
      ],
      [
        "St",
        "ate"
      ],
      [
        "econom",
        "ic"
      ],
      [
        "~~",
        "~~"
      ],
      [
        "k",
        "ill"
      ],
      [
        "wo",
        "od"
      ],
      [
        "ht",
        "t"
      ],
      [
        "me",
        "et"
      ],
      [
        "M",
        "an"
      ],
      [
        "pre",
        "ad"
      ],
      [
        "to",
        "ok"
      ],
      [
        "ab",
        "les"
      ],
      [
        "s",
        "ource"
      ],
      [
        "de",
        "tail"
      ],
      [
        "pres",
        "sure"
      ],
      [
        "Can",
        "ad"
      ],
      [
        "cre",
        "ated"
      ],
      [
        "di",
        "ag"
      ],
      [
        "ple",
        "ment"
      ],
      [
        "M",
        "any"
      ],
      [
        "pot",
        "ential"
      ],
      [
        "Brit",
        "ish"
      ],
      [
        "a",
        "king"
      ],
      [
        "v",
        "it"
      ],
      [
        ".",
        ")"
      ],
      [
        "it",
        "ary"
      ],
      [
        "sk",
        "in"
      ],
      [
        "part",
        "ment"
      ],
      [
        "sugg",
        "est"
      ],
      [
        "s",
        "ound"
      ],
      [
        "ed",
        "s"
      ],
      [
        "anim",
        "als"
      ],
      [
        "can",
        "not"
      ],
      [
        "emplo",
        "y"
      ],
      [
        "be",
        "gan"
      ],
      [
        "rel",
        "ig"
      ],
      [
        "our",
        "nal"
      ],
      [
        "f",
        "ri"
      ],
      [
        ":",
        "//"
      ],
      [
        "b",
        "ul"
      ],
      [
        "d",
        "y"
      ],
      [
        "s",
        "es"
      ],
      [
        "ific",
        "ation"
      ],
      [
        "s",
        "ize"
      ],
      [
        "act",
        "ually"
      ],
      [
        "ma",
        "g"
      ],
      [
        "do",
        "cu"
      ],
      [
        "sit",
        "u"
      ],
      [
        "por",
        "ts"
      ],
      [
        "moder",
        "n"
      ],
      [
        "quest",
        "ions"
      ],
      [
        "s",
        "ix"
      ],
      [
        "sp",
        "ir"
      ],
      [
        "In",
        "stit"
      ],
      [
        "med",
        "ic"
      ],
      [
        "de",
        "m"
      ],
      [
        "b",
        "ot"
      ],
      [
        "se",
        "par"
      ],
      [
        "n",
        "ature"
      ],
      [
        "con",
        "du"
      ],
      [
        "incre",
        "ased"
      ],
      [
        "add",
        "ition"
      ],
      [
        "ma",
        "ch"
      ],
      [
        "ap",
        "an"
      ],
      [
        "se",
        "m"
      ],
      [
        "chem",
        "ical"
      ],
      [
        "al",
        "most"
      ],
      [
        "at",
        "ter"
      ],
      [
        "le",
        "ep"
      ],
      [
        "ide",
        "a"
      ],
      [
        "ob",
        "serv"
      ],
      [
        "consider",
        "ed"
      ],
      [
        "add",
        "ress"
      ],
      [
        "necess",
        "ary"
      ],
      [
        "Mo",
        "st"
      ],
      [
        "C",
        "or"
      ],
      [
        "g",
        "ain"
      ],
      [
        "eng",
        "ine"
      ],
      [
        "J",
        "apan"
      ],
      [
        "paren",
        "ts"
      ],
      [
        "ent",
        "ire"
      ],
      [
        "f",
        "lo"
      ],
      [
        "need",
        "ed"
      ],
      [
        "mult",
        "i"
      ],
      [
        "n",
        "ight"
      ],
      [
        "er",
        "c"
      ],
      [
        "e",
        "y"
      ],
      [
        "u",
        "gh"
      ],
      [
        "S",
        "A"
      ],
      [
        "D",
        "es"
      ],
      [
        "c",
        "up"
      ],
      [
        "s",
        "pr"
      ],
      [
        "d",
        "a"
      ],
      [
        "ta",
        "king"
      ],
      [
        "appe",
        "ar"
      ],
      [
        "mo",
        "ther"
      ],
      [
        "d",
        "ict"
      ],
      [
        "an",
        "ta"
      ],
      [
        "ear",
        "th"
      ],
      [
        "glo",
        "bal"
      ],
      [
        "p",
        "age"
      ],
      [
        "ou",
        "ra"
      ],
      [
        "E",
        "d"
      ],
      [
        "port",
        "un"
      ],
      [
        "relation",
        "ship"
      ],
      [
        "A",
        "ustr"
      ],
      [
        "e",
        "ve"
      ],
      [
        "ne",
        "y"
      ],
      [
        "201",
        "2"
      ],
      [
        "P",
        "ar"
      ],
      [
        "Austr",
        "al"
      ],
      [
        "stud",
        "ent"
      ],
      [
        "reg",
        "ion"
      ],
      [
        "associ",
        "ated"
      ],
      [
        "requ",
        "ired"
      ],
      [
        "Mo",
        "re"
      ],
      [
        "lit",
        "er"
      ],
      [
        "indu",
        "str"
      ],
      [
        "comple",
        "x"
      ],
      [
        "w",
        "on"
      ],
      [
        "redu",
        "ce"
      ],
      [
        "p",
        "ing"
      ],
      [
        "to",
        "wn"
      ],
      [
        "pr",
        "iv"
      ],
      [
        "bu",
        "ilt"
      ],
      [
        "main",
        "tain"
      ],
      [
        "L",
        "o"
      ],
      [
        "id",
        "ing"
      ],
      [
        "att",
        "le"
      ],
      [
        "2",
        "8"
      ],
      [
        "ex",
        "plo"
      ],
      [
        "19",
        "6"
      ],
      [
        "2",
        "6"
      ],
      [
        "w",
        "al"
      ],
      [
        "A",
        "N"
      ],
      [
        "d",
        "le"
      ],
      [
        "ut",
        "es"
      ],
      [
        "pract",
        "ice"
      ],
      [
        "p",
        "ie"
      ],
      [
        "A",
        "ct"
      ],
      [
        "ta",
        "x"
      ],
      [
        "En",
        "g"
      ],
      [
        "ww",
        "w"
      ],
      [
        "act",
        "ions"
      ],
      [
        "produ",
        "ce"
      ],
      [
        "b",
        "ill"
      ],
      [
        "st",
        "ant"
      ],
      [
        "ut",
        "ions"
      ],
      [
        "y",
        "et"
      ],
      [
        "f",
        "ire"
      ],
      [
        "m",
        "oney"
      ],
      [
        "di",
        "et"
      ],
      [
        "reg",
        "ard"
      ],
      [
        "per",
        "s"
      ],
      [
        "is",
        "ing"
      ],
      [
        "prov",
        "ides"
      ],
      [
        "I",
        "N"
      ],
      [
        "in",
        "c"
      ],
      [
        "mon",
        "ths"
      ],
      [
        "re",
        "cord"
      ],
      [
        "s",
        "cal"
      ],
      [
        "ag",
        "ing"
      ],
      [
        "th",
        "us"
      ],
      [
        "he",
        "av"
      ],
      [
        "r",
        "ul"
      ],
      [
        "S",
        "p"
      ],
      [
        "sim",
        "ple"
      ],
      [
        "re",
        "comm"
      ],
      [
        "mic",
        "ro"
      ],
      [
        "M",
        "on"
      ],
      [
        "em",
        "er"
      ],
      [
        "Al",
        "though"
      ],
      [
        "anal",
        "ysis"
      ],
      [
        "2",
        "7"
      ],
      [
        "struct",
        "ure"
      ],
      [
        "ly",
        "ing"
      ],
      [
        "l",
        "or"
      ],
      [
        "H",
        "ar"
      ],
      [
        "P",
        "ol"
      ],
      [
        "c",
        "ks"
      ],
      [
        "se",
        "a"
      ],
      [
        "c",
        "ular"
      ],
      [
        "he",
        "at"
      ],
      [
        "us",
        "s"
      ],
      [
        "comp",
        "an"
      ],
      [
        "20",
        "10"
      ],
      [
        "material",
        "s"
      ],
      [
        "op",
        "portun"
      ],
      [
        "health",
        "y"
      ],
      [
        "stit",
        "ution"
      ],
      [
        "r",
        "ich"
      ],
      [
        "M",
        "in"
      ],
      [
        "af",
        "ety"
      ],
      [
        "er",
        "ing"
      ],
      [
        "ap",
        "y"
      ],
      [
        "qu",
        "ick"
      ],
      [
        "row",
        "n"
      ],
      [
        "bor",
        "n"
      ],
      [
        "s",
        "ense"
      ],
      [
        "sk",
        "ills"
      ],
      [
        "K",
        "ing"
      ],
      [
        "ch",
        "ol"
      ],
      [
        "temper",
        "ature"
      ],
      [
        "ex",
        "tra"
      ],
      [
        "tr",
        "ue"
      ],
      [
        "cond",
        "ition"
      ],
      [
        "htt",
        "p"
      ],
      [
        "F",
        "o"
      ],
      [
        "c",
        "it"
      ],
      [
        "comp",
        "uter"
      ],
      [
        ")",
        ":"
      ],
      [
        "es",
        "tern"
      ],
      [
        "2",
        "9"
      ],
      [
        "hour",
        "s"
      ],
      [
        "8",
        "0"
      ],
      [
        "l",
        "ives"
      ],
      [
        "Q",
        "u"
      ],
      [
        "re",
        "me"
      ],
      [
        "fore",
        "st"
      ],
      [
        "school",
        "s"
      ],
      [
        "l",
        "ate"
      ],
      [
        "M",
        "y"
      ],
      [
        "pr",
        "inci"
      ],
      [
        "C",
        "O"
      ],
      [
        "H",
        "ere"
      ],
      [
        "F",
        "r"
      ],
      [
        "th",
        "reat"
      ],
      [
        "col",
        "or"
      ],
      [
        "pop",
        "ular"
      ],
      [
        "d",
        "est"
      ],
      [
        "scient",
        "ists"
      ],
      [
        "de",
        "cl"
      ],
      [
        "long",
        "er"
      ],
      [
        "environment",
        "al"
      ],
      [
        "ed",
        "ing"
      ],
      [
        "O",
        "ther"
      ],
      [
        "f",
        "air"
      ],
      [
        "h",
        "om"
      ],
      [
        "us",
        "ion"
      ],
      [
        "t",
        "it"
      ],
      [
        "et",
        "ic"
      ],
      [
        "through",
        "out"
      ],
      [
        "understand",
        "ing"
      ],
      [
        "H",
        "er"
      ],
      [
        "d",
        "ed"
      ],
      [
        "show",
        "s"
      ],
      [
        "n",
        "ation"
      ],
      [
        "in",
        "fect"
      ],
      [
        "de",
        "termin"
      ],
      [
        "A",
        "T"
      ],
      [
        "sa",
        "fe"
      ],
      [
        "an",
        "a"
      ],
      [
        "rel",
        "ative"
      ],
      [
        "h",
        "am"
      ],
      [
        "sur",
        "v"
      ],
      [
        "re",
        "ct"
      ],
      [
        "ll",
        "ed"
      ],
      [
        "sh",
        "are"
      ],
      [
        "exper",
        "im"
      ],
      [
        "v",
        "ide"
      ],
      [
        "le",
        "x"
      ],
      [
        "hab",
        "it"
      ],
      [
        "c",
        "as"
      ],
      [
        "prov",
        "ided"
      ],
      [
        "spe",
        "ct"
      ],
      [
        "ass",
        "ess"
      ],
      [
        "re",
        "ed"
      ],
      [
        "pre",
        "vious"
      ],
      [
        "F",
        "rom"
      ],
      [
        "J",
        "u"
      ],
      [
        "con",
        "f"
      ],
      [
        "st",
        "or"
      ],
      [
        "em",
        "ber"
      ],
      [
        "read",
        "ing"
      ],
      [
        "person",
        "al"
      ],
      [
        "s",
        "ometimes"
      ],
      [
        "comp",
        "any"
      ],
      [
        "ron",
        "ic"
      ],
      [
        "em",
        "pt"
      ],
      [
        "S",
        "chool"
      ],
      [
        "j",
        "ob"
      ],
      [
        "er",
        "y"
      ],
      [
        "reg",
        "ular"
      ],
      [
        "f",
        "a"
      ],
      [
        "s",
        "am"
      ],
      [
        "ca",
        "used"
      ],
      [
        "a",
        "ud"
      ],
      [
        "pat",
        "tern"
      ],
      [
        "prote",
        "ct"
      ],
      [
        "b",
        "es"
      ],
      [
        "ac",
        "ks"
      ],
      [
        "serv",
        "ice"
      ],
      [
        "Sci",
        "ence"
      ],
      [
        "st",
        "ain"
      ],
      [
        "diag",
        "no"
      ],
      [
        "design",
        "ed"
      ],
      [
        "iz",
        "ing"
      ],
      [
        "ho",
        "od"
      ],
      [
        "stand",
        "ard"
      ],
      [
        "ll",
        "ing"
      ],
      [
        "ac",
        "cept"
      ],
      [
        "incre",
        "asing"
      ],
      [
        "ver",
        "se"
      ],
      [
        "et",
        "c"
      ],
      [
        "lo",
        "g"
      ],
      [
        "writ",
        "ing"
      ],
      [
        "er",
        "t"
      ],
      [
        "g",
        "ot"
      ],
      [
        "ter",
        "ms"
      ],
      [
        "ex",
        "erc"
      ],
      [
        "Ac",
        "cording"
      ],
      [
        "g",
        "ing"
      ],
      [
        "F",
        "ir"
      ],
      [
        "tra",
        "ining"
      ],
      [
        "br",
        "ing"
      ],
      [
        "C",
        "ent"
      ],
      [
        "d",
        "ate"
      ],
      [
        "ev",
        "al"
      ],
      [
        "cur",
        "ity"
      ],
      [
        "writ",
        "ten"
      ],
      [
        "J",
        "an"
      ],
      [
        "f",
        "ill"
      ],
      [
        "Se",
        "e"
      ],
      [
        "W",
        "ill"
      ],
      [
        "th",
        "y"
      ],
      [
        "st",
        "ress"
      ],
      [
        "so",
        "il"
      ],
      [
        "mean",
        "ing"
      ],
      [
        "de",
        "ep"
      ],
      [
        "Ger",
        "man"
      ],
      [
        "bo",
        "oks"
      ],
      [
        "H",
        "o"
      ],
      [
        "b",
        "ra"
      ],
      [
        "ubl",
        "ic"
      ],
      [
        "p",
        "ul"
      ],
      [
        "produ",
        "ct"
      ],
      [
        "orig",
        "in"
      ],
      [
        "l",
        "if"
      ],
      [
        "sh",
        "own"
      ],
      [
        "vi",
        "ol"
      ],
      [
        "in",
        "j"
      ],
      [
        "serv",
        "ices"
      ],
      [
        "w",
        "ent"
      ],
      [
        "discus",
        "s"
      ],
      [
        "pre",
        "t"
      ],
      [
        "G",
        "ener"
      ],
      [
        "meas",
        "ure"
      ],
      [
        "he",
        "ld"
      ],
      [
        "fact",
        "ors"
      ],
      [
        "ve",
        "y"
      ],
      [
        "to",
        "tal"
      ],
      [
        "su",
        "per"
      ],
      [
        "cont",
        "ent"
      ],
      [
        "mat",
        "ter"
      ],
      [
        "mus",
        "ic"
      ],
      [
        "im",
        "age"
      ],
      [
        "I",
        "D"
      ],
      [
        "In",
        "tern"
      ],
      [
        "un",
        "g"
      ],
      [
        "i",
        "to"
      ],
      [
        "med",
        "ia"
      ],
      [
        "ren",
        "ch"
      ],
      [
        "orig",
        "inal"
      ],
      [
        "mar",
        "k"
      ],
      [
        "A",
        "m"
      ],
      [
        "ta",
        "kes"
      ],
      [
        "on",
        "y"
      ],
      [
        "gre",
        "ater"
      ],
      [
        "M",
        "arch"
      ],
      [
        "De",
        "partment"
      ],
      [
        "report",
        "ed"
      ],
      [
        "p",
        "ict"
      ],
      [
        "te",
        "en"
      ],
      [
        "at",
        "ives"
      ],
      [
        "pr",
        "int"
      ],
      [
        "s",
        "ou"
      ],
      [
        "program",
        "s"
      ],
      [
        "dra",
        "w"
      ],
      [
        "ul",
        "ations"
      ],
      [
        "c",
        "ro"
      ],
      [
        "aver",
        "age"
      ],
      [
        "iv",
        "ity"
      ],
      [
        "for",
        "d"
      ],
      [
        "res",
        "ist"
      ],
      [
        "s",
        "mo"
      ],
      [
        "I",
        "m"
      ],
      [
        "M",
        "a"
      ],
      [
        "man",
        "agement"
      ],
      [
        "sim",
        "ply"
      ],
      [
        "d",
        "iv"
      ],
      [
        "de",
        "mon"
      ],
      [
        "N",
        "ow"
      ],
      [
        "P",
        "a"
      ],
      [
        "plac",
        "ed"
      ],
      [
        "in",
        "ary"
      ],
      [
        "se",
        "ction"
      ],
      [
        "n",
        "ers"
      ],
      [
        "Ch",
        "ar"
      ],
      [
        "e",
        "at"
      ],
      [
        "A",
        "R"
      ],
      [
        "n",
        "ia"
      ],
      [
        "ia",
        "bet"
      ],
      [
        "produ",
        "ced"
      ],
      [
        "re",
        "li"
      ],
      [
        "Ch",
        "ina"
      ],
      [
        "Fir",
        "st"
      ],
      [
        "7",
        "0"
      ],
      [
        "s",
        "leep"
      ],
      [
        "O",
        "ur"
      ],
      [
        "particular",
        "ly"
      ],
      [
        "behavi",
        "or"
      ],
      [
        "ul",
        "ts"
      ],
      [
        "t",
        "ree"
      ],
      [
        "t",
        "ies"
      ],
      [
        "mo",
        "ved"
      ],
      [
        "fr",
        "ont"
      ],
      [
        "il",
        "o"
      ],
      [
        "beli",
        "eve"
      ],
      [
        "3",
        "5"
      ],
      [
        "ab",
        "s"
      ],
      [
        "b",
        "s"
      ],
      [
        "ar",
        "gu"
      ],
      [
        "individual",
        "s"
      ],
      [
        "D",
        "av"
      ],
      [
        "n",
        "s"
      ],
      [
        "po",
        "or"
      ],
      [
        "201",
        "1"
      ],
      [
        "ot",
        "e"
      ],
[...]
